#version: 0.2 - Trained by `huggingface/tokenizers`
Ä ģ
i e
a s
Ä «
Ä ĵ
' '
Ġ p
a r
i s
Ġ s
Ġ k
i j
Å ¡
Ġ v
a t
g a
Ġ u
e s
Ġ t
a n
Ġ 1
i n
Ġ n
a u
e r
Ġ d
i r
a l
= =
s t
Ġ ga
o n
a i
Ġu n
e n
u m
Å Ĩ
Ġ l
Äģ s
Ġ ==
Ġ b
Ġ m
o t
Ġga d
Ġ (
Ġ ''
o r
Ä ¼
i k
a m
i l
Å «
t Äģ
i z
Ġn o
Ġ 2
ie m
u r
Ġ A
ij as
Äģ r
t a
Ġ S
Ġ P
Äĵ j
t s
Ġ K
u s
Ġ ar
d z
o l
Äģ k
ij a
Ġ1 9
Ä« b
Ġ L
Ġ r
Ġ V
Ġ ie
a p
i m
e l
Ġ ir
Å ¾
a d
o s
ie n
e m
a k
Ġ iz
o m
Ġ M
i d
t r
t u
a v
e k
Ġ Ä
Ġ at
'' '
Ġ B
Ġ T
Ġ R
t i
Ġ2 0
o j
Ġ D
ie k
Ġu z
Ġ'' '
Å¡ an
Äĵ l
Äģ j
Äĵ r
Ġp ar
Äģ l
Ġ "
i ÅĨ
Ġ c
a j
Ġ ap
Ġgad Äģ
is k
e t
Ġ j
o p
Äģ m
Ä« g
i t
Äģ d
Ġ f
Ġgad a
o d
g r
Ġp r
Ġ I
Ġ z
ie s
u l
â Ģ
Ġd z
a b
Äģ c
Ġ N
Ġp ie
Ġs p
o k
Ä« v
a is
ik a
Ä ·
Ä« j
Ġ G
i c
b r
ie t
at v
Ġ J
ij Äģ
Ġ Å¡
e d
Äĵ m
e v
Ä«b as
Ġ F
Äĵ t
Ä¼ u
0 0
Ä £
Ġk ur
s k
a z
Ġ E
um s
e z
d r
u n
Ġb ija
Ġl Ä«
ie l
Äģ n
e j
i v
o v
Ġar Ä«
Ġp Äģr
i on
a g
Ġk as
1 9
ij u
il s
Äĵ c
Ġ H
Äģ t
um u
Ġ 3
an d
Ġ au
Ä« t
Ä« n
er s
Å¡ u
g u
Å« r
e p
Ä į
Ġl ai
n iek
e id
Ġv al
Ġ( ''
Ġt ika
Ġ Z
Ġk Äģ
Ġ20 0
Ġ Å
Ġ== =
e c
ĠL atv
) ,
Ġk ar
Ġ20 1
l a
is t
Ġ g
Äĵj a
ĠlÄ« dz
a Ä¼
Ġk r
Ġ C
Ġv ien
Ġ O
tÄģ j
ir m
Ġv iÅĨ
v a
Ġr e
ar b
aj Äģ
a c
Ġs k
Äĵ k
ÅĨ u
u Å¡
Ġ gr
au c
e i
o b
Å¡an as
n ie
) .
ie v
Ġ1 8
t es
au k
u b
âĢ Ķ
Ġt r
Ġs av
Ä« r
ak st
Ġ 4
e Ä¼
Ġk om
Ġ U
u p
Ä«b u
ĠÅ ł
au l
* *
um a
o Å¡
Ġlai k
i tÄģ
a Å¡
Ġsp Äĵl
Ġs t
Ġdz im
o f
u k
Äģ v
Ä« m
st r
en s
Ġ19 9
an t
ĠK r
au n
Ġ 5
Ä«b a
Äĵj Äģs
um Äģ
Ġb et
Ġ in
ĠLatv ijas
e g
ĠÄ Ģ
Ġl iel
m a
Ġs as
s p
Ä« c
u t
in Äģ
i p
Ġp as
a Å¾
l as
em p
Ġp ils
Ġno v
Ġp irm
Äģj a
ie Å¡u
ai z
o c
on s
Ġb r
ĠÄ į
Ġp Äĵc
Ġv is
st s
a h
Ġv ar
2 0
v ar
Ġ h
a ir
Ġv ie
Äĵ n
p x
Ġn e
Ä«g as
Ġd arb
ik as
ij s
im p
Ä«j a
ie r
au dz
Ġ aiz
'' )
Ġk a
Äģr t
auc es
Ġs ai
Ġs Äģk
s l
ĠA ts
i g
oj a
d s
Äĵ ta
i b
d a
Ġt Äģ
Ġ **
Äģc ijas
t e
Ġk on
Ġt o
v eid
Ġat r
ĠAts auces
ÅĨ a
Ġ Ð
Ġ 6
g l
Ġv ai
ĠA n
ĠÄĢ r
in a
o z
Ġga l
Ġk op
Ġ 8
ar p
aul es
e Å¾
i Äģl
m as
Äĵ s
Ġv eid
em br
Ġv air
v en
ĠA l
e tr
emp ion
Ġn ot
Ä« s
um i
an s
au t
Ġ 7
o Å¡an
Ġsai tes
Ġ or
tÄģ v
us i
Ġ1 0
od as
ÅĨ Äĵm
b al
or s
Äĵ tÄģj
Ä« z
Ġp l
Å« t
g s
n es
ĠÄ £
ie dr
ĠÄĢr ÄĵjÄģs
Ġ1 7
Ð °
ĠÄį empion
d al
Ä« ga
Äĵ d
Ġ19 8
Ġiz m
Ġd iv
Ġv Äĵl
Ġd ien
Äĵ st
en tr
r e
Ġlaik Äģ
Ð ¾
Ġ1 5
Ġ ak
m u
Å¡ Ä·
ot Äģj
'' ,
Ġk l
Ġ1 2
k l
p r
1 8
ĠB r
Ġau g
e b
Ġie la
Ġdz Ä«v
ot s
t o
nie c
Ġt ik
Ġvair Äģk
Ġp ag
Ð ¸
on a
h e
ĠA r
Å«r as
v al
b ol
Ġt iek
o gr
Ġt ur
Ġb al
Ġv ir
Ä«b Äģ
e ik
Äĵt as
u d
v as
in Äģt
Ġ1 6
k r
Ġs l
Ä« d
ĠA t
er a
Ġgad s
Ġf il
Å« d
am s
u st
as ar
ĠP Äĵc
Ġz em
k s
Äį u
ĠP r
Ġ 9
Ġno s
r an
Ä« st
as t
Ġ19 7
ie Å¡
n Ä«c
u g
Ġat t
en t
ek s
ol o
Ġd aÄ¼
ot i
Ġt er
m e
Ġ1 1
uÅ¡ ie
Ġ19 4
in s
Ġkom and
k a
Ġv id
Ġga n
i Å¾
ĠG r
Äĵst ur
dz Ä«v
Ġap r
Å« n
ĠÅ¡ ah
e h
" ,
S V
Ġ1 3
isk o
v ien
ĠV al
Ä« l
Ġ1 4
Ġ19 6
ot ies
j u
c ijas
Ð µ
Ä« ts
ĠviÅĨ Å¡
Ġst arp
Ġv ad
Ġgr up
ĠR Ä«gas
ĠK at
ie c
ir op
Ġp al
n e
Ġpag as
ĠD Å¾
v id
2 00
Ġm ed
Ġm Å«
a in
Ġie k
Ġ ol
ĠS p
Ġs tr
âĢ ĵ
ga n
or ija
Äģ z
Ġ19 3
ĠI n
Ġ 0
am at
Ġg ar
Ġd aÅ¾
isk Äģ
z Ä«m
Ä« dz
iÅĨ Å¡
ÅĨ em
iek Å¡
Ġ al
Ġj aun
p l
niek u
ĠS t
il v
o st
tÄģ l
Ä«g i
isk Äģs
is tr
Ä«g Äģ
Ä« k
ĠI z
Äĵ Å¡an
Ġr akst
ot a
b er
au d
or m
Ġiz veid
Äĵ ts
ion Äģl
ĠD z
Ġiz c
'' ),
al n
Ġk Ä¼u
Ġm u
t er
ĠP ar
ĠKr iev
Ġc entr
Ġizm ant
i f
Ġpr et
Ġ âĢ
Ä« ta
in Äģj
au s
Ġd audz
Ġ19 5
Ġie r
niek s
Ġp a
v Äģr
Ġl ab
er at
in g
ar s
v Äĵr
Ġd r
Äģ f
Ä« p
i tu
ĠK ar
ub l
Ä« tÄģj
d u
Ñ Ģ
Ġ ok
Ġnov ad
Äĵj i
Ġp at
Ġp il
Ġatr odas
Ġsk ai
ĠE irop
av as
Ð ½
" .
Ġs al
Ġie gu
ĠÄ Į
ĠP as
ĠÄįempion Äģ
ga l
Ġp ol
e Å¡
Ġliel Äģk
is ts
Ġter it
is ti
ek l
ar k
Ġgad u
ik Äģ
ĠA SV
er i
Ġol imp
1 0
Ġl atv
ilv Äĵk
au j
d ien
Äģ p
Ġm az
Ġp iem
Ġtik ai
o g
um iem
Ġm in
sk at
ek t
Ġz iem
Ġ2 3
on as
Ġdzim uÅ¡ie
Äģ tr
au r
Ġb ei
k u
n i
Ġv iet
el s
in Äģja
Ġgad am
Ġt Äģs
ĠL iel
d ev
isk i
Å« v
Ġau t
1 7
ĠB al
Ñ ģ
Ġsas tÄģv
ĠN o
in iek
os m
olo Ä£
Ġs ez
Ġ19 2
dz im
Ä«j Äģs
Å«r a
'' .
ĠÄ ·
i h
niek i
un k
ov s
t as
ĠkÄ¼u va
Ġk ad
ik s
asar as
ej a
Äģc ija
Äĵr am
Ġ W
Äĵ v
ĠA u
âĢ Ŀ
Äĵ tu
st Äģv
eg orija
ĠviÅĨ a
Ġs ta
ot r
l u
e ic
Ġ as
Ġm ar
Äģj as
em es
Ġnos auk
ĠKat egorija
Ġ Ä«p
Ġuz var
as k
Ġval od
Ġv ec
Ġ of
Ġn av
es t
Ġaug st
Ġp aÅ¡
1 2
iÅĨ a
ĠS k
Ġval sts
Ġv Äģr
n a
ÅĨ as
ul tÄģ
il d
l e
p ils
aj iem
ĠM ar
Ä· is
Ġk at
Ġterit or
Ġre iz
Ð¾ Ð
Ġval d
S R
ĠA p
i a
e br
Ġj au
Ġie t
ad om
. )
Ġp us
c h
ak s
Ġpie dal
Ġp av
Ġr ad
Ġ ek
ie Å¾
ĠPas aules
ĠL ie
Ġgads im
e f
en ts
or t
um us
Ġgal ven
Ġt as
Ä¼ a
i Å¡
l ai
Ġc ilvÄĵk
Ġpr iekÅ¡
Å¡an a
Ġkar a
embr Ä«
Ġval st
Ġno d
ĠÅ¡ah a
ie d
Å« l
ul t
ĠspÄĵl ÄĵtÄģj
m an
Äģ b
1 1
Ġ( )
Ġm ir
ÅĨ i
Ġlatv ieÅ¡u
um os
ĠLatv ijÄģ
Ġm il
Äĵl s
Ġt e
oj as
k ar
Ġd al
Ġ otr
iv ers
en d
1 5
Äĵ tÄģ
ĠEirop as
Ġpils Äĵtas
o Å¡anas
Ġk o
l i
t ur
Ġ2 5
Ġm a
ut bol
Äĵj Äģ
ĠdaÅ¾ Äģd
r a
aj Äģs
Ġap m
ĠP irm
Ġs ar
Ġv Äĵstur
Ġ an
Ġvir s
u c
ogr Äģf
Ñ Ĥ
Ġsav u
Ġr ez
Ġsk ol
. âĢĶ
Ġ Ä¼
ej as
on Äģ
on u
Å¡an u
Ġt a
Ġn ep
1 6
Ġk m
ĠF ran
Äģk Äģ
or a
ak t
Å¡Ä· ir
Å« s
ĠP ol
ĠK op
ĠÄ«p aÅ¡
Ġt am
s ar
v ad
Ġl iet
Ġpas aules
ĠT r
Ġ3 0
ai d
c e
Ġp az
Ġpar t
ĠKriev ijas
Ġ Å«d
am a
oj Äģs
i Äį
Ġf utbol
az nÄ«c
00 0
Ġs u
ga bal
d er
ĠÅ¡ Ä·
Ġn ek
Ä¼ i
Ġs a
a Ä¼u
ĠZ iem
Ġmu iÅ¾
n u
ĠU n
i ti
d e
Ġp ak
dz a
ist Äĵm
Ġie g
n Ä«r
Ġiz las
in Äģl
ĠP SR
Ð º
Å« st
ĠT Äģ
Äĵ Ä¼
Ġ imp
Ġm Äģk
Ġs ep
k Äģrt
Äĵ g
Å« k
1 3
ob eÅ¾
er u
or d
Ġkl ub
ur s
en es
or u
1 4
ivers itÄģ
Ġ2 2
c iem
Ġ Äģr
v iet
ga d
r u
Ġ *
Å¡an Äģs
Ġd at
v Äĵl
g as
Ġuz ÅĨÄĵm
ie z
es s
Äĵ z
el t
Ġie sp
ĠAu str
as ti
uÅ¡ i
v ai
in d
Äģc iju
c ija
ieÅ¡ i
dzÄ«v otÄģj
oj ums
t aut
Ġau gu
Ġdz ies
Äģ ts
iÅĨ u
Ġs ac
ac ionÄģl
a f
19 9
au ga
Ġc it
Äģk ais
Ġj eb
u z
Ġvie ta
Äĵj is
Ġ el
ais t
Ġizc Ä«n
v er
ĠAt t
Ġu p
Ġ ab
an a
Ġap gabal
Ġp amat
m es
Ä« ti
Ġs tu
ar t
Ġkur Äģ
Ġv Äģc
Ġn or
Ġ2 4
e ÅĨ
ov a
Ġt Äģd
Ġre Ä£
Ġnot ika
om as
Ġpr of
om Äĵr
m in
Ġn es
ĠI I
Ġkur u
" :
o h
ij ai
Ġs istÄĵm
Ġs ad
ĠV is
ĠÄ ¶
i Ä¼
i o
an vÄģr
Ġb aznÄ«c
Ġt ies
Äģ ta
ej s
au g
Ð »
e Ä¼u
Ġ +
Ġkop Äģ
l ab
Ġv Äĵr
ÅĨÄĵm a
Ġj o
at Ä«v
ĠV Ä«r
Ġc iem
Äģn s
Ġar m
Ġvie tu
Ä«n a
aj Äģm
Ġat kl
Äģn a
ĠpÄģr stÄģv
Ġuz skat
embr is
Ġsas nie
Ġor gan
el ta
ĠmÅ« z
Ġtur nÄ«r
Ġ2 1
ĠF il
u Äģr
ĠS av
l s
ĠâĢ ŀ
oj ot
an dr
Ä«g s
am er
Äĵ Å¡anas
or ta
Ġs ak
Ġj Å«l
l is
to br
Ġm e
en i
ĠsastÄģv Äģ
Ġsav ien
ez id
ĠL ai
Ġdzim is
Ġj anvÄģr
on om
Å¾ u
ĠspÄĵlÄĵtÄģj i
d es
Ġbei g
e im
Ġs iev
ĠF r
ot as
Ġs v
ĠU z
ar d
Ġk ap
Ä«g u
Ġ Å¾
Ä«n as
ej u
Ġvien s
Ġkur as
ĠvÄĵl Äģk
Ġno zÄ«m
Ġ ez
niec Ä«bas
k as
en is
aÄ¼ as
ĠR Ä«gÄģ
en c
eÄ¼ a
v u
en er
ar a
Ġiegu v
m ir
Ġj Å«n
Ġ Â
ai t
ĠK l
en a
Ġsep t
er n
Ġv eik
Äĵj s
Ġ200 8
ĠÄ£ im
dzim is
Ġie dzÄ«votÄģj
Ġiek Ä¼
b ur
ebr uÄģr
el n
sk ol
Ġs ab
Ġkom p
Ġta Äįu
e dz
Ġd ec
ĠÅ ½
Ġp adom
am i
ik u
Ġn ev
Ġga is
Ġatt Ä«st
Ġ19 0
en tu
oÅ¡an a
Ġl id
e iz
Å¡ i
Ġl ik
Äĵ Ä£
ok s
Ġs ek
Ġ8 0
Äĵj o
i ta
ĠAtt Äĵls
ĠJ aun
Ġak t
Äĵj u
ĠspÄĵl Äĵs
f r
Äģn is
Ġb ar
iet is
ĠsÄģk a
er l
Ġ200 9
Äģk o
Ġdien vid
Ġvie tÄģ
f orm
Ġ201 0
er c
isk ais
ĠA m
b Å«v
ien s
Ġiz r
Ġdal Ä«b
Äĵr ijas
ĠT ur
Ġtr Ä«s
ĠBal t
Ġz inÄģt
Ġd e
u Ä£
Ġstr Äģd
k al
ep ubl
ĠdaÄ¼ a
Ġ es
Ġnovad a
Ġg l
Ġok tobr
ĠAl eks
Ġm Äĵr
Ġh ok
ĠV asaras
at a
Ġvien a
Ġkar al
Ġr aj
5 0
st Äģ
v iedr
Ġie l
ĠÄ¼ oti
u v
Ġal b
ev i
Ġ il
Ġb ez
Ġiz p
Ġk aus
Å« p
s Äģk
Ġkr ust
us ies
Äĵ ti
oj umu
Ġf ebruÄģr
aut as
Ġkur a
Ġl auk
sk a
Ġt el
n Äĵ
Ġk Äģd
ĠT as
on is
Ġ a
el z
Ġp unk
ib inÄģ
ĠÄįempionÄģ tÄģ
Ġkur Å¡
Ġrez ultÄģ
ĠPSR S
ĠK om
Ġpirm o
Äģr s
in c
Ġd om
ĠÅ¡ o
iÅĨ as
Ġ201 2
on i
ĠV il
Ġpr ezid
Ġb Å«t
Ġm etr
st Äģd
str Äģd
Ġp iek
Ġ2 6
Ġgrup as
Ä«j is
Ġiegu va
Ġstu d
c iju
Ġm Äģc
Äģ tu
Ġaiz sar
Ġsp Äĵk
Ġm at
in ts
Ġ2 8
st a
Äģn u
in Äģm
ic iÄģl
ĠP ie
. .
ĠK ur
ti c
ĠspÄĵl es
ogrÄģf ija
Äĵ Ä¼u
Ġgadsim ta
ĠS v
ij Äģm
n as
e ts
Ð ²
ĠviÅĨ u
Ġ Äĵk
Äģl Äģ
ĠO l
Ġnov Äĵr
ĠK on
ĠV Äĵstur
Ġiz d
Ġ200 6
Ġpl at
Ġb ij
as p
in t
Ġorgan iz
Ġtur p
Ġd ep
isk ajÄģs
Ġiz dev
Ġne at
Ġapr Ä«l
p us
Ġk uÄ£
ĠvÄģc u
Ġk ol
ĠmÅ« s
Ġs ag
Ġ gu
Ġj Å«ras
. '''
Ġd ev
er v
ogr am
Ġ20 00
eh n
Äĵj ais
ciem s
en ta
Ġ2 7
Ġr aÅ¾
ot u
st u
Ġs at
Ġt emp
Ġre Å¾
Ġsar akst
m Äģ
Ġte Äģtr
o w
en e
Ġziem eÄ¼
ĠG al
ĠR Ä«ga
Ä«g o
Ġm od
Ä· i
Ä· u
Ġ200 4
ab a
Ġ18 9
Ġ op
Ġnek Äģ
Äģv es
Ġ201 1
er t
Ġ201 4
er b
Ġbr Ä«v
ģ Ħ
av a
â ģĦ
Ġpav ad
ie tu
in o
Ġn el
Ġar h
Ġat s
Ġf r
Ġ200 7
Ġf on
Ġb iedr
s m
Ġs m
. ,
Äģd i
or i
val d
Ġs ug
Ġpie vien
Ġ1 00
Ġk osm
j a
Ġgad os
Ġm Äģjas
ĠP l
ĠZ em
ĠVal sts
ot o
Ġfil mas
Ġsab iedr
Ġau str
Å¡an ai
Ġatr ad
Ġk ok
ar i
Ġv asaras
Ġ( ;
Ġstarp taut
ĠD ien
Ġiesp Äĵj
oj uma
an k
ĠL Ä«dz
. -
ĠS tr
ĠD auga
ap a
Ä«b Äģm
Ġzem es
ek tr
z emes
er iÄģl
pl at
Ġp Äĵt
Ġt ir
Ġap vien
vai g
Ġno sl
el l
e in
Ġv eic
ĠD r
br uk
ĠLie tu
Ġpil n
on d
at av
is tu
Ġr obeÅ¾
Ġp ut
Ġpils Äĵta
gl Ä«t
ai m
un d
Ġ 000
Ġvien u
Ġvalod Äģ
ĠE l
ĠO tr
ĠVÄ«r ietis
Ġk ult
t Äĵ
k op
al l
is s
ĠS a
ier is
ĠM ask
Ġpol it
Ġvid us
Ġ2 9
Ġvir z
al as
Ġ :
Äģk Äģs
Ġ av
sk is
Ġp ul
Ġpiem Äĵram
Ġreiz es
Ġ201 6
Ġmin istr
re iz
Ġpirm s
ĠLie p
k o
Ġvad Ä«tÄģj
ĠÄį etr
Äģ ti
ĠlÄ« n
an g
3 0
il l
Ġnot eik
Äģk s
ak Å¡
Äģn ijas
Ġek sp
Ġiet ek
19 8
t op
Ġp ubl
ĠÄ Ĵ
itÄģ r
Ġ== ==
ĠAn dr
o Ä¼u
Ġp an
er e
Ġgr Äģm
iev u
ÅĨ iem
Ġb Äĵr
ar u
aj os
Ġs am
Ġcentr s
Äģ ÅĨu
Ġtemp erat
Ä«t as
Ġpr ogram
Äģl s
Ġsk r
Ġ ad
op ul
am o
el i
Ġk am
ĠAleks andr
oz Ä«c
ĠmÄģk sl
gr iez
Ġmil j
ĠM in
Ġ -
Ġpagas ts
'' ).
Äģn as
Ġk Ä¼
Ġ amat
ĠIn d
m s
Ġ5 0
Ġpie der
Ä« tu
ĠI r
Ġ200 5
Ġ4 0
Ġl Ä«g
Ġd ÄĵÄ¼
Ġ201 3
Ġkar j
ad Äĵm
ie ta
at s
Ġb iju
Ġt he
sk as
ien Äģ
e it
ĠÅ«d ens
oÅ¡an u
Äĵj ot
ĠreÄ£ ion
ĠS l
ĠVÄĵstur e
Ġn ed
j Äģ
Ġap st
Ġp ap
en ti
Ġdz elz
Ġapr iÅĨ
m i
ien a
lai k
T he
ĠmÅ«s dien
Ġv Ä«r
Ġatt iec
Ä« sk
Ġat z
aÄ¼ a
Ġp Äĵd
Ġd ab
g Äģr
il p
Äĵr s
Ġ Äģtr
ÅĨ Äģ
am as
c Äĵl
at u
us s
ĠvÄģr d
n s
Ġpar asti
Ġ( ,
Ġk aln
j aun
ga un
Ġr iet
Ġt ad
19 7
ĠV iÅĨÅ¡
Äģl i
Äģl a
Ä«j ums
aj a
Ġk al
Ġs en
Ġkr as
c el
2 5
on ijas
Ġt omÄĵr
Ġz aud
Ġlaik a
Ġolimp iskajÄģs
at Ä«t
od a
ĠV Äģcijas
Äģc ijÄģ
ĠDien vid
Ġp ers
it Å«
Ġpiedal Ä«jÄģs
Ġp la
Ġin ter
ik t
ĠZiem eÄ¼
Ġt ie
ĠDz im
er m
ĠÂ °
Ġd ibinÄģ
ĠV Äĵl
ien u
Ġf or
Å«r u
Ġc Ä«
Å« z
Ġk Äģr
ĠR epubl
om u
Ġsp ÄĵÄ¼u
Ġm Äģt
Äģr a
on z
ip r
Ġat bal
u tÄģ
Ð¸ Ñ
ĠâĢ ľ
ar ds
ĠO r
Ġpas aul
inÄģ ts
ij Äģs
dr oÅ¡
ĠK Äģr
Ä¼ iem
il a
ĠvÄĵr t
Ġie s
st itÅ«
Ġp ies
Ġ201 5
ĠZ viedr
ark an
il t
k i
in ot
Ġprof es
Ä«b ai
i dz
Ġc aur
Äģj Äģs
ĠP Äĵt
2 1
Ġb ieÅ¾
me ÅĨa
ĠUn iversitÄģ
Ġsas top
Ä«t e
Ġpas tÄģv
Ä«n u
Ġkop Å¡
st oÅ¡
Ġs im
Ġt Äĵv
Ġpagas ta
ed er
Ġin d
n is
o Å¾
g Äģ
Ġkr Äģs
n o
u ÅĨ
Ġm eÅ¾
Ä«n s
Ġk or
Ġviet as
Ġk las
Ġc eÄ¼
Ġs aist
Ġizlas es
isk ajÄģ
e ta
Ġ200 2
Ñ ĥ
evi Å¡Ä·
Ġkomand u
Ġt ajÄģ
Ġfutbol a
ĠL iv
Ġk auj
uk Äģrt
Ä« Å¡anas
Ġkomand as
am b
19 4
ur n
Ġsac ens
Ġpr ov
amer ikÄģ
ĠI gaun
i an
isk a
'' '''
el a
os a
Ä« tÄģ
en Äĵ
um am
Äģd a
Ġdiv as
Ġp opul
ĠJ Äģnis
Ġun iversitÄģ
oÅ¡an Äģs
Ð ´
Ġsez onÄģ
ak a
ĠÅ ħ
Ġ201 8
19 6
Ġmed aÄ¼as
Ġrakst ur
e is
ĠB i
ĠK al
mir is
ĠP ils
Ġskai ts
Ġsez onas
ĠsÄģk umÄģ
Ä«j umu
Ġteritor ijÄģ
g Ä¼u
ot n
Äĵ p
oj umi
A l
ĠS al
Ġm et
Ð¾Ð ²
Ġap akÅ¡
Ġd aÄ¼u
ĠK an
Ġ ob
ĠmÅ«z ikas
ĠSk atÄ«t
Ġn Äģk
2 4
Ġp eri
i ga
Ġbiju Å¡
ol a
Ġpr oj
ĠA ug
ic a
Å¡ a
ĠAn t
r akst
Ä· a
ist e
Ġt ehn
Ġkon c
Ġlaik u
ti v
Ġk an
Ġ3 1
Ġil g
Ġ'' '''
Ġatt Äĵl
ĠSa eim
Ð ¹
l av
id u
Ġsug as
Ġk g
19 3
Äĵj as
ta is
ĠdaÄ¼ Äģ
Ġat jaun
Ġval odas
v is
el ga
Ä«k st
Ġsag lab
ul d
Ä«j ies
ig z
ĠN acionÄģl
Ġ200 3
Ġp osm
Ġ201 7
s s
ĠÄ ¢
Ġnel iel
z em
Ġno l
a y
ĠN e
Ġr Å«p
Ġvis u
er as
Ġpal Ä«dz
Ġie vÄĵl
om a
b il
isk u
ol d
ĠS ta
Ġl oc
Äĵ dz
ĠE n
Ä«z ijas
ĠE d
v ed
Ġatrad Äģs
Äģ va
ĠtÄģ p
Ġapm Äĵram
Ġ18 8
Å¾ a
at ion
Ġaiz vad
Ġnosauk umu
Ġmu z
Ġgais a
it erat
ĠiedzÄ«votÄģj u
Ġup es
ask et
Ġsad al
Ġmir uÅ¡ie
Ġp am
niek a
Ġp el
asp Äĵk
Ġsp orta
Ġiz plat
Ġne b
Ġpr oc
al s
ĠC entr
otÄģj s
Ġat Å¡Ä·ir
Ġmir is
ist es
iÄį s
A n
Ġb Å«v
uk t
Ġof iciÄģl
Ġs ap
Ġreiz i
al iz
Ġkr ievu
sk ait
Ġz inÄģm
Ġgrup a
Ä«t es
Ġsl im
Ġno droÅ¡
Ġdep utÄģ
Ġgal vas
ir k
iÅĨ i
2 2
Ġk ust
ĠT o
Ġm Äĵn
Ġel ektr
ĠM on
j iem
Ġs var
ÄĵÅ¡an u
ĠL e
er is
ĠE r
tu ven
Ġuz sÄģk
Ġvie gl
ot Äģ
Ġj a
ÄĵÅ¡an a
Äģd u
Ġd i
Ġdien as
ĠreÅ¾ is
Ġk Äģrt
Ġneat kar
Ġ199 2
ĠpÄģr d
2 3
ai l
ur a
Ġ199 8
is ta
m it
Ġs tÄģv
Ġ200 1
H L
Ġm on
Ġ** *
Ġdzies mu
us u
Ġarm ijas
k Äģ
ÄĵtÄģj s
at l
oc iÄģl
id r
Äģd as
Ġ18 7
Ġbeig Äģs
Ġpirm ais
de ÅĨa
ĠP Äģr
Ġkar aspÄĵk
Ġgad us
Ġtr eÅ¡
ĠÄ£ ints
Å« tu
Ġpr od
Ġiz l
ĠP adom
l am
is ma
as s
ĠmuiÅ¾ a
c eÄ¼a
Ġpar Äģd
ier a
ier i
''' ,
tuven i
o u
Ġ199 6
Ġiz strÄģd
Ġc m
g e
asket bol
Ġsp ec
Ġbij is
Ġgl ez
gal es
Ġnosauk ums
Ġn acionÄģl
min istr
Ġ id
inÄģj Äģs
ir s
ev s
Ġveid o
ÄĵÅ¡an Äģs
Ġb l
ĠR omas
ĠV id
Ġ199 0
Ġpol iti
Ġa gr
ĠSav ien
ĠSp Äĵl
Äĵt Äģs
ul a
ier u
Ġpagas tÄģ
Ġmed aÄ¼u
Ġkon tr
Ġkon f
Ġ Y
Ġimp Äĵrijas
Ġr ok
um b
ĠbieÅ¾ i
Ġs auc
0 7
Äģl u
Ġr ek
iev iet
I I
ir z
r i
in as
Ġl ap
Ġpasaul Äĵ
2 6
ur u
o gs
Ġperi od
ĠA b
ĠF I
Ġ18 6
Ġma ijÄģ
om etr
Ġt iem
ĠM az
ok r
ot Äģs
Ġdr audz
in Äģs
ĠI tÄģl
ĠjÅ«l ijÄģ
Ġm as
ĠB l
ol f
0 1
Ä«b Äģs
ĠÄ ª
oj oÅ¡
Ä«sk ap
Ġat griez
Ġmar tÄģ
Ã ©
ov as
d arb
Ġolimp isko
ĠjÅ«n ijÄģ
ĠS om
Ġin form
Ġ X
ĠAm er
Ġdec embrÄ«
Ġpart ijas
Ġf ran
Ġbei dz
Ġnov embrÄ«
ĠN ik
Ġpaz Ä«st
Ġor deÅĨa
ĠspÄĵl Äĵ
on e
Äģr z
p e
an c
ĠM ed
ĠjanvÄģr Ä«
ĠV iÅĨa
Ġek onom
Ġkon k
L atv
in gs
er g
ĠKop Å¡
Äģk a
ĠSt arp
Ð ¼
2 7
ĠN r
s ol
at or
2 8
Ġt uv
ĠS u
Ġs nie
Ġoktobr Ä«
ĠFran cijas
P r
Ġsu dr
at as
au ts
ĠB ar
Ġz elta
iniek s
ĠBalt ijas
ĠÄ »
ekl is
g Äģd
Ġizmant o
ĠsÄģk Äģs
Äģc a
ĠlielÄģk Äģ
Ġpiem in
Ġpar edz
m et
Ġ and
Ġ199 9
Ġ20 19
Ġsept embrÄ«
ĠLietu vas
ip l
Ġin stitÅ«
ok Äģrt
A SV
niek iem
p a
ĠPol ijas
Ġkaus a
e ti
el es
4 0
Ġf iz
Ñģ Ðº
Ġf orm
Äĵn u
g ul
t ies
Ġr om
ĠJ elga
v es
ĠizcÄ«n Ä«ja
is c
ĠÅ¡ ajÄģ
Å¡an Äģ
ĠcilvÄĵk u
c ijÄģ
Ġn et
ĠmÄģk s
ĠM ir
k Äģr
Ġpirm Äģ
p Äģr
man is
ĠDauga v
Ġz Ä«m
Ġak adÄĵm
Ġsv Äĵt
2 9
Ġm Äģj
ĠKom and
Ġm m
Ġpaz iÅĨ
or v
ic h
ie st
A r
Ġiz glÄ«t
Ä«g Äģs
ĠV idz
ĠV ec
Ġskr aj
aj am
Äģ tÄģj
Ġdzim ta
ĠKur zemes
Ġmil itÄģr
Ġ6 0
en Ä«
Ġaugu stÄģ
ĠL u
Ġd eb
Äĵj usi
Ä«j umÄģ
ĠT he
ek ts
Ġsal as
Ġgadsim tÄģ
Ġdzim tas
ol s
ĠR ob
Ġb i
r as
r Äģd
isk ie
ĠC h
ul k
ĠÅ¡ Ä«
er ts
Ġb asketbol
Ñ Į
ĠÅł ajÄģ
ĠJ ur
m al
am u
i tr
Ġap tuveni
niec Ä«ba
Ġd in
Ġsp ort
Ġpan Äģk
Ġpie c
Ġre dz
Ġt ai
Ġhok eja
Å¡an os
g Äģj
Ġ amerikÄģ
Ġ** **
ĠB Äĵr
Ġap dzÄ«v
ĠOl imp
ĠA iz
Ġdz ied
Ġ3 6
Ġhok ej
an u
Ġor d
B r
ie g
Ġpils ÄĵtÄģ
oj umÄģ
Ġpubl ic
19 5
in e
Ġf inÄģl
Ġnot iek
igz d
Ġ â
Ġl Ä«gas
ĠM Äģr
Äģl Äģs
Ġ e
Å«r Äģ
Ġ3 5
ĠvairÄģk as
l ad
Ġuz bruk
ĠÄįempionÄģ ts
Ġd es
aj ai
ĠL at
Ġie lu
id a
or e
o Ä¼
ĠT e
Ġd ok
Ġie las
ti pr
Äĵj iem
Ġkur i
Ġprof ils
f or
Ñ ĭ
Ġziem as
Ġskai t
- -
Äģl is
ĠL ond
Ġ7 0
Ñ ı
iec ieÅ¡
Ġm ain
e iv
ĠA k
ĠAleksandr s
Ġ199 7
Ġdarb u
Äģr u
o ga
Ġ199 4
ev ol
Ġskraj ciems
itÄģ n
ĠaprÄ«l Ä«
Ġvidus skol
u j
am Äģ
zÄ«m es
oloÄ£ ijas
el is
Ġier akst
Ġv il
Äģk ie
F A
Ä«t ies
aÄ¼ Äģ
ĠÅ¾ urn
Ġats eviÅ¡Ä·
ĠS ieviet
iniek u
ĠamerikÄģ ÅĨu
Ġsav as
ĠJ a
ĠM ad
Ġiek Å¡
ĠvÄĵstur e
it as
en u
Ġk val
Ġgalven okÄģrt
Ġdzelz ceÄ¼a
ĠK ol
Ġok e
Ġc itu
Ġie pr
un s
Ġnep iecieÅ¡
ĠfebruÄģr Ä«
ĠOtr Äģ
l ik
am p
t us
Ġmar Å¡
Ġh erc
r es
Ġ199 1
en tÄģ
Ġ Ä«s
ev a
Ä«r a
Ġf in
Ġgar ums
dz Ä«bas
o ÅĨu
0 5
Ġst at
ĠR iet
va ir
Ġizp ild
ĠLiv onijas
Äģz es
Ġkult Å«ras
Ġneb ija
ĠdalÄ«b nieki
t iem
Äģn i
ĠbaznÄ«c as
Ġakt Ä«v
Ġ iem
otÄģj u
S p
c eÄ¼
dr Ä«z
ok a
ĠmÄģks las
inÄģ ta
Äĵn s
ip s
Ġs tÄģ
Ġie dal
if ik
ĠS Äģk
Ġs in
bal v
Ġkontr ol
ad a
B A
ĠbaznÄ«c a
and es
ĠS en
Ġ19 20
em on
Ġarh it
ĠpÄģr s
Ġie vÄĵr
ad s
ĠI l
ĠmÄģjas l
ĠBi ogrÄģfija
or eiz
Äģn Äģ
e Ä£
Äĵj ums
Ġob j
ĠmuiÅ¾ as
Ġapgabal s
d i
Ġpr ot
ob l
Ġuzvar Äĵja
ĠpriekÅ¡ s
Ġsiev ieÅ¡u
isk s
Ġ3 3
ĠPirm Äģ
Ġie v
ĠT omÄĵr
Ġ198 0
Ġizveid oja
Ġpie Å¡Ä·ir
Ġsam az
) ;
Ġsu ga
ĠÄ£ e
Å ł
t ek
g i
Ġsudr aba
ak ts
ĠviÅĨ am
Ġiz vÄĵl
j i
e at
Ġsav Äģ
ĠSaeim as
G r
Ġt itu
ĠKar al
Ġie st
Ġm an
ĠÄįempionÄģ ta
Ġieguv Äĵji
Ī Ĵ
ĠKr ist
Ġpie ÅĨem
I n
Ġbr onz
au ta
Ġnovad s
Ġd ir
ĠÅ¡ Ä«s
Ġ199 3
om s
Ä« kl
ĠsistÄĵm as
au gu
ab ei
ĠU kr
Ġgan drÄ«z
em Äģt
Äģl o
ĠK aln
Äį a
S A
av u
ĠN ov
vaig Å¾
Äį i
ĠP aÅ¡
ti ÅĨ
ĠdzÄ«v o
ek tu
" '''
Ġgad iem
et e
vÄĵr t
ih s
Äĵn a
Ä«ga is
iniek i
ĠZ emes
Ġdz ej
ma ÅĨu
Ġiepr iekÅ¡
in u
Ġan gÄ¼u
Ġkaral is
Ġpak Äģp
ĠjÅ«l ijs
Äģ tÄģ
Ġbr uÅĨ
ar ta
ĠkÄ¼ Å«st
Ġsp r
Äģk u
Ñģ ÑĤ
Ġ9 0
Ġno p
Ð° Ð½
Ġiel Äģ
ĠrezultÄģ tÄģ
ÅĨ az
os s
Ġsta cijas
Ġ199 5
Ġnot ik
Ã ¤
d as
ĠjanvÄģr is
el e
Ġtemperat Å«ra
Ġveid a
ĠKop Äģ
ĠI m
ĠdzÄ«v es
ĠII I
Ġta gad
Ġ198 8
Ġm aks
Ġdin ast
Ġ3 4
Ġpart ija
8 0
Ġr ind
Ġs ociÄģl
Ġes oÅ¡
ĠT Äģs
br Ä«v
Ġsasnie g
) :
ir o
Ġbr auc
Ġt Äģl
Ġsav ukÄģrt
isk as
vaigÅ¾ ÅĨu
ĠpriekÅ¡s Äĵd
Äĵj umÄģ
l o
od u
ĠK or
en tÄģl
ĠDz Ä«v
Ġietek m
i Ä·is
ai c
Ġc iet
S t
o gu
ĠPar Ä«z
Ġvec umÄģ
200 9
ĠGal ven
ĠM al
ĠAug st
ab r
br itÄģn
v il
Ġsiev iet
ĠIgaun ijas
Ġt autas
Ġpadom ju
3 5
Ġno gal
ĠÅ¡Ä· ir
Ġok up
Ġbeig Äģm
h t
0 9
ber gs
Ġr Ä«k
uk s
uÅ¡ as
Ġv asar
Ġvis as
Äģd es
Ġdab as
om Äģ
Ġc elt
Ġiet ilp
Ġpus Äĵ
Ġ: :
Ġgalvas pils
Äģk ajiem
ak u
Ġtr en
Ġb at
ĠV ieta
Ġmar ts
ĠRepubl ikas
Ã ¼
ĠD aÅ¾
Å¡ as
oc i
Ġdarb a
ĠMask avas
veid a
Äģn ija
Ġaugu sts
ĠlÄ« m
r o
Ġv iel
Ġtir g
ain as
ib li
Ġap kÄģrt
Ġsp Äĵc
ĠM a
Ġties Ä«bas
0 6
Ġab sol
Å¾ as
inÄģ tu
us a
Ġteritor ijas
Ġsim bol
Å«s dien
Ġ3 7
k Äģp
Ġbronz as
0 4
Ġma ijs
Äģk as
Ġfil m
al a
ĠK ad
ĠiespÄĵj ams
ur v
Ġuz ÅĨem
5 5
Ġf unk
ĠLiel britÄģn
p il
v eic
Äģk i
Ġat p
ĠJ oh
Ġfran Äįu
p u
Äģt os
ĠAn gl
if ic
t in
otn Äĵji
as e
t h
os l
Ġpak Ä¼
ais ts
Ġie ÅĨÄĵma
Ġuz tur
Ġez ers
ĠÄĮ eh
K r
.. .
q u
3 7
Ġf ak
oÅ¡an ai
ĠAl b
Ġpils Äĵtu
ĠLiep Äģjas
e or
Ġpie d
ĠS as
in gr
m ens
Ġcentr a
Â »
ĠJ ap
is a
Äĵt o
Ġsasnie dza
em j
Äĵr ija
Ġsai m
Ġvirz ienÄģ
ĠVÄĵl Äģk
Ġprezid ents
Ġ3 2
ĠUniversitÄģ tes
0 3
Ġproc es
Ġsk at
ĠÄ«paÅ¡ i
Ġc itÄģ
Ġvid Å«
Ġpoliti Ä·is
in ga
in i
e ÅĨu
Ä¼ us
ĠM ih
ĠT autas
Ġb ag
or tu
ĠO s
Ġkomand a
Ð ³
ĠR ad
ĠÅł Ä«
ĠV ol
Ġ Ä«st
ĠzinÄģt n
Ġpers on
ĠV lad
Ġs auk
Ġcit iem
Ġapr akst
Ġp abei
is e
T r
tr a
Ġvalod a
Ġat m
ĠfebruÄģr is
Ġp ozÄ«c
uÅ¡ ies
oj is
os p
Ġj Äģ
ĠVidz emes
et ur
obl Äĵm
ĠV Äģr
r iet
ol u
ag n
Ġop er
ĠL ab
ĠA d
p as
Ġme ist
ĠStarp taut
ĠcilvÄĵk i
t y
Ġl igzd
ien as
ek Ä¼a
Ġbal vu
5 8
ĠM an
Ġkras tÄģ
ĠjÅ«n ijs
ĠaprÄ«l is
m az
ĠÄ· er
m Äĵr
ĠR ez
Ġteritor iju
Ġvar Äĵtu
or n
or ts
ĠM e
ĠKÄģr lis
ĠF l
Ġ5 6
Ġiz te
r on
r s
Ġpr ec
Ġ194 0
ÅĨem ot
Ġor b
Ġ196 0
Ġkonk urs
ĠAmer ikas
k aln
Ġt ek
Ġsa ÅĨÄĵma
auc a
ĠV ar
ĠpaÅ¡ vald
Ä« ds
kr iev
Ġne iz
and id
ol e
Ġdev Äģs
ĠreÅ¾is ors
ĠPadom ju
i Ä£
v iel
oz of
3 6
Ġat kal
Ġvad Ä«bÄģ
Ġm ant
3 9
ĠP at
Ġkur iem
ĠÂ «
Äģj u
ĠV air
Ġie n
ĠO f
4 8
Äģl ajÄģ
Ġm eln
v Äģ
ĠturnÄ«r Äģ
vaig z
4 5
sk aln
Ġtr an
Ä«d u
Ġt Å«k
Äģl es
cÄĵl a
ĠmÄĵn eÅ¡
ĠDÅ¾ ons
0 2
Ġpr oblÄĵm
ĠD arb
et es
al j
Ġ w
inÄģ Å¡anas
Ġ198 9
tÄģ m
ĠT Äģp
ieÅ¡ iem
ĠG l
Ġ19 19
an ta
Ä« da
Ġno z
Ġv ers
sl Äĵg
Ġdiv i
Ġpl Äģn
e o
ĠE k
Ġat tÄģl
Ġdec embris
ie Ä·u
otÄģj i
C h
Ġ3 8
Ġapgabal a
Äģr i
eli Ä£
ĠH ar
Ġtr ad
ĠÄ· Ä«m
Ġel em
ĠÄ£im enÄĵ
ĠstrÄģd Äģja
av Äģ
Ġst art
iem Äĵram
Ġatgriez Äģs
Ġ ik
'' ;
Ä«j umi
âĢ Ļ
Ġskai tÄģ
Ġmat eriÄģl
Ġd er
Ġfil ma
Ġb Ä«skap
ĠS tu
5 6
Ã ¶
3 1
or ds
ĠmarÅ¡ ru
ĠmÄģjasl apa
Ġr it
oÅ¡ i
0 8
Ä«n Äģ
op r
b ild
l es
inÄģj ums
Ġk in
Ġ ac
Ġnov embris
ej Äģ
id s
st arp
Ġre gul
Ġklub a
3 8
tÄģl u
Ġuz dev
ĠVal d
bur gas
ĠK az
nie g
Ġ194 4
Ġiz s
Ġaut om
ĠZviedr ijas
Ġno kr
Ä«t is
ĠtÄģp Äĵc
Ġ194 5
Ġpiek r
Ġbal s
Ġizr ais
o ur
Ġ( "
ĠH er
mu iÅ¾
an ts
ĠS m
Ġr evol
ĠM at
4 7
Ġuz bÅ«v
Ġind iv
Ġn Äģves
Ġ19 18
Ġpar akst
ab s
Ġkomp on
ĠÄĴ r
ĠlÄ«g umu
Ġl ed
Ġz iÅĨ
3 2
o ÅĨi
at Äģ
Ä«tÄģj s
i gr
Ġ198 4
h a
au z
oj ies
Ġt os
Ġk od
itÄģ ti
Ġb oj
Ġt ip
ĠEirop Äģ
ĠM il
Ġsept embris
ĠievÄĵr oj
Ġpirm ajÄģ
Äĵz ek
ĠÅ¡ t
f inÄģl
ĠAustr Äģl
ma in
embr a
h ol
ĠBr Ä«v
ĠI v
itÄģ tes
Ġliel u
Ġ3 9
Ä«c ijas
Ġsasnie dz
od es
Ġz ir
Ð¾ ÑĢ
Ġmetr i
Ġoktobr is
Äĵj Äģdi
os auk
3 4
Ġziem eÄ¼u
Ä«d erl
5 9
Ġpadom es
Ġap k
Ġap l
Ġvalst u
ĠM ak
ĠspÄĵl Äĵja
Ġnod arb
Ġkr eis
Ġskol as
l d
ek ta
Ã ¡
ĠteÄģtr a
ĠvÄģrd Äģ
Ġâ ĪĴ
ĠLatv ieÅ¡u
ĠNik ol
Ġkur s
ol ej
Ä«j usi
Ġtir dz
v e
Ð ·
Ġfil ozof
Ġpiedal Ä«jies
5 7
ĠB er
Ġdzies mas
ĠuzsÄģk a
Ġsk a
Ġau dz
ai ÅĨas
Äĵl i
ĠdzÄ«v oja
Ġap zÄ«m
ĠM Å«sdien
ul is
uÅ¡ Äģs
Ġjaun u
en as
b a
and Å¾
Ġizc els
Ġsad arb
Ġr un
6 0
Äĵj oÅ¡
at ors
Ġat st
Ġt ic
ĠdaÄ¼ as
Ġat kar
Ġvald Ä«ba
i ts
oj oties
Äĵm a
ĠvadÄ«tÄģj s
f Äĵr
Ġ et
Ġgrup Äģ
oloÄ£ ija
ĠFil mas
ÄĵtÄģj u
Ġuz stÄģd
aja dz
ĠB erl
ĠT ajÄģ
Ġimp erat
es ta
ĠJ Äĵk
Äĵn as
ĠT a
al d
ĠAp vien
Ġ'' ''
ĠÅ¡ Äģd
Latv ijas
Ġnovad Äģ
ik l
Ġprov inc
Ġv Äĵst
em okr
Ġvis Äģ
ie Ä·
Ġiz viet
ÄĵtÄģj a
Ð¸Ñ ĩ
ÅĨ us
ic e
ĠD audz
. ''
ĠB ul
Ä« Å¡ana
Ġpagas tu
l and
ar Äģ
ĠDzim is
Ġpied Äģv
ĠM eÅ¾
Ġl iterat
ot Äģja
oÅ¡an Äģ
Ġspec iÄģl
Ġiz g
Ġsta d
Å¾ en
o ÅĨa
Ġaug Å¡
in ce
oc k
Ġk ons
es el
Ġsta cija
ĠpaÅ¡ Äģ
Ġapst ipr
Ġte or
ĠkÄģrt as
Ġ ebr
Ġpal iel
lav s
Ġpie l
ĠziemeÄ¼ os
ov skis
ĠÄ£ ener
er r
Ġdzied ÄģtÄģj
ĠV ien
Ġatbal st
Ġliel a
ekt Ä«v
Ġdienvid os
or f
Ġ4 5
Ġ197 6
ĠU p
ĠÄįempion Äģtos
ĠR om
e Å¡u
aj s
t Äģs
vair Äģk
un i
Ġapst Äģk
Ġ4 8
Äģr Äģ
ĠpÄģr tr
ĠS arkan
Ġglez n
l ietu
Ġpirm Äģs
Ġ197 0
ĠAu gu
Ð ±
h el
Ġd Äĵls
ĠE ir
o Ä£
ĠB ur
3 3
ĠspÄĵk u
Ġt Äģm
Ġad ministr
Ġs tipr
c en
Äģc u
Ġkar av
7 6
Ġap balv
ĠP a
Ġf l
niec e
9 0
ĠvairÄģk i
ie p
er d
ra Ä·
Ġgu ber
ĠÄĢ z
Ġcit as
Ġt il
ĠP al
ĠviÅĨ i
ĠR Äĵzek
Ġmaz Äģk
Ġb ur
ĠIz st
ac e
4 6
ĠreÄ£ istr
ĠE m
ĠstÄģv ok
Ġ''' "
Ġlik vid
D z
Ġat brÄ«v
ĠK Äģ
Ġap ar
ĠPie zÄ«mes
ĠvÄĵl ÄĵÅ¡anÄģs
Ġl ietu
ai dr
Ġf eder
Ġpap ild
Ġkom pl
ĠAt l
ĠpÄģr cÄĵl
Ġveic a
Ġkom is
9 9
Ġieg Å«st
on iem
ien es
Ġnosl Äĵg
m ier
ĠsÄģk as
Ġkom it
Ġprofes ionÄģl
Ġ Äĵr
ĠÄĢ fr
Ġakt ieris
ĠAr Ä«
Ġs eÅ¡
Ġdarb Ä«bas
ĠmÅ«sdien Äģs
ibli ot
o dz
en k
Ġz iv
Ġnes Äĵj
''' .
Ġsal Ä«dz
âĢĿ .
j as
ti on
Ġsm ag
Ġc iti
Ġvien Äģ
Ðµ Ð½
Ġpr inc
Ġn on
Äģj is
Ġter m
ien i
Ġbat alj
Ġp ac
Ġfak ultÄģ
Ġs eg
Ġc il
) ''
ur as
Ġsp Äĵj
Ġt Ä«kl
ĠmÅ«sdien u
Ġm ekl
Ġl Äĵm
Ġuz br
Äĵj ie
ĠV iÄ¼
ĠN osauk
im s
Ġc er
T C
ĠpÄģr viet
Ġizlas e
n iem
ig n
inÄģ ti
ĠÅł o
ur i
Ġ197 2
Ðµ ÑĢ
Äģl ais
5 4
up as
ĠDz ies
Ġdarb ojÄģs
gÄģr ijas
ĠS an
9 6
m at
ĠM eln
ener Ä£
Ġaustr umu
Ġk ino
Ġsp ie
nie dz
ir d
ar h
Ġgalven ais
itÄģ l
ĠpÄģr vald
Ġno min
Ġjau nie
i x
ĠlÄ« meÅĨa
Äģm a
in is
ĠJ Å«r
ĠnesÄĵj raÄ·
Ġpas l
Ġ196 8
Ġkr it
Ġdok um
Ġv ajadz
Ġbal vas
ai k
ĠsistÄĵm a
Ġr epubl
ov Äģk
âĢĿ ,
ag e
Ġsl Äĵp
Ġizveid ota
Ġk ab
ĠtÅ«k stoÅ¡
ĠLatv ija
ek Ä¼i
ĠN HL
Ġd ek
Äģl e
Ġk andid
ĠievÄĵl Äĵts
ĠT or
Ä«j uma
ĠuzÅĨÄĵm ums
7 5
Ġkr ist
Ġput ni
ib inÄģja
Ġaut ors
9 8
Ġl au
it y
st i
7 0
Ġn em
9 5
us e
ĠV ents
ĠV ÄģcijÄģ
ĠkÄģ p
Ġb ir
ĠSp ort
ĠkÄģr ta
Ä«tÄģj u
Ġposm Äģ
ĠÄ·er meÅĨa
ĠÄĵk a
Ġriet umu
ur e
ĠJ au
ah a
E S
Ð¸ Ð¹
ĠturnÄ«r os
Ä« Å¡anu
Ġtel ev
ĠD iv
sp Äĵl
el d
Ġkar Å¡
4 1
in k
Å¾ i
en z
Ġpr iv
Ġm ÄĵÄ£
Ġ196 4
Ġb Å«tu
iÅĨ iem
ĠÅ¡ aur
ĠJelga vas
Ġs aus
4 2
Ä Ģ
Ġsav a
Ġ193 9
Ġdarb Ä«bu
gr es
Ġpla Å¡
la Å¡
as ta
Ġie stÄģd
ĠizcÄ«n Ä«jis
j p
Ġ195 6
es tr
20 10
ĠTÄģp at
Ä Į
ar e
Ä«n i
Ġvien kÄģr
Ġnor is
Ġt Äĵl
ol es
m ark
Ġpie Å¡Ä·
Ġ194 1
ĠizglÄ«t Ä«bas
um p
ĠIn ter
Ġstu n
" )
Ġdienvid u
Äģ ÅĨa
Ġsp Äģr
ĠnÄģk am
Ġvald Ä«bas
ĠS ar
Ġt um
Ġat bil
br Ä«d
Ġ4 6
ĠÄ¶ Ä«nas
Ġl at
ĠDzÄ«v es
Â °
oj usies
ĠZ inÄģt
ĠK ult
ĠÅ¡ah isti
ĠSieviet e
Ġpal aists
Ġlab i
ĠR eÅ¾
aug st
Ġfil mu
' s
Ä«t o
Ġpar lam
Ġk ÅĨaz
ĠteÄģtr Ä«
oj ev
eg or
Ġbal st
nÄ«c a
Ġkat oÄ¼u
Ġvalod u
me ist
Ġn Äģv
Äĵj os
ek ti
au tu
Äĵr b
Ġdir ekt
ĠB el
an e
Äģc is
uj or
Äĵ dza
Ġ4 1
Ġotr Äģ
olej b
Ġv on
Ġveid s
ar l
ĠpaziÅĨ oja
Ġvis maz
Ġsat iks
ĠzinÄģm s
jp g
Ġr ed
ĠÅł veic
ĠA ut
Ġt op
Ä«j usies
9 7
is m
Ġs arkan
Ġrakst nieks
Ġp s
Ġ198 7
en ce
ĠD om
isc ipl
Ġuzskat a
Ġz il
Ġp Äģves
Ġizmant ot
vÄĵr s
ĠItÄģl ijas
el ts
Ġ198 6
ĠI e
Ġg s
Ġr a
200 8
Ġkok a
ibliot Äĵk
Ġp ad
Ġak tr
Ġsaglab Äģj
Äģ Ä¼u
ik ai
ĠUkr ainas
ka ÅĨÄģ
c es
ĠpalÄ«dz Ä«bu
Ġolimp iskÄģs
Ġt or
orv ÄĵÄ£
4 4
ul as
kal p
niec Ä«bu
Ġm al
Ġizg atav
n Äģz
Ġprov ince
oj umus
Ġ192 4
ai ÅĨu
Ġdiv Ä«z
Ġn um
al p
Ġtran sp
ĠN Ä«derl
ig ht
Ġdien a
Äĵj umu
Ġsacens Ä«bÄģs
Ġ ost
ol l
Ġbr itu
er es
ent iem
Ġb Äģz
Ġizmant ojot
ĠÄĵk as
Ġc Äĵl
Ġd Äģrz
Äģ g
Ġnokr iÅ¡
ĠM or
ĠGr ieÄ·
ĠVÄ«r ieÅ¡i
Ġdzim usi
Ġs eriÄģl
8 2
Ġterit orija
Ġez era
Ġz v
ĠiedzÄ«votÄģj i
ĠdaÅ¾Äģd u
Ġ'' (
ut er
ĠpÄģr val
ĠT h
Ġd iev
ĠI V
Ġnet ika
Ġbr Å«n
Ġsin gl
en ko
ĠÅ¡ Å«n
Ġkr ast
ĠVlad im
ion s
p p
st ipr
ĠRez ultÄģ
Ġl oÅ¾
Ġr eliÄ£
ĠpÄģr r
ÄĵÅ¡an ai
Ġ enerÄ£
Ġc etur
Ġfr on
ĠÅħ ujor
ar ts
Ġs Äĵr
ĠC Äĵs
an as
Ġvair s
Ġkarj eru
ir g
v i
inÄģj umu
ĠcitÄģ m
ĠZiem as
Ġvar as
Ġjau tÄģj
ĠDaugav pils
Ġpr as
Ġvalst is
o ÅĨ
Ġp ien
Ġaut ob
4 9
Ġt ulk
Ġjeb k
en h
ob il
Ġfil mÄģ
Ġp er
ĠvÄĵstur Äĵ
ÄĵtÄģj i
ok u
cel ts
an n
Ġd el
Ġm ik
Ġaizvad Ä«ja
S K
Ġd ist
Ġ197 9
Ġap sp
j Äģm
ÑĢ Ð°
i i
Ġkol on
ĠÅł is
Ġat bild
Ġ198 5
8 6
Ġpiem Äĵr
o Å¡u
Ð¾Ð »
Ġies aist
Ġ em
es k
ij am
Å¾ s
Ġrind Äģs
Ġat dal
I A
er ija
Ġ193 6
Ġk il
Ġaizsar dzÄ«bas
ar m
Ġvis i
Ġ193 0
ĠapriÅĨ Ä·a
8 5
at es
es tiv
sk Äģb
ĠBalt kriev
u h
Ġklub u
ĠSp Äģnijas
ĠlÄ«n ijas
ĠP av
Ġ20 20
ĠN ot
7 7
Ġveid Äģ
ol i
Ġvad Ä«ja
Ġkur Äģm
ic s
Ġbij usi
Å« g
or tÄģ
ĠU l
ĠKar j
ĠL os
A p
ĠB or
Ġpie tur
Ġpr Äĵm
br auk
Ġapm et
Ġprod uk
ĠÅ¡ eit
4 3
ir a
Ġdraudz es
Ġlaik s
ĠtÄģd ÄĵÄ¼
ĠP il
Ġgu va
Ġl omu
ĠB au
ĠG un
Ġin Å¾en
5 3
itÄģ te
ĠFI FA
Ġaut oc
Äģd Äĵ
t on
Ġklub s
Ġeksp ed
ĠO z
Ġieg Å«t
y s
Ġkar Äģ
Ġt Å«r
Äĵt ies
Ġdien u
Ġd eg
ĠB o
ieÅ¾ u
Ġotr ajÄģ
Ġpievien ojÄģs
Ġkr Äģj
ĠH ol
ĠuniversitÄģ tes
Ð¸ Ð½
Ġ195 0
Ġ4 2
Ġdat u
Ġrevol Å«
Ġt ieÅ¡i
Ġvalst Ä«
Ġpie ej
ĠO k
ĠZiem eÄ¼u
ĠN orvÄĵÄ£
nÄ«c as
ĠVil j
ĠRob erts
Ġr ep
Ġ198 2
Ġpat s
ĠÄ£im nÄģz
Ġdes mit
p aÅ¡
Ġiz n
an i
ĠM ai
oÅ¡ o
ty pe
Ð ¿
ĠN BA
n Äģb
Ġdz iÄ¼
Ġpil skaln
ĠBerl Ä«n
ĠO p
enc es
Ġier obeÅ¾
Ġl iec
ep t
ĠtÄģp at
ĠSom ijas
Ġdarb ojas
Ġviegl atl
Ġindiv idu
Ġned audz
Äģk ajÄģm
ĠBÄĵr z
ĠR akst
au ti
br auc
om p
Ġ193 8
7 8
Ġsu gu
ener is
Ġv ojev
l Ä«dz
en r
Äĵn i
ak as
er k
ist iem
ac h
om b
Ġat kÄģrt
Ä« dr
Ġb ibliotÄĵk
Ġ4 4
Ġie ÅĨem
g ar
Ä«g ie
Ġizcels mes
ot os
olf s
Ġpiln Ä«bÄģ
M ar
Ġ eks
200 6
im a
ĠAr m
ĠÅ ª
ĠM el
ĠG ar
ĠB en
Å« ta
ĠV ikt
Ġb iez
k st
Ä«r u
Ġat vÄĵr
Ġraj ons
Ġdr oÅ¡
Ġpavad onis
Ġdz in
Ġr es
c o
Ġ '
Ġvis iem
Ġfutbol isti
Ġriet umos
Ġ ef
5 1
ĠNosauk ums
Ġkal p
t am
oj Äģm
Ġmed ic
9 2
m ant
is tÄģ
ĠvÄģr du
Ġliet o
6 6
Ġpel d
Ġm us
Ġgrup u
is l
u ÅĨu
Ä¼u va
Ġkur Äģs
Ġkom un
ĠdeputÄģ ti
ĠpÄģrcÄĵl Äģs
mark er
Ġ197 7
ed r
20 15
ĠAr t
Ġin str
Ġr ud
an tu
ĠL iterat
Ġg Äģj
Ġvasar Äģ
auj as
Ġstr ukt
cen Äģr
ĠSav ukÄģrt
c iet
Ġgad Ä«jumÄģ
Ä¼ os
Ġm ot
and s
el u
ĠZ vaigÅ¾ÅĨu
ĠE z
ĠnozÄ«m Äĵ
Ġvojev od
Ġveik sm
ĠS il
Ġ4 3
Ġ5 1
Ġalb ums
opr ojÄģm
Ġv esel
Ġat veid
ĠnesÄĵjraÄ· eti
Ġd Äĵv
Ġrez erv
Ġnev ar
Ġ197 4
Ġk Äģj
ĠviÅĨ as
Ġ194 9
Ġministr s
Ġiz nÄ«c
Ġaustr umos
r ad
ĠS h
Äĵ Ä·
Ġatkl Äģja
ĠapriÅĨ Ä·is
Ġ4 7
ĠÐ ¡
ĠtÄģd ÄĵjÄģdi
ĠVid us
as tr
Ġpar ks
Ġrit eÅĨ
Ġdz elt
8 8
Ġvis pÄģr
Ġ192 8
iÄį a
Ġkomp ozÄ«c
Äĵr a
Ġc ent
s al
Ġuz skait
Ġapm ekl
P ar
ĠÅ¡Ä· Äĵrs
Ġdarb i
ĠP aul
ĠMÅ«sdien Äģs
andÅ¾ el
isk os
Ġ5 5
B al
od e
ĠrobeÅ¾ as
az Ä«l
Ġskol Äģ
Ġh a
A t
Ġgad i
Ġan al
ĠKriev ijÄģ
Ġfutbol ists
Ġ198 3
Ġvalst Ä«s
9 3
Ġz viedr
ie va
Ġboj Äģ
Ġr is
Ġ197 8
Ġkrust ojums
ĠkaraspÄĵk s
Ġvar Äĵja
ĠOf iciÄģl
ĠkÄģd u
A m
l v
sk r
Ġdien Äģ
p Äĵj
Ġ5 7
oÅ¡an os
ĠÅ¾urn Äģl
Ġarhit ekt
or iem
os fÄĵr
Ġlaik rakst
Ġtitu lu
en Äģ
Ġkaln u
ĠM Äĵn
Ġolimp i
ĠkÄģr tÄģ
Ġno met
ĠKomand a
s v
Ġb an
ĠbijuÅ¡ ais
Ġuzskat Ä«ts
Ġf akt
ĠInd ijas
m aÅ¡
Ġhokej ists
ma ÅĨa
20 11
ĠMin istr
Ġtr im
Ġ193 5
Ðµ Ð²
Ġz vaigz
Äģ Å¡anas
Ġm iera
Ġ19 17
t ec
Ġj ur
Ġaiz stÄģv
ul b
Ġuzvar Äĵjis
el la
Ġgalven Äģ
Ġturp inÄģja
p or
an is
ĠT er
Ġtr olejb
ĠPaÅ¡ laik
Ġt ab
ed a
ĠvÄĵstur es
ĠdaÄ¼ Äĵji
Ġm el
Ġ196 2
5 2
Ġ194 8
Ġd iÅ¾
Ä«j umos
Ġprezid enta
Ġbr Ä«d
Ġviet nÄĵ
ĠpÄģrd Äĵv
ĠT ar
oloÄ£ iju
Äĵta is
200 7
on g
9 1
Ġsez ona
Ġ198 1
ĠsistÄĵm u
Ġraj ona
Ġj oprojÄģm
Ġsat ur
Ġvec uma
8 3
Ġiz v
ĠFr Ä«dr
Ġ193 2
Ġ'''' ''
un g
b l
e y
ist Äĵ
ĠlielÄģk o
Ġp or
Ġciem a
Ġin t
in amo
Ġd ar
od s
ĠÄĢ d
Ð ¡
am Äģs
Ġ197 3
Ġmaz u
er o
Ġga iÅ¡
Ġ197 5
ie dz
Ġ:: *
ov iÄįs
aun a
au str
Ġdarb Ä«ba
Ġ196 7
Ġkosm osa
ĠdzÄ«v i
Ġlab Äģko
ĠpaÅ¡ a
ai ls
Å« m
ed s
ĠpÄģr t
P SR
Ġl uter
ov u
Ġ5 00
Ġbr Äģlis
Äģd Äģ
ber ga
8 1
ic k
Ġap t
Ġgalven o
eÄ¼ Ä£
is ms
Ġas tr
Ġk uk
ir n
8 7
as a
Ġtr am
ida e
ĠV ir
ĠStu d
ĠT im
Äģt as
Ġizmant oja
Ġmaks im
ĠÅ¡ is
Ġn er
ĠKl ub
Ġsarakst Äģ
Ġkonf er
Ġpasl ud
Ġsez onu
ĠLat gales
Ä«v u
ĠakadÄĵm ijas
Ġl omas
b ieÅ¾
Ġv ies
ĠM aks
Ġsa ÅĨem
ĠAndr ejs
i Ä·
al k
ĠP etr
Ġap s
at e
Ġg atav
Ġ7 5
ĠnokriÅ¡ ÅĨu
Ġbiedr Ä«bas
Ġu g
la c
ĠVal mier
ĠAngl ijas
Ġap kop
Ġstarptaut iskÄģ
Ä« Å¡u
er Äģ
az Ä«st
t ers
Ġgr ieÄ·u
Ġherc og
Ġuzbr uc
n Äĵm
Ġat te
oÅ¡ Äģ
ot ie
Ġas to
Ġdeb it
Ġdiv iem
ĠdibinÄģ ta
6 7
ĠU r
ĠvairÄģk us
Ġdinast ija
ga da
ic ionÄģl
Ġm eh
tiÅĨ Å¡
s a
ĠLos andÅ¾el
u Ä¼
Ġkil ometr
Ġtr eneris
Ġ195 2
ĠdaÅ¾Äģd as
ĠK ino
Ġat Ä¼
Ġ193 7
Ġn en
ĠSavien Ä«bas
or as
up es
Ġstud ijas
Ġkat egor
it er
Ä«z es
Ġsa ÅĨÄĵm
Äĵl u
Ġie c
Ġviet Äģs
20 13
ĠAn d
ĠpÄģr l
Ġsacens Ä«bas
Ġkat r
p ar
Ġ5 2
8 9
ant ijas
c r
Ġier ad
ĠD al
Ġotr o
Ġsal a
Ġvalst Ä«m
Ġoke Äģna
Ġr el
ĠT ika
ĠD eiv
Äģn ijÄģ
Ġ1 20
e a
ĠOs maÅĨu
Ġtirdz niecÄ«bas
er im
ĠÄģr pus
u dr
ĠpieÅ¡Ä· Ä«ra
Ġaiz l
ĠvietÄģ m
Ġzaud Äĵja
ĠT re
ĠPirm ais
Ġaktr ise
t le
Ð° ÑĢ
Ġpel Äĵk
Ġst il
7 2
al v
Ġdzies ma
ag u
Ġciem s
F r
Äģj ot
ĠattÄ«st Ä«bas
Ġ =
f ic
ĠA v
ĠÄ«st en
Ġarm ija
ul u
Ġ- --
ĠG ads
Ġizveid ots
ĠS ab
Äģd e
Ġuzvar u
Ġfor mas
ĠG eor
Ġno k
Äģm as
Å« dz
Ä«v as
on es
Ġuz lab
ĠJ Å«l
Ġst and
ĠA s
Ġpak alp
Ġiz skat
Ġpirm oreiz
Ġiek ar
c is
Ä¼ as
ĠcilvÄĵk a
Ġokup Äģcijas
I z
6 5
ĠpÄģr i
va in
ĠAl ber
emokr Äģt
ga idu
av s
ĠÄ£ erb
Ġ192 5
8 4
ĠT all
ĠB ez
re dz
Äĵr Äģ
ev as
Ġatr od
Ñ ħ
ĠkÄ¼u vis
ĠÄ«paÅ¡ Ä«bas
pil Ä«
ark t
Ġ am
en Å¡
Ġkar aÄ¼a
Ġga itÄģ
ĠÄįempion u
ĠVil hel
9 4
Ġ196 5
Ġned ÄĵÄ¼
Ġkrust ojumÄģ
ul i
Ñ ĩ
Ġd ef
Ġsas tÄģ
Ġpamat Äģ
T A
ĠÄ«p at
Ä«v i
Ġciem i
Ġ19 00
ĠDÅ¾ eim
on t
ĠMinistr u
ar es
Ġnosl Äĵdza
ĠU TC
ĠmÄģc Ä«bu
Ġn aud
Å« ks
Ġ196 9
Ä«r ijas
Ġadministr atÄ«v
bieÅ¾ Äģk
ĠS K
sk i
Ġiem es
Ġ196 6
Ġn ez
D Å¾
at i
aj u
kl Äģt
Ġbasketbol a
Ġl ok
Ġebr eju
Ġuz vÄģr
ĠTa Äįu
Ġ ...
Ġkat ru
Ġloc eklis
Ġm ug
Ġpar eiz
ĠK am
ĠC ilvÄĵk
ĠPirm s
Ġiek Äģrt
Ġkompl eks
Ġtelev Ä«zijas
ĠS ch
au gs
on us
Ġsieviet Äĵm
ol or
Ġ195 9
Ġsal u
ĠDauga vas
Ġorganiz Äģcijas
o gl
Ġjaun a
Ġaugst ÄģkÄģ
Ä«v s
ĠL id
Ġprod uc
Ġdiv u
ĠtÄģl Äģk
Ġc ik
Ġsug Äģm
ĠgrÄģm atu
Ġnev is
Ð» Ð°
Ġne tÄģlu
Ġat gr
Ä«j umiem
Ġliel meist
Ġskol u
un a
ĠH am
pr Äģt
ĠBr azÄ«l
Ġ ep
p ie
ĠP Äģv
Å«z ikas
ĠB e
Ġkur us
ĠdalÄ«b nieks
Ġ195 8
em s
Ġpa augst
Ġ ant
Ġf ot
ĠbÄĵr nu
ĠP Äĵd
g Äģja
ik o
niec Ä«bÄģ
ĠDÅ¾ ord
Ð¸ Ðº
D E
Å« ti
S k
ok as
Ġ196 3
ot ajÄģ
el f
Ġkauj as
ol as
od r
Ġ197 1
ĠZem gales
ĠJ ÄģÅĨa
Ġb ul
Ġpus es
an Å¡u
oÅ¡ s
ĠturnÄ«r s
ĠÄ¼ auj
Ä«z e
Ġnos Å«t
Ġ196 1
ĠSp orta
ekl i
ĠÐ ľ
Ġdom es
Ġs il
ĠVents pils
ĠS at
Ġpas aÅ¾
Ġiz dal
it e
p ers
Ġas oci
Ġr aid
up u
ĠLiel Äģ
Ġs ev
Ġv ak
Ġkust Ä«bas
ĠD an
ĠKat r
Ä«tÄģj i
ĠlielÄģk ais
Ġmuz ejs
Ġl pp
Ġimp Äĵr
Ġ195 4
ĠÅ¡ah Äģ
Ġkap te
ed ag
ĠT ie
Ġ193 4
S P
ĠK ap
Ġapk aim
Ġk un
Ġv Äģrt
200 5
20 12
Ġliel s
Ġtren eri
ĠR oz
Ġsl Äĵg
Ġie bruk
Ġskai ta
ĠvÄģr ds
ĠtÄĵv s
Ġs evi
ĠI g
Ġ4 9
ion Äģ
Ġcentr Äģ
ĠS te
Ġvid Äĵji
c om
oÅ¡ ie
S O
ĠLiterat Å«ra
Ġv elt
iz rÄģd
Ġstr auj
u ga
Ġpunk tu
Ġat l
200 4
p s
nÄ«c u
Ġie p
Ġpal ika
Ġ195 7
oj umiem
Ġizdev Äģs
Ġkl im
C O
Ġs cenÄģr
ĠS ig
Ġkr avas
inÄģ Å¡anu
Ġpabei g
Ġ5 4
re tÄģ
Ġord eni
Ä« Å¡anÄģs
isk ajÄģm
Ġd ol
ist emÄģt
ĠlÄ«m enis
ĠPÄĵt eris
des mit
6 4
Ġno m
for mas
Ġpie ÅĨÄĵma
art am
ĠcÄ« ÅĨas
Ġpas Äģk
Ġvien mÄĵr
Ġskai dr
6 2
Ġl Ä«gÄģ
ĠV iens
ac k
Ġps ih
D inamo
n g
l iel
Ġ189 6
6 1
akst s
ĠR ub
Äģj Äģ
Ġinter es
ĠnodroÅ¡ ina
Ġc el
Äģr as
Ä«c ija
ĠRÄĵzek nes
Ġtemperat Å«ras
Ġsport isti
a ÅĨ
Ġsav us
Ġkarj eras
ĠpazÄ«st ams
Ġstart Äĵja
slÄĵg Å¡anas
ĠgrÄģm atas
ien e
Ġpla Å¡i
ĠT op
7 4
Ġsar un
ĠuniversitÄģ tÄĵ
ĠLielbritÄģn ijas
Ġdaudz ums
ad sm
or k
Ã ³
e irop
ot ais
Ġmetr u
Ġled us
Ġ--- -
ug as
Ġjaun o
ĠpÄģrtr auk
Ġs h
Ġliel Äģ
ĠP ek
ciem a
ĠreÄ£ion s
Ġm ei
ĠP er
ĠSu ga
Ä« ÅĨu
Ġlaik me
Ġpol ic
Ġvirs mas
gad Äģ
ĠA z
ei g
b u
Ġat kÄģp
Äģc ijai
Ġnov iet
Å«t as
Ġietilp st
f il
Ġkomand ieris
a w
ĠP iemÄĵram
Ð¾ Ð½
Ġa Ä£
ĠIe dzÄ«votÄģj
S D
ĠA st
Ä«r s
o y
olo gs
Ġkar u
ĠsÄģk otnÄĵji
ĠV Äģcu
pr as
ĠS erg
Ġie skait
Ġv el
ot es
ek Ä¼u
inÄģt as
Ġt ais
ul s
ĠE du
20 14
Ġtel p
ĠI ev
ĠIz glÄ«t
ĠP ortu
Ġj uni
Ġgr Äģdu
inÄģ tÄģj
Ġpien Äģk
Ġkonc entr
ĠD e
ĠpÄģr veid
Ġpul ka
Ġkarj era
Ġpie aug
inÄģ Å¡ana
ĠÄĢz ijas
ĠR ein
ĠN Äģk
Ġizte ik
ot h
ĠM Äģc
ĠreÅ¾ Ä«m
i at
am etr
Ġstr Äĵl
Ġcentr u
d aÄ¼Äģ
ĠÅ¡ os
ĠpriekÅ¡sÄĵd ÄĵtÄģjs
ĠÅ«d en
Ġmilj oni
e tu
Å« Å¡u
Ġizd ots
ĠvairÄģk u
Ġan im
dev a
gÄģj ums
L ab
da Ä¼u
ĠAustr ijas
Ġp oÄ¼u
Ġsarakst s
Ġbar ojas
f er
ĠH K
Ġpap laÅ¡
eÄ¼ i
Äĵj umi
Ġz ob
ĠLiel ÄģkÄģ
ĠiekÄ¼ auta
i br
ov e
ĠpÄģrs var
ĠDzÄ«ves gÄģjums
ĠlÄ«n ija
Ġfin ans
er am
ei dz
n Äģ
Ġdiv Äģm
sk aidr
Ġsl av
ĠJoh ans
uÅ¡ o
Ġ5 3
Ġm is
Ġperiod Äģ
7 9
is mu
Å¡ s
Ġ194 6
Ġsac Ä«kst
ĠUz var
Ġinstr um
or g
Ġf estiv
on ija
o Äį
Ġap j
Ġpie dzÄ«v
gal v
Ġsav iem
200 2
ĠP ap
pr ec
au da
Ġ192 2
Ġord enis
ĠR e
Ġvar u
Äģl as
Ġ Q
Ġizdev a
Ġt ieÅ¡
ai Ä¼
Ġun d
Ġsastop ams
Ġpl an
ost a
dien Äģ
ad as
6 3
i Ä·i
Ġ iga
ĠkuÄ£ is
au p
en g
T h
Ä«j umus
Ġneatkar Ä«bas
ĠOficiÄģl Äģ
Ġ192 1
ĠRiet um
Ġap kalp
ef s
Ġlid maÅ¡
av al
Ġdiv us
Ġizp Äĵt
Ġatkl Äģta
ek a
ĠM ik
6 9
m ar
m Äģk
Ġie dz
ĠÅł Ä«s
ĠkuÄ£ a
Ġd ipl
Ġdist anc
bÅ«v e
Ġsk Äģb
Ġsabiedr Ä«bas
g or
op ol
Ġsa gr
Ġpol Äģr
Ġkon st
Ġ194 2
Ġpil i
Ġsavien Ä«bas
ifik Äģcijas
Ġdarb s
ĠS id
Ġaizsar dz
ĠP h
ĠD iev
r om
Ä«v a
ĠG ust
ĠP unk
str uk
Ġkal end
Ġkon tin
ĠuzÅĨÄĵm uma
6 8
ĠVilj ams
Ġes ot
ĠS in
Ġpie dzim
Ġarh ib
g ent
ĠM et
200 0
ĠLond ona
d ens
uk a
Ġsl ep
ĠteÄģtr is
ĠS aules
t os
Ġgr Äģd
ĠKan Äģdas
adÄĵm ijas
Ġs Ä«k
ĠÐ ¿
Ġrad io
p irm
en iek
ĠcilvÄĵk iem
Ġsag atav
Ġz ied
ĠAustr um
ĠT Äĵv
izrÄģd e
ir ds
on os
Ġsav starp
Ġpav asar
ĠMask avÄģ
Ġvil c
augu Å¡
Äĵj uma
Ġskol a
ĠR um
ĠN A
ĠoficiÄģl Äģ
Ġperiod s
o od
Ġbal va
Ġsap ul
C A
Äĵj ies
op e
ai ÅĨa
ĠL in
el Äģ
tÄģ k
ĠziemeÄ¼ riet
Ġtram v
ĠP an
ĠB u
ĠdaÅ¾Äģd Äģs
7 1
Ġpiekr ast
ĠPr Å«s
Ġinform Äģcijas
ĠÅ¡ im
Ġdiv Äģs
j Äĵ
Ġj os
Ġm aÅ¡
ĠÐ ļ
akt Ä«
Ġs ol
ord in
M A
f l
á ĥ
Ġh ron
Ġ192 6
ta gad
ĠAustr umu
T V
Ġl eÄ£
an ti
Ġb Å«s
ĠS ez
Ġkaus s
Ġzviedr u
Ġc Ä«n
ĠdzÄ«v nieku
Ġraj onÄģ
Ð° ÑĤ
o un
b e
Ġ( ),
7 3
Ġiest ÄģjÄģs
ĠV en
Å«r s
Ġpa Å¡u
val st
Ġkok u
c i
ĠV er
Ġ192 9
Ġp ur
ic is
ĠJÅ«r mal
Ġizlas i
l Ä«
skat s
ĠÄ£im enes
im b
Ġvien Ä«bas
gan iz
ĠB eÄ¼Ä£
Ġ194 7
ak us
iv e
Ġiel Äģm
R Ä«gas
iniek a
Ä¼ av
od i
Ġizc Ä«
ĠMar t
an ovs
Ġiet ver
Ġnor Äģd
Ä· iem
Ġdaudz i
ic i
o use
Ġgr Äģf
ĠÄĢfr ikas
ein r
Ñ Ĩ
ar as
j os
Äĵ ÅĨu
au la
ĠSÄģk otnÄĵji
y m
Ġs itu
ĠspÄĵl Äĵjis
ĠattÄģl umÄģ
Ġv Äĵ
Ġkauj Äģ
Ġieguv is
ĠFil ma
Ġmat emÄģt
ĠJap Äģnas
is h
tÄģ r
Ġdienvid iem
ĠEir ov
am ais
bal t
Ġpamat skol
c a
d aÄ¼
Ġd isk
oÅ¡ Äģs
Ð» ÑĮ
Ġk aut
ic Äģs
at nes
ĠpÄģr b
ĠKon st
Ġier ind
ĠoficiÄģl i
âĢ ľ
ĠsÄģk uma
Ġier Ä«k
Ġ Äĵd
Ġt u
ĠI es
Ġn ams
ĠS ac
gl ab
ĠSv ÄĵtÄģ
ĠValmier as
el Å¡anÄģs
Ġbeidz as
Ġ /
Ġs ign
ĠS ol
ĠT V
e ga
Ġprogram mas
in iec
Ġkur os
ĠviÅĨ iem
Ġsastop ama
Ġc eÄ¼u
Ġg Äģz
Ġmetr us
ĠMir is
Äģb u
ep r
Ġ ;
isk ajiem
Ġizveid ojÄģs
Ġdr Ä«z
ĠIz ra
Ġproj ekt
V al
ĠS erb
Ġ193 1
Ġieg Äģd
ĠÄ· erm
Ġkop umÄģ
Ġpl ak
Ġalb umu
a ina
Ġdien n
Ġatr ast
or ld
Ġmin er
Ġ %
ĠlÄ« der
Ġ194 3
Ġizmant ots
Ġp os
iz nes
Ġpr emj
Ġ192 3
m ans
b o
Ä«t Äģs
ĠT Äģd
ĠZ elta
ĠNacionÄģl Äģ
Äį s
Ġbag Äģt
Ä«n e
os Äģ
Ġnos aka
Ð¸Ñ ı
ie gl
ĠB et
Ġak tiv
Ġiz z
Ġlietu v
Ġvalst i
Ġb Äĵg
ĠFran cijÄģ
ĠÄ£ int
ĠdzÄ«v ojoÅ¡
Ġ193 3
n us
r os
an o
Ä« Å¡anai
op a
Ġdom in
ĠpÄĵd ÄĵjÄģ
Ġav i
err ari
J aun
Ġsp ortÄģ
Ã Ń
ĠK ir
N O
ĠF inÄģl
am m
ov ska
oj uz
Ġsak aru
Ġiz stÄģd
Ä£ ip
ĠL ap
et er
Ġs ub
Ġg odu
ĠPie dal
Ġalb uma
ĠdibinÄģ tÄģj
ĠJur is
ĠB ars
Ġpils oÅĨu
ĠIz viet
Ġsm il
Ġjaunie Å¡u
Ġs er
20 17
Ġplat Ä«ba
Ġ3 00
ĠÄįetr as
ĠKaral istes
ĠB aznÄ«c
it h
ĠPol it
Ġlauk u
ĠA pr
ĠAl fr
ter n
Ġpiedal Äģs
Ġvien as
Ġpirm izrÄģde
dzim ta
ĠizcÄ«n Ä«jusi
E l
inÄģj uma
Ø §
Ġ( ).
and e
ĠRad io
: '''
y l
Ġieg Å«
v Äĵt
Ġzem i
ĠAustrÄģl ijas
ĠÄĵk u
ĠUniversitÄģ tÄĵ
b ed
ĠKar a
R A
in gu
amer ikas
Ġkor pus
k t
ĠV an
Ġput nu
Ġizv irz
f al
Ġagr Äģk
ĠS im
Äĵl es
20 16
ĠTr Ä«s
Ġ* ''
ĠloÅ¾ as
Ġn akts
Ġattiec Ä«bas
ĠCÄĵs u
il i
ĠT Äģl
Ġnod ibinÄģja
Ġizr Äģd
ĠuzÅĨÄĵm umu
p ol
ĠB ij
ĠG ais
Ä«g iem
ar da
ĠKriev ija
ĠspÄĵlÄĵtÄģj s
Å¡ t
Ġuz t
Äģl Äĵ
. /
m Äģm
Ġamat Äģ
un ds
Ġtik t
ĠÅł Ä·
ĠPÄĵt er
ak aÄ¼
Ġne ap
Ġ8 2
Ġp edag
ĠPirm o
ĠSpÄĵl es
oj s
ĠS kr
ĠH e
dzim usi
ĠUn gÄģrijas
c ion
Ġkar eiv
var s
Ġ6 5
Ġpunk ts
g ur
Ġd iscipl
Ġieg uld
ĠS er
ĠV it
olo g
Ġ195 5
ĠVladim irs
j am
Ġjaun as
p adsm
Ġ it
Ġv an
Äģc ijÄģm
i al
tÄģ la
ĠdaÅ¾Äģd i
P o
l or
ĠG ulb
Ġtrad icionÄģl
Ġkonc ert
ĠPl at
Ġamat a
ĠdzÄ«v oj
ĠPils Äĵta
ĠS pr
Ġm ol
ĠF C
Ġkap s
Ġz ar
ĠS e
ĠK o
ĠKr ust
ĠvÄĵl ÄĵÅ¡anas
ot nes
ĠvÄĵrt ÄĵjumÄģ
ĠRiet umu
ĠY ou
1 00
uk uma
Ġ15 0
Ġpie pras
ent us
ĠiekÄ¼ auts
Ġklub Äģ
Ġno stipr
ĠPils Äĵtas
Ä«v Äģ
Ġatbal stu
Ġdat iem
ĠF or
Ġkop vÄĵrt
Ġkab in
Ġkras ta
y n
Ġb Äģzes
os as
Ġ195 3
Ġietekm Äĵ
ĠP ers
op h
Ġmaz ciems
Ġr Äģd
ĠÄĴ Ä£ip
ĠreÄ£ion Äģ
ĠAnt arkt
Ġdzim t
Äĵl a
ĠK ok
ĠT iek
Ġs ec
es ti
ĠrevolÅ« cijas
Ġapkaim Äĵ
ĠFI DE
ĠM ark
ĠkaraspÄĵk a
Ġ4 00
ĠspÄĵl e
Ġ6 1
ek cijas
op u
im as
ĠF eder
200 3
ĠT el
ĠJ an
Ġpiel iet
''' )
dr aud
ĠS ib
Ġmil z
ĠdaÅ¾Äģd os
ĠGalven Äģs
Äģj i
Äģj s
Ġveid ojas
t iek
Ġbr Äģ
ĠAp dzÄ«v
k or
Ġbal t
N e
ĠM od
Äģm s
Ġkompon ists
ĠÐ Ĵ
ĠpakÄ¼ aut
Ġatm osfÄĵr
ĠBaltkriev ijas
ĠA ir
Ġ6 4
Ġs Å«t
ĠvÄ«r ieÅ¡u
onz a
ĠÐ Ĳ
ĠR a
ĠV as
Ġpag ast
ĠmÄģt e
Ġuz s
Ġpart iju
Ġl as
Ġt enis
er ministr
Ġspie dien
ĠAn na
Ġh ip
Ġd ub
Ġ195 1
j Å«ras
u str
z e
in es
Ġg oda
ĠpriekÅ¡ pils
Ġpie tek
Ġpievien oja
Ġm itr
ĠI ek
ob i
Ġtr auc
Ġ Ñģ
ĠpÄģrstÄģv ji
Ġ190 5
Ġkam Äĵr
ĠPortu g
Ġiesp Äĵju
) '''
Ġ192 7
Ġtip a
Ġ5 8
Ġtuv umÄģ
Ġb umb
ĠstrÄģd Äģt
Ġsavien Ä«ba
t en
Ä«k la
Ġviegl i
Ġaut onom
Ġdep artam
iÅĨ am
ĠiespÄĵj as
Ġierad Äģs
ek Ä¼iem
Ġap prec
ult atÄ«v
ĠnozÄ«m e
Ġalb umi
ĠkuÄ£ i
niek us
Ġie sl
Ġier Ä«c
c Ä«
ĠSieviet es
ĠVÄģr ds
Ġkrast os
ĠkÄģd a
ĠI sl
iz e
ĠmuiÅ¾ u
Ġkosm on
Ġpietur as
op s
ĠpasaÅ¾ ieru
Ġiz st
ĠL ud
ĠvÄģr da
ĠrezultÄģ tu
in oÅ¡i
ĠIm age
ie ti
ĠB at
Ġ" ''
up a
L e
Ġar t
Ġpopul Äģr
al ds
Ġ im
al is
Ġrek ords
f s
eÅ¾ Ä£
ĠrezultÄģ ti
. "
Ġprogram ma
k un
ĠH enr
Ġizm aiÅĨas
Ġ14 0
Ġpiekrast Äĵ
b es
eik sm
ĠPunk ti
ĠKino ak
ĠKop umÄģ
ts p
Ġ ast
nie dza
Ġkaral i
Ġ19 12
ÄĵÅ¡an Äģ
eic a
Ġpiedal Ä«jusies
un des
ĠMar ks
Ġdok t
Ġm it
ĠR iÄį
ih a
inÄģj umi
ĠK ij
bur gÄģ
ĠG re
g o
ĠD on
ĠÐ ł
Ġkl ost
iniek iem
Ġorb Ä«tÄģ
ĠlÄĵm umu
c elta
I M
Ġsek retÄģ
ĠJÄĵk ab
ĠV in
ĠB ern
ĠuzÅĨÄĵm umi
U n
auk s
Ġapgabal Äģ
N A
ai ÅĨ
otÄģj iem
Ġvid ÄĵjÄģ
ĠNot ik
ĠâĢ ĺ
Ġsnie g
h of
Ġties Ä«bu
Ġveik t
ĠvadÄ«tÄģj u
a Ä£
ĠK uld
Ġpal iek
ifik Äģcija
ĠS up
iv il
Ġdipl om
Ġp ost
ĠS ak
st ac
Ġinter ne
Ġp Å«
Ð¾Ð ´
ĠÅ¡Ä· idr
ĠSl ovÄģk
Ġmilj oniem
Ġsvar s
ĠSport ists
F ran
Ġcer emon
J oh
ĠD at
ĠpaÅ¡ laik
ĠKinoak adÄĵmijas
eÅ¾ is
ber g
ĠNacionÄģl Äģs
ĠmÄĵr Ä·is
an ce
S S
viel as
ĠM ars
ĠH el
ĠSt ok
Ġ1 000
st es
ĠTur cijas
ar Ä«
Ġnosauk uma
Ġrad i
p iemÄĵram
ĠA gr
ĠS o
ĠBrÄ«v Ä«bas
eic oties
Ġnes p
ĠnozÄ«m es
p ut
Ġuz man
Äģf r
Ġmod ern
Ð¾Ð² Ð¸Ñĩ
ĠlÄ«n iju
Äĵj Äģm
ĠÄģr st
ĠFrÄ«dr ihs
atv ers
l ers
Ġs an
ĠR i
Ġtr Å«k
Ð» Ðµ
ĠspÄĵk i
iz ab
Ġvis vairÄģk
ĠAleksandr a
ĠM u
ĠdaÅ¾ as
ĠTre Å¡
ĠpÄģr vad
r audz
os k
Ġdzej nieks
l ar
Ġ Î
Å¾ Äģ
Ġiz bÅ«v
Ä«t os
Ġbiedr s
l er
Äģ Äį
il j
ĠÐ Ł
aÅ¾ u
ĠpÄģr sp
Ġfr om
Ġg Äģja
Ġst ar
Ġvis Äģm
Ġsam ÄĵrÄģ
a gr
} ,
is lavs
Äģv u
ĠmÄģksl inieks
ĠDz elz
Ġkomand Äģ
II I
ĠpÄģrr aid
ĠR ed
ul es
Ġkrust a
Ġgr af
Ġprinc ip
ĠlÄ« ga
and a
Ġau gs
Ġak mens
ĠAr gent
Ġs Äĵn
ais ta
Ð° Ñı
Ġsap r
ĠstrÄĵl nieku
ĠpÄģrsvar Äģ
Ġno main
Ġdr af
Ġpunk ti
Ġposm s
ĠpozÄ«c ijÄģ
ĠMÄĵn ess
ĠÅ«d eÅĨ
Ġra Ä·
Ġiek Äģr
199 8
ĠinstitÅ« ta
ĠOz ol
Ġpar as
ĠÄĮ empion
Ð Ĳ
Ġ5 9
ĠNikol ajs
ai b
ĠC iem
Ġproj ekta
200 1
ĠcilvÄĵk s
Ġabsol ven
Ġreiz Äĵm
ig s
Ġierakst u
P h
f a
Ġd od
Ġparedz Äĵts
Ġiz kl
ĠF orm
ĠÅ¡Äģd Äģm
at oru
ĠLatv iju
ĠÄ» eÅĨ
Ġ ain
Ġie d
ĠH els
n ers
Ġj osl
ĠGr uz
ag s
Ġpie rÄģd
ĠPar asti
ĠturnÄ«r a
E FA
l Äĵk
oloÄ£ ijÄģ
ĠÄģtr i
Å¡ iem
Ġsta f
ska ÅĨ
al u
up e
Ġdiv Ä«zijas
Ġotr ais
Ġgais mas
K ar
on am
ĠziemeÄ¼ iem
stoÅ¡ i
Ġsab r
Ġie darb
Ġet n
n er
um br
Ġl ej
ĠD ob
oz a
Ġluter ÄģÅĨu
ÅĨ Ä£
Å« tes
Ġuz rakst
Äģv ijas
Äĵj am
es i
ĠP iem
âĢ ²
ĠF in
ing t
Äģk ajÄģ
Ġnep Äģr
Ġizlas Äĵ
Ġcit Äģs
Ġj Å«rÄģ
is i
Ġgar Å¡
ation al
Ġ19 14
ĠCentr Äģl
Ġiedal Ä«jums
Ġlab Äģkais
t el
Ġvien Äģd
ĠT omas
muiÅ¾ a
Å Ĥ
ĠS aul
Ġau d
Ġme it
on to
Ġpr akt
ens is
Ġvidusskol a
Ġkomit ejas
Ġliet us
Ġviel as
Ġm Äģs
Ġdarb inieks
Ġpiemin eklis
ĠsÄģk ot
p ild
Ġre ti
p at
Ġ itÄģ
ier s
ĠT am
Ġpunk tus
Ġpopul ar
Ġug uns
P G
. ),
ĠS alas
Ä«d as
Ġdinast ijas
ĠSerg ejs
austr umu
ĠN ob
nÄ«c Äģ
ĠS ad
ts ar
Ġie celts
ĠPÄģr stÄģv
al i
Ġgad Ä«jumos
Ġm obil
Ġmant ojuma
ĠR eg
ĠaktÄ«v i
ĠR en
ab as
ĠT Äĵrb
inÄģ Å¡anai
Ġministr ijas
Ġiga uÅĨu
Ñ Ī
ĠH einr
Ġh idr
Ġatkl Äģt
Ġr ot
ĠM us
gu va
Ġres urs
cr ip
Äģn iju
ĠB an
Ġrakst nieki
oÅ¡ a
Ġdev a
skol as
ĠVikt ors
L iel
y c
Ġm Äĵdz
Ġar he
Äģks las
Ġs Äĵd
Ġatp akaÄ¼
Ġap strÄģd
Ġg Å«st
es tÄģ
Ġdat or
Ä« tr
Ġprezid entu
ĠF K
ĠÅłveic es
Ġre ak
ĠÅħujor kas
ĠP or
var u
ĠR u
id e
Ġizmant ota
Ġmin Äĵta
ĠpÄģrstÄģv Äĵja
Ġkon kr
Ä«tÄģj a
Ġf auna
aul t
Ġgar umÄģ
ĠRepubl ika
ĠpÄģrval des
Ġk aul
ĠAt Äĵnas
E r
Ġpils Äĵt
ĠEirov Ä«zijas
ĠspÄĵlÄĵtÄģj u
Ġv iz
es a
Ġsav v
zem Äĵ
ĠnepiecieÅ¡ ams
Ġizveid ot
ĠkÄģj nieku
ĠpÄģrb aud
ĠT ad
ĠJ ans
Ġp urv
Ġd ib
Ġkomand ieri
Ġiz ÅĨemot
Ġj Å«ra
lai c
Ġ6 8
ĠA tr
Ġiz pl
atÄ«v i
Ġsavien ojumi
ĠÄª r
Ġarhib Ä«skap
sk Äģ
20 19
C l
Ġuz st
ec k
20 18
ĠfinÄģl Äģ
ĠJ o
Ġpil d
ĠcÄ« ÅĨa
ie Å¡anas
ĠB ol
ien iem
Å«d ens
Ġs Äĵrijas
embr im
Ġk ak
Ġpie tiek
ĠO Ä¼
Ġuzskat Ä«ja
ĠG u
Ġvie d
Ġieskait ot
Ġfunk cijas
Ġnon Äģca
ĠN av
Ġien aid
ĠK osm
aid Å¾
ĠiekÄ¼ Äģva
Ġfor ma
Ä«c iju
Ġskai tu
Ġbl akus
Ġfin anÅ¡u
Ġkval ific
ta jÄģ
ĠAndr is
D r
ĠR Å«d
ĠlÄ«dz Ä«gi
Å« da
Ġie cÄĵla
Ġeksp erim
ĠIgaun ijÄģ
ĠSid n
ĠP ak
Ġstud entu
Ġpremj erministr
ĠI s
Ġ7 1
eik s
Ġfutbol Äģ
Ġ19 15
sp r
Ġnod aÄ¼as
Äģr Äģs
ĠStok hol
Ġat zÄ«m
eÄ¼ Å¡
Ġvis bieÅ¾Äģk
O r
Ġ aic
Ġar e
Ġaizl ieg
Ġno mir
ĠP et
ĠM Äģt
Ġsep ti
is u
ĠEl izab
Ġ6 7
ĠL ib
em at
ĠKl us
ĠLiep ÄģjÄģ
Äģr l
. :
Ġp oz
Ġn af
ĠV Äģcija
Ġliel as
ogrÄģf ijas
ĠP j
ĠC l
Ġjaun s
ĠzinÄģt nes
ĠgrÄģm ata
Ġien Äģk
Ġpiek ras
at r
ien t
Ġl apa
Ġ7 6
Ġvojevod iste
ĠT ai
aur a
Ġ190 4
Ġneatkar Ä«bu
w ar
Å ½
Ġv iÄ¼
Ġb iznes
Ġpieder Äĵja
ĠlÄ«g uma
Ä£ istr
dien as
Ä«t ie
Ä«n es
Ġor g
ĠNotik umi
iÄ£ inÄģl
Ġpar al
ĠMar ija
ĠKonst ant
eg s
Äĵd ija
ĠNÄ«derl andes
Ġd emon
i ans
x t
iz Äģcijas
Ġmin im
Ġuzvar Äĵjusi
Ġtirg us
ĠAugu sts
Ñ ĸ
ion a
Ġsas l
ĠdaÅ¾Äģd iem
ĠMin h
Ġno lai
Ġizc il
Ġatz Ä«ts
ĠbaznÄ«c u
ed es
Ġbei dza
ĠraÅ¾ oÅ¡anas
Ġp ir
in skis
g en
Ġvis us
ĠceÄ¼ Å¡
Ġprovinc es
c ionÄģl
Ġiz b
Ð¾Ð ³
ĠS IA
Ä«z i
gu dr
Ġveid i
p t
val sts
Ġatveid o
ĠK ub
il li
Ġ6 6
Ġm agn
Ġ6 2
ĠmÄģt Ä«tes
ĠM eh
Ġiesl odz
Ġpa dz
Ġ on
Ġs ma
Ġciem u
Ġs Äĵk
at us
Ġbeidz Äģs
ĠParÄ«z Äĵ
ĠSas kaÅĨÄģ
Ġnoris inÄģjÄģs
Ġbal vai
Ġzem nieku
d Äģ
Ġdaudz as
v usi
ĠR o
ĠJ ar
Ġ: *
ĠPaul s
k ap
Ġizm Äĵr
ĠSu dr
Äģt iem
ĠKr iÅ¡
Ä«d i
ĠJÅ«rmal Äģ
al e
Ġ6 3
ÄĢ r
ic on
Ġpl Å«s
Ġm Äģja
ĠpÄģves ts
y st
Äĵj uÅ¡i
Äģj umu
PSR S
Ġ },
Ġc eÄ¼a
ĠpastÄģv Äĵja
V I
k on
ot iem
Ä«sk apa
Ġvers ija
j an
Ġt Äĵr
or iz
Ġpiedal Ä«ties
em Äģti
Äĵz es
Ġstrauj i
ga id
Ġn orm
ĠG er
ĠG ada
ĠÄĴr iks
Ġatte icÄģs
Ġnaud as
k m
ĠP el
Ġj auk
Ġnod ibinÄģ
Ġparakst Ä«ja
Ġas ins
Ġliec ina
c ijÄģm
Ġd is
et as
Ġizd ar
Ġ i
Ġ7 2
Ġrad Äģs
Ġsar eÅ¾Ä£
ĠStr Äģd
Ġatbal sta
Ġred akt
Ġkuk ai
Ġat lik
Ġveid oja
it or
oz es
Ġuzvar as
isk iem
Ä· Ä«
Ġgar a
form Äģcija
Ġprofes ors
Ġmol ek
k ins
Ġvirs nieki
ĠStarptaut iskÄģ
ĠM ag
Ġpus s
Ġnep ie
Ġj Äģb
Ġup e
Ġjuni oru
ĠK v
el as
ĠPar t
enc i
ĠlÄ«g ums
Ġatbil st
sv g
Ġv Äĵja
ĠR obeÅ¾
Äĵ va
ĠPr of
ĠiedzÄ«votÄģj iem
finÄģl s
p Äĵc
Ġlauk ums
Ġkust Ä«ba
ĠEr nes
E R
c s
d ar
Ġol as
E n
Äĵl as
Ġaiz ÅĨem
Ġgal Äģ
ies a
Ġmas u
Ä«ta is
ĠdibinÄģ ts
Ġhokej isti
ĠPol ijÄģ
ĠBij is
ĠK u
Ä«tÄģj iem
ert ies
ĠV Ä«t
Ġtik s
ĠAiz sar
ĠB ud
Ġkap os
ĠdeputÄģ ts
ĠNorvÄĵÄ£ ijas
ĠsastÄģv s
ĠattÄ«st Ä«bu
Å¡ ev
ĠL or
Ġanim Äģcijas
ul e
aus a
ĠVis vairÄģk
Ġpunk tiem
ĠDÅ¾eim ss
n ov
Ġpul k
Ġkonkurs Äģ
ĠmÅ«s u
Ġprot ok
E L
y r
ĠD Äģnijas
ĠE ur
Ġdarb Äģ
Ġst ila
ĠnedÄĵÄ¼ as
k av
ul Äģ
ĠIz mant
Ġdirekt ors
Ġv Äĵd
Ġteritor iÄģl
Ġlik umu
Ġaugst ums
Äģr o
Ġvid eo
Ġdef in
t t
Ġs aj
Ġ8 1
Ġvald es
Ġab i
ĠsistÄĵm Äģ
Ġkonk ur
muiÅ¾ as
Ġap vid
end as
Ġaizsar g
ĠtreÅ¡ o
Ġid enti
Ġsnie ga
ĠkÄ¼Å«st ot
ã ĥ
er tu
Ġl a
ien Äĵ
Ġkur ai
ĠÄįempion i
ad u
Ġdarb us
Ġkaln s
Ġkat edr
Ġf abr
Ġk nÄģb
Ġap galv
Äģn iem
ers ons
ĠkÄģd Äģ
ĠDzies mu
ĠdivÄ«z ija
Ġdebit Äĵja
t or
ĠmeÅ¾ a
ÑģÐº Ð¸Ð¹
l avas
em Äĵ
Ġsasnieg t
Ġ #
Ġapr ÄĵÄ·
Ð¾Ð ¹
Ġabsol v
Ġ190 8
Ġmon arh
ĠtÅ«kstoÅ¡ i
ĠS ociÄģl
Ġkr iev
Ġ**** *
Ġliterat Å«ras
ĠFl or
ĠGrieÄ· ijas
ĠA g
val stu
Ġsal Äģ
Ġimp Äĵrija
ĠN at
ĠK asp
Ġiz Å¡Ä·ir
aj as
ĠzinÄģt ÅĨu
ĠpanÄģk umiem
c olor
Ġez eru
ail es
ĠdroÅ¡ Ä«bas
ĠitÄģ Ä¼u
. ).
Ġt Ä«r
Ġk az
ĠJ ak
ĠvairÄģk iem
ĠMih ails
Ġpabei dza
o ÅĨiem
Ġpilskaln s
ĠVilhel ms
v est
Äĵt ie
Ġvis s
C I
ov Äģ
Ġsas kaÅĨÄģ
ĠDr audz
Ġastr onom
Ð Ĵ
tu v
Ġabsolven ti
ĠLe on
ĠF iz
Ġelektr on
Ġm Ä«l
ol ds
Ä« ks
iel s
inÄģj is
Ġnet iek
Ġlau re
g ars
od eÅ¾
ow s
lac k
Å«n as
ĠNob ela
Ġu r
aÄ¼ i
oz Ä«m
ĠlÄ«dz en
Ġ11 0
Ġn aktÄ«
ĠN or
Ġkl Äģt
Ġl iter
ĠR ec
Ġamat u
ĠB on
ĠjanvÄģr a
ĠT als
Ġvieglatl Äĵt
z a
dz es
Ġn u
ĠjÄģb Å«t
b as
ĠsÄģk otn
Ġpat ies
Ġsac elÅ¡anÄģs
Po int
pr op
Ġotr u
ĠSab iedr
Î ±
ĠÄ£ en
Ġsv in
h ers
Ġr odas
Ġnod ok
Ġpareiz tic
e Äį
Ġs ilt
ĠlÄ« d
Ġmed aÄ¼
ĠRi odeÅ¾
B C
is am
Ġb ud
ĠT ehn
ĠAp balv
ĠparÄģd Ä«jÄģs
Ġ6 9
ane iro
ĠSv ÄĵtÄģs
Ġiz gudr
ĠspÄĵl Äĵm
Ġtransp orta
ĠS c
ĠV Äģciju
ĠÅ«d enÄ«
ĠLai ks
ĠÅ¾ an
Ġinform Äģciju
Ġligzd o
Ġrud enÄ«
Ġie vad
Ġpl Äĵs
if orn
ekt ors
Ġsta ciju
ĠvÄĵr Äģ
es tu
vÄĵr a
ĠAugst ÄģkÄģs
Ġpil Ä«
Ġkor por
l us
ĠpÄģr m
Ġvid es
ĠpÄģrl iec
istemÄģt ika
Ġg od
ĠbÄĵr n
Ġp u
ĠKr Äģs
at kar
Ġuz l
Ä«t Äĵm
kl s
ĠvairÄģk Äģs
Ġsal d
Ġrek ord
un da
oÅ¡ ais
ÑĢ Ðµ
Ġgalven Äģs
Ġstarptaut iskÄģs
ĠÄĮeh osl
Ġskat uv
Ġl og
us Ä«
ic as
Ġok s
Ġj Å«r
ĠMir uÅ¡i
ĠvÄģrt us
ĠAn gÄ¼u
199 0
ĠLat gal
pirm s
au ju
em a
Ġvar a
ĠBr itu
Ġnor Äģda
Ġv ok
bur ga
padsm it
Äģm u
Ġbar Ä«bas
S h
Ġdr aud
ĠpazÄ«st ama
p h
Ġap bed
ĠpÄģr gÄģja
ĠH orv
ec h
199 9
Ġ7 7
Ð¾Ð ¼
C an
d us
il du
isk Äģm
ĠdzÄ«v e
Ġnosl Äĵdz
on Ä«m
ok ia
Ð¾ Ñģ
Ġarhitekt Å«ras
Ġre aliz
ĠAl Å«ks
ĠUn gÄģr
ev iÄįs
ĠC om
Ġkons erv
ĠinÅ¾en ieris
ĠRiodeÅ¾ aneiro
ĠV I
Ġakt ieri
Ġatz ina
U z
em or
ĠM eks
du str
ĠIm p
Ġkarav Ä«r
m alas
ĠA f
ĠP Äĵr
Ġuz tic
Ġvien Ä«bu
ĠnozÄ«m Ä«g
ĠLietu vÄģ
ĠS am
ĠkrÄģs u
Ġkop ÄĵjÄģ
Ġs um
es ter
ĠS of
ĠO n
Ġlab Äģk
inÄģm s
l ija
is ch
ĠR od
ĠItÄģl ijÄģ
oj usi
ĠO sk
Ġdien esta
k at
ĠM Å«zikas
Ġpiem iÅĨas
ĠvadÄ«tÄģj a
Ġsieviet es
ĠÄĮehosl ovÄģk
Ġat sp
ĠpaÅ¡vald Ä«bas
en o
ĠH it
Ġvar ian
ĠÄįempion s
eh ouse
eln iem
Ġsarakst a
Ġl Å«g
Ġvis a
Ġstr at
ĠapstÄģk Ä¼os
Ġnomir a
Ñ Ħ
Ġnos auca
ĠpaÅ¡ reiz
ĠcÄ« ÅĨu
ĠkrÄģs Äģ
l ap
ĠL U
ĠMÄģr tiÅĨÅ¡
Ġm ez
Ġ19 16
Ġsak arÄģ
Ġstun das
iÅĨ Äģ
Ġnol Äĵma
l y
ĠI k
Ġvad Ä«bas
ĠÐ Ľ
ĠW orld
Ġkaus u
Ġj Äģp
st e
Ġmat emÄģti
Ġpiln Ä«gi
ĠDienvid sl
i Å¡Ä·
Ġtic is
en te
Ġre formas
Ġor Ä·
ĠLond onÄģ
ĠBars el
N S
Ġkar ag
k ai
am Ä«bu
Ġgal erija
ĠvÄĵl ÄĵÅ¡anu
ah s
Ġjaun Äģ
Ġvalod Äģs
crip tion
Ġpas niedz
Ġvajadz Ä«bÄģm
ob s
ĠKr isti
ometr y
Äĵ b
es e
nes is
prop erties
Ġpavad Ä«ja
lai ku
ĠkrÄģs as
in us
Ġap draud
ĠI man
ĠU EFA
Ġorganiz Äģcija
Ġc ita
Ġin fr
199 5
on ds
ĠS atvers
Ġpav Äĵl
ĠKult Å«ra
s ize
ĠM Äģkslas
ti tle
Ġap gÄģd
Ġpas tipr
Ġveid ot
Ġapm Äģc
erb aidÅ¾
ĠÄģtr umu
" ).
Ġf ig
Ä«ga jiem
Ġilg st
ĠSte f
Ġliet ot
ĠÄģtr ums
ĠmÄĵneÅ¡ a
ta d
Ġsp Äĵja
199 2
laik us
ĠNe w
Ġslim Ä«bas
u e
ĠD i
ikÄģ ÅĨu
ĠvÄ«r ieÅ¡iem
ordin ates
ĠM as
eat ure
Ġp Äĵr
Ġiz tur
Ġveid u
Ġrad a
ĠÅ«d eni
ĠSaeim Äģ
Ġimperat ors
Ġt aut
Ġie zÄ«m
Ġvien Ä«gÄģ
Ġstarp Äģ
ĠpÄĵd Äĵjo
ĠJelga vÄģ
ĠpieÅ¡Ä·ir ts
Ġkar ogs
ĠKop Äĵjais
Ġint ens
v in
Ġat v
Ġpr osp
ĠspÄĵl Äĵt
ĠÄ¢ e
Ġautob usu
Ġn eg
ĠN ap
ant ast
Ġarm ijÄģ
ĠUz ÅĨÄĵm
Ġad res
ĠDzim uÅ¡i
Ä«ga jÄģ
ĠEdu ards
Ġpiekras tes
ĠspÄĵc Ä«g
ep s
eks u
F eature
00 50
ge ometry
Ġmik r
lar ge
co ordinates
des cription
ĠZinÄģt ÅĨu
Ä« Å¡anos
ĠB ija
Ġnot ur
Ġotr a
war ehouse
ĠmÄĵr Ä·i
Ġaizsar gÄģj
ĠKomand as
ĠAtl antijas
d aÄ¼a
Ġlietuv ieÅ¡u
Ð¸ ÑĤ
Ġskol otÄģju
ĠOlimp iskajÄģs
ĠÅ¡t atÄģ
Ġatkar Ä«bÄģ
g Äģz
om ot
Ġpirm ie
ĠD ub
Äĵr oj
ĠnovÄĵr t
Ġbul vÄģr
Ġkom erc
ĠVald em
Ġguber ÅĨas
ek as
ek ven
Ä£ is
ĠÅ¡ah ista
l atv
itÄģ ra
Ġmei ta
Ġtel ef
Ġsnie dz
Ġs int
Ġmin Å«tes
Ð ļ
ĠpÄģr is
199 7
Ġnev eiksm
ĠKol umb
ĠpÄģr Äģk
te gr
ĠreÄ£ ionÄģl
Ġfeder Äģcija
ĠKaz ah
ĠcÄĵl ies
t im
199 6
ĠreÄ£ion a
ĠKÄģr Ä¼a
Ġtil ts
Ġkonst at
Ġiz slÄĵgÅ¡anas
ĠD Äģv
ĠÅ¡ Äģdu
Ġizmant oti
it ed
ost ac
Ġie ÅĨÄĵm
Ġvien Ä«gais
eviÅ¡Ä· i
ĠsvÄĵt ki
Ä« Ä¼a
Å¡ te
ĠL Ä«v
''' :
Ġid e
A S
ĠV ai
Ġc h
Ġietilp a
ĠVair Äģk
ĠpÄģrt ikas
Ġb ase
Ġap skat
j auk
k ÅĨaz
Äģz ijas
il is
ĠV asar
199 3
R Ä«gÄģ
Äģ Å¡ana
ĠZ aÄ¼
Ġkom b
ĠkÄģd s
ĠievÄĵroj ami
ĠKult Å«ras
o br
Ġor iÄ£inÄģl
ĠÄģr zem
Ġatkl Äģts
an z
Ġ8 5
Ġnosauk ta
Ġcit us
Ġfilm Äģs
Ġr Ä«c
Ġnon Äģk
Ġd iz
ĠB ab
Ġz aÄ¼
ĠV el
Ġmed al
ĠtÄģd a
T O
ĠtÄģd u
ĠbÄĵr niem
ĠprÄĵm ijas
Ġ19 10
Ġf eat
i um
ĠT oms
Ġ190 6
Ġsastop amas
ĠTe od
Ġ:: :
T S
ĠU N
Ġdat ums
ĠjÅ«l ija
ĠPÄĵt era
ĠKal iforn
ĠrÅ«p niecÄ«bas
Ġpie te
ĠH u
Ġvien Ä«ba
ĠspÄĵl i
20 20
ĠApvien otÄģs
Ġt Ä«kla
Ġc ivil
ĠFran cija
ĠE s
ĠdaÅ¾ i
Ġklas es
ĠRezultÄģ ts
ĠVal st
ĠPadom es
Ġz on
ĠZ v
ĠDeiv ids
m ai
Äģl ija
sp Äģr
S ojuz
Ġ icon
Ġs up
Ġpat Äĵr
ĠÄĮ ikÄģ
Ġgalvaspils Äĵta
Ġrakst oÅ¡ie
Ġrez ultatÄ«v
Ġautom aÅ¡
Ġiet var
ĠinstitÅ« tÄģ
ĠA iv
iÅĨ Äģm
Ġklub i
Ġizd ota
ĠNacionÄģl ajÄģ
Ġdemon str
E m
ei tr
Ġak me
Ġpam eta
Ġe iro
Ðµ ÑĤ
Ġdzelz s
Ġkur am
auk Äģz
Ġkon gres
ĠjÅ«n ija
Ġt Äĵva
Ġ7 8
Å¾ ers
ĠPirm ajÄģ
ur gs
Ð½ Ñĭ
ĠproblÄĵm as
T our
ĠpolÄģr stac
Ä Ĺ
ĠA br
ĠÐ ĵ
Ġ7 9
ĠpieÅĨem ts
S tr
ik ta
auk u
ĠPirm Äģs
Ġme itas
Ġj um
Ġpie gÄģd
Ä«j uÅ¡i
ĠÄ£erb onis
ĠE v
ĠmÄģj o
ĠlielÄģk s
Ġvald Ä«bu
ĠParÄ«z e
ĠievÄĵl Äĵja
Äĵn ijas
ĠVis u
Ġc ieta
âĢ ¢
ĠriteÅĨ brauk
Ġkonf lik
Ġpublic Äĵja
viel u
ie sta
ist iskÄģs
ĠapkÄģrt nÄĵ
Äģk iem
Ð Ł
Ġzem e
Ġm Ä«t
Ġpie auguÅ¡
ĠÅ¡Ä· Ä«d
Ġsatiks mes
sl id
ĠvÄģrd i
Ġd eju
ĠK au
Ġie vain
ĠAr h
Ġrad Ä«ja
Ġnaf tas
Äĵ ds
Ġp irk
Ġneliel a
o e
ok Å¡
Ġkult Å«ra
ĠA c
Ġd odas
ĠG ot
n Äĵs
ĠÄ£e ogrÄģf
Ġnum uru
ĠA h
Äĵj umiem
Ġ7 4
ĠMeÅ¾ a
ĠiestÄģd es
ĠM y
Ġsak r
ĠmÄĵneÅ¡ us
f ab
ĠMon re
ĠP ut
ĠFran ce
ĠatÅ¡Ä·ir as
c ijai
ir u
An dr
Ġstat uss
ĠPrÅ«s ijas
Ð ľ
ĠI et
Ġtr ij
mi tr
Ġvied ok
ĠUp es
ĠSK S
ĠC on
Ġst arta
ĠIn dr
Ġier os
Ġapsp alv
ot us
Ä«n ieÅ¡u
ĠÄ£ener Äģlis
Ġiz lai
Ġatr a
uc ks
ĠpÄģrstÄģv is
ik ts
ĠFil ip
L a
U R
ĠP u
ĠR ud
Ġuz cÄĵla
if e
inÄģj umÄģ
ĠaÄ£ ent
er ta
ot e
f el
Ġv as
ap h
ag as
ĠTÄĵrb atas
ĠPr ezid
ĠMar ijas
ĠK er
ĠE S
ĠÅł t
Ġpas nieg
Ð° Ð»
ost as
ĠCilvÄĵk i
au st
ĠÐ ĺ
Ġgrup Äģs
Ġrakst u
paÅ¡ laik
l iet
ĠC ar
Ġties as
Ġlat Ä«ÅĨu
Ã µ
Ġsp ÄģÅĨu
ieÅ¾ i
Ġlik um
er iem
ev er
Ġvis ai
Ġkl ien
Ġvir k
Ġvid e
Ġpadom e
Ġaustr umiem
Ġatbalst Ä«ja
Ġk v
es ts
ÅĨ os
ĠL a
ĠV aÅ¡
Ġvien Ä«gi
ĠkaraspÄĵk u
ga m
ĠR ih
ĠH erc
ĠvairÄģk Äģm
aus s
Ġstat usu
Ġk ul
Ġl e
and Äĵ
ist ika
Ġdr amat
O l
Ġz Ä«d
Ġsta bil
Ġmedic Ä«nas
Ġkategor ijÄģ
Ġpaz em
Ġarm iju
Ġobj ekti
A d
il la
ĠdaÅ¾Äģd Äģm
Ġdienn akts
Ġs es
ĠL ei
op l
ic us
ĠÄ£im ene
Ø§ Ù
Å« dr
Ġap bÅ«ve
ĠLiel ais
ĠbÄ«skap s
Ġ7 3
Ġcentr ÄģlajÄģ
ĠParÄ«z es
ĠM er
Ä«g Äģm
al c
ĠT ok
Ġpie redz
iez gan
Ġpriv Äģt
or b
Ġiz sl
Ä£ ints
ĠpÄģr ÅĨÄĵma
ber ts
Ġvald Ä«Å¡anas
199 4
r oc
z s
Ġdir iÄ£
Ġd u
== =
Ġl eÅĨ
ĠK os
Ġz vaigÅ¾ÅĨu
ĠJ Å«ras
ĠÄ¼ Äģva
Ġizm aks
Ġlab or
Ġ og
Ġp aug
is as
ga Ä¼u
ĠK en
Ġkon ta
Ġnor mas
d en
ap ar
Ġkon stitÅ«
ĠmÄģt Ä«te
ĠD av
et o
ie Å¡anÄģs
ĠUn ivers
ĠTomas s
T e
p o
ĠT ran
ĠF utbol
sk u
ĠL ub
ĠvairÄģk kÄģrt
ĠVar Å¡
Ð ł
Ä«l s
ĠKarj era
Ġ ans
Ġma ija
Ã Ĺ
Ġs vÄģr
or ganiz
ĠL au
ĠH al
Ġpag ar
Ġsaist Ä«ta
Ä ¶
ĠÄª paÅ¡
Ġpavasar Ä«
Ġietvar os
at ora
ic an
A R
i us
Ġl iek
Ġm igr
ĠJ Äĵz
ĠHorv Äģt
ie da
Ġf antast
ĠI elu
ĠNe atkar
ĠKlub s
m er
Ġd ob
Ġj ap
kr Äģs
Ġpa audz
s aim
ĠmarÅ¡ru ts
ĠgrÄģd iem
ÅĨ Äģs
ĠÅ¡ Äģdi
Ġme tÄģl
Ġdi ametr
Ġn r
Ġd ekl
ĠÄĮeh ijas
Ġp o
ĠstrÄģd Äģjis
ĠsalÄ«dz inoÅ¡i
ĠD ar
ort h
Ġme tÄģla
Ġuzt ver
Ä«g us
ĠSpÄĵl ÄĵtÄģja
Ġciet oks
ĠGais a
ĠM ur
ĠC O
ĠC r
Ġnov embra
Ġez eri
Ġizn Äģca
ĠKuld Ä«gas
niek am
Ġekonom ikas
om i
ĠdaÅ¾Äģd us
Ġviel u
ar y
Ġ19 13
ĠS el
od uc
Ġtum Å¡i
ĠsastÄģ d
Ġl oma
ÄĵtÄģ m
Ġmuz ik
Ġtum Å¡
Ġp usi
Ġs omu
ĠS ku
Ġsatiks me
Ġpad ar
k us
Ġliel kÅĨaz
Ġdarb inieki
ĠAt Å¡Ä·ir
Ġcaur i
Ġc en
ĠÐ ½
Ġregul Äģri
or y
oz e
Å«n s
Ġsep tiÅĨ
Ġat gÄģd
ĠE st
Ġgal d
J PG
Ġvidusskol Äģ
Ġd ibinÄģja
ĠD Äģrz
Ġmar ta
Ġloc ekÄ¼i
ĠMai kls
Ġb as
ĠV Äĵr
Ġveid ojot
Ġvald Ä«ja
Äĵz ijas
Ä· e
ĠÅ¡ iem
ep h
Ġgr edz
ieÅ¾ as
riet umu
Ġstud Äĵja
ĠdeputÄģ tu
ĠBerlÄ«n es
er os
ĠF o
ĠÄ· Äĵn
Ġm ÄģjÄģs
ĠV iena
Ġprogram mu
ĠpaÅ¡vald Ä«bu
t ons
st Å«r
ĠvÄģr tsar
ĠAleks ejs
ĠrobeÅ¾ a
ĠEd var
ĠbÄĵr ni
Ä«g os
ĠJ u
ĠW h
S al
ot ne
Ġab as
Ġsiev as
Ġpolic ijas
l ijs
il e
Ġbal ta
ĠmeÅ¾ os
193 9
Ġsingl s
ĠF re
S l
Äģ Å¡anu
Ġd Å¾
ĠL Ä«b
Å«n a
gÄģr u
ĠMÄģr is
Ġapstipr inÄģja
k ait
on ijs
ĠA str
Ġdarb iem
ĠBau skas
R Ä«ga
ĠL i
im etr
ĠÐ ĳ
ĠtreÅ¡ Äģ
o Å¾u
ĠrobeÅ¾ ojas
Ġkabin ets
N okia
kaln s
h s
om Äģs
gr Äģf
ik i
and i
Ġinform Äģcija
Ġpoz it
ĠL Ä«
Ä«t iem
Ġmir a
m ent
Ä ±
Ġs az
Ġl aul
ĠT at
Ġbiju Å¡i
ĠPek ina
ĠSac ens
ok i
Ġnek ad
ĠbrÄ«v Ä«bas
Ġmet odes
en iski
ĠL ove
ĠT ir
ul l
bal s
it es
ĠiekÄ¼ autas
Äģv Äģs
ĠBrazÄ«l ijas
laic Ä«gi
ÄĢr ÄĵjÄģs
ĠPr et
Ġst Å«r
ĠriteÅĨ brauc
ur g
ol aik
ĠD er
ĠkrÄģs a
O S
Ġap z
Ġbr auk
S v
ol Äģ
ĠÐ ²
Ġapr Ä«k
ĠKazah st
ec t
Ġkurs Äĵ
ĠB os
Ġj Äĵdz
ĠÄįempion a
Ġatkl Äģj
ĠstrÄģd Äģ
Ġpapild us
ik Äģcijas
la y
ĠrobeÅ¾ u
Ġraj onos
Ġstad ions
ĠvienkÄģr Å¡
ĠAz erbaidÅ¾
or du
Äĵt ika
Ġsek und
ĠpÄĵd Äĵjais
ĠziÅĨ Äģ
Ġska ÅĨas
ĠnÄģkam ajÄģ
Ġtrolejb usu
ar is
Ġt on
on da
Å« c
ĠInd iv
Ġans amb
Î ¿
ĠIz plat
uc ion
bÅ«v es
ak ers
Ġc ilt
Ġkr is
ĠLiel ÄģkÄģs
Ġkapte inis
F C
R ed
Ġk aval
il g
ĠSk ot
ĠkuÄ£ u
Ġmilj onus
ĠPat r
ĠKriev iju
Ġturp mÄģk
Ġstil Äģ
j ai
Ġdzim tÄģ
man e
ĠIev Äĵroj
ĠkopvÄĵrt ÄĵjumÄģ
Ġt eik
Ġj Å«ru
ĠÄģr kÄģrt
em in
Äģc ijÄģs
Ġvid Äĵj
Ġpat i
ĠDienvid u
194 0
Ġuzbruc Äĵjs
Ġskatuv es
at er
ti ÅĨa
Äģn os
ĠbrÄ«v prÄģt
Ġdi al
ĠOlimp iskÄģs
Äĵj umus
ĠM uz
Ġdistanc Äĵ
Ġd iezgan
Ġf oto
ĠAr n
J Äģnis
Ð Ŀ
Ġpils ÄĵtÄģs
ĠNÄģk am
Ġs irds
ĠN orm
Ġkat ra
uld as
b or
at h
ĠN ep
Äģt ies
Å«n u
Ġdol Äģru
etr o
Ġpaz Ä«m
Ġpiec as
Ġnop iet
b Äĵr
k om
Ġs ieva
Ġvar i
Ġnos ac
ĠÄ¶ Ä«nÄģ
Ġtel pas
Äĵ da
Ġpie vÄĵrs
Ġma Ä£istr
Ġieguld Ä«jumu
ĠSatvers mes
v ok
ĠB ost
Ġpaslud inÄģja
Ġ isl
ĠK a
ĠmÄģt es
Ġpiedzim a
ĠR Å«
ĠR Ä«gu
Ġc ep
Ġno ciet
Äģc Äģs
ĠmÅ«z iÄ·is
ĠA in
Ġvis Äģs
ain u
ekt or
ĠtÄĵv iÅĨi
kal nes
Ġgl ob
ĠP ir
Ġj omÄģ
ĠIz skats
if t
Ġsez on
Ġstrat ÄĵÄ£
eÄ¼ as
Ġiesp Äĵja
ĠZ il
ĠAn g
ĠÄĮ Äģrl
ce Ä¼u
ĠmÄģc Ä«jÄģs
Ġvesel Ä«bas
ĠSta Ä¼
ĠD en
ĠKriev u
ĠbijuÅ¡ Äģs
old em
in ter
ĠD emokrÄģt
Ġc elta
Ġgr ib
bur g
ĠiegÅ«st ot
ĠsaÅĨÄĵm is
ĠNap ole
p er
Ġkar tes
ĠPr iekÅ¡
ow n
ĠMed ic
ĠpriekÅ¡sÄĵd ÄĵtÄģja
Ġcil ts
ĠkompozÄ«c ijas
j evs
ĠZem gal
ĠatkÄģrt oti
ĠV iegl
ien us
Ġal fab
ĠS ent
las s
ak e
ĠR eÄ£
ĠH ans
ĠC o
ĠKr ista
ĠPr Äģ
ĠmÄģksl inieki
ĠJÄĵkab pils
Ġau to
Ðº Ð°
Gr and
ĠEk onom
E d
Ġar Äģbu
ĠD ev
Ġg lab
Ġsek m
Ġprogram mat
Ġgalvaspils Äĵtu
ĠbibliotÄĵk a
ĠR em
ĠlÄ« Äįa
ator ijas
ĠInter n
Ä« sl
Ġar vien
ĠÅ¡ ie
Ġlatv ieÅ¡i
Ġhercog istes
u Ä¼u
ip elÄģ
iÅ¾ ets
ank Å«v
Ġpolit isko
Ġkalend Äģra
Ġ( +
Ġap vÄĵrs
Ġinterne ta
ir st
ir ka
ej i
Ġveik ta
ĠkÄ¼ Å«t
Ġkomis ijas
k e
ĠN op
mu gur
Ġsacens Ä«bu
ĠapzÄ«m Äĵ
Ġrepubl ikas
Ġ19 11
ĠÐ º
Ġak ciju
enc iÄģl
S at
Äĵta jÄģ
Ġpret end
Ġsaim niecÄ«bas
Ġizrais Ä«ja
ĠPa gaidu
ĠGust avs
Ġno skaidr
ĠR os
ĠD iscipl
ĠPr ix
a e
es es
Ġproj ektu
ĠparÄģd Äģs
ĠVaÅ¡ ingt
ir e
ĠG o
kop Äģ
ĠSarkan Äģ
il u
ĠD aba
inÄģ Å¡anÄģs
ĠcÄ« ÅĨÄģ
n am
ĠI t
ĠÅł eit
Ġaiz viet
Ġm Å«ra
ĠZ elts
Ġsta cijÄģ
ĠZviedr ijÄģ
Ġiest ud
E s
ĠE x
Ġne uz
Ġeksped Ä«cijas
Ġ'' "
ĠV ad
Ġ25 0
ĠÅ¡o brÄ«d
ĠKaln iÅĨÅ¡
ij i
en da
ĠbrÄ«v Äģ
P l
f ord
Ġpat stÄģv
Ġlauk uma
Ġoper Äģcijas
ĠR eiz
Ġas tes
Ġmuz eja
K ur
n Ä«
ĠÅ¡ Äģdas
Ġter min
ĠGr upas
ĠstrÄģd nieku
Ġkar te
Ġkosm osÄģ
ĠA Ä¼
Äģz e
Ġstud iju
ĠApbalv ojumi
Ġlik ums
ere ti
Ġcent Äģs
dz e
isk ajos
Ġsastop ami
ĠEd gars
Ġk var
Ġar est
Ġier o
Ġapkop oti
o ut
Ġuz ved
en im
oc h
Ġs Äģcis
ĠJ ev
ĠF errari
gan s
.) ;
199 1
Ġd aiÄ¼
Ġvec Äģki
ĠSl ov
ĠHels in
Äģ ÅĨi
Ġ8 8
Ä« Ä¼
oloÄ£ isko
ĠSpÄĵl ÄĵtÄģjs
G al
ĠP Ä«t
Ġsav ai
ĠÅ¡ tÄģ
Ġkop Äĵjais
kr ievu
aud u
Ġapgabal u
ĠIv ans
ĠKarj eras
eÅ¾is ors
ĠR oma
ĠmÅ« Å¾a
Ġpers onas
ĠAug Å¡
ĠO st
Ġ8 4
Ġvec Äģkais
Ġmug uras
ĠIedzÄ«votÄģj u
e Äįu
j ans
k ur
Äĵ ga
Ġt ill
ur Ä£
ĠK as
Ġpus finÄģl
oj uÅ¡i
ag on
Ġrez id
ĠViÄ¼ ÅĨas
ĠF el
ĠÄģr sts
ogu Ä¼
Ġparlam enta
b s
Ġ9 6
Ġjosl Äģ
U S
Ġl omÄģ
Ġ8 00
Ġtehn oloÄ£iju
ĠKomand u
Ġ air
Ġpat eicoties
Ġziv ju
ĠRezultÄģ ti
Ġlab Äģ
ak i
an na
am ie
A F
e us
Ġn ac
ĠV ankÅ«v
Ġkun gu
z Äĵl
ar du
ĠR aim
Ġap ciet
Ġriet umiem
ĠpaziÅĨ ots
ĠenerÄ£ ijas
Ġk amer
Ġie pl
Ġuz celta
Ġkin or
ĠS aks
ĠM aur
ĠceÄ¼ Äģ
Ġtais n
u gu
ĠÐ ¾
tic s
ĠMask ava
viet as
Ġatz in
ĠKij evas
Ð ŀ
av Äģr
Äģt e
p i
an ku
ant e
Ġuzskat Ä«ta
Ġizr ak
Ġstarptaut iskais
Ġvidus laiku
ĠAlber ts
Ġart il
â ĪĴ
ĠV ies
Äĵm u
Ġizm ÄĵÄ£
iz Äĵ
Ġf ol
ĠAn at
Ġizm ekl
Ð¸ Ð¸
Ġpul c
ĠK n
Ġstarptaut iskajÄģ
Ġ os
isk us
Äĵm as
Ġkon struk
ĠdzÄ«v nieki
Ġkonkurs a
ĠfakultÄģ tes
r id
Ġt Ä«m
Ġkauj a
T ur
ĠL ejas
ĠT ukuma
Ġkol ed
Ġpavad oÅĨi
R ob
ĠS Äĵl
Ġveid iem
Ġsasniedz ot
ĠvienkÄģr Å¡i
tr auk
ĠdaÄ¼ ai
enc Äĵ
Ġproduk tu
Ġto starp
Ġpus e
Ġsept embra
Ġlid ojuma
Ġautom Äģt
Ġsaus zemes
j Äģs
Ġdiv os
Ġkam pa
ĠP azÄ«st
Äģk os
Ġviet ne
Äģr d
ĠS var
ĠL ik
and ers
ĠKar l
Ġizn Äģk
s en
Ä Ĵ
Äĵj usies
ĠM old
oz efs
ĠpanÄģk umus
'' "
an Äįu
gr Ä«vas
ĠG old
ag o
Ð¸ Ð¼
Ġsal Äģs
ĠnacionÄģl ais
Ġstipr i
ĠJÅ«l ija
ĠÅ¡ au
ĠE sp
ĠC omp
ĠVal ters
Ġkaus Äģ
ĠvadÄ«tÄģj i
j Å«
ĠtreÅ¡ ais
ĠIek Å¡
as tÄģv
dz as
Äģd Äĵs
Ġin tegr
Ġpils on
istÄģ nas
ĠDal Ä«b
kl Äģj
t is
ĠP us
mi ts
entÄģl Äģs
m Äģs
aln a
ĠfakultÄģ tÄĵ
Ġkarag Äģj
k iem
is es
Ġd emokrÄģt
ĠS istemÄģtika
and o
Ġsek oja
Ġietek mi
ĠSidn eja
las es
ĠKar ls
ap t
Ġrakstur Ä«ga
Ġarhit ekts
ĠiekÄģrt as
ĠV Äĵ
erc edes
Ġmeh Äģn
ĠDÅ¾ord Å¾s
ek tÄģ
ies ma
Ġglezn otÄģjs
Ġkatr Äģ
ĠProf es
et t
Ġpa gr
sk ai
Ġproc ess
Ġsma dz
Ġ0 4
ĠpilsÄĵtÄģ m
Ġuzbruk umu
Ġop erat
ĠSas nieg
im e
Ġ âĢĵ
ie Å¡anu
ĠL V
ĠE g
ard i
ĠLond onas
Ġapprec ÄĵjÄģs
Ġ .
ĠArt Å«rs
Äĵr iju
inÄģt ies
ĠPr emj
ĠpÄĵt Ä«jumi
ĠStarptaut iskÄģs
Ġjos las
ĠlÄ«der is
Ġs ultÄģ
of s
ĠMad on
c he
Ġab u
ĠBÄĵrz iÅĨÅ¡
P as
Äģl iem
Ġ6 00
kaln a
ĠÅ¡ Ä«m
Ġotr Äģs
Iz st
Ä« Å¡a
ĠO gres
Ġdarb oties
Ä«l es
Ġdekl ar
% )
ĠT ikai
ĠÅł ie
Ġciem am
Ð ¶
ĠzinÄģt nieki
ĠRiÄį ards
ĠT om
iÅĨ us
ens s
Ġ8 7
Ġvad a
ĠlielÄģk a
ĠTur nÄ«r
Ġatst Äģja
F K
ap r
spÄĵl es
ak ovs
Ġtur ku
ĠdaÄ¼ Äģs
ĠiekÄ¼ auj
ĠmÄģksl iniec
Ġsauk ta
Äģl os
Ġ9 5
Ġlab ÄģkÄģ
ĠMar Å¡
ĠlÄ«m enÄ«
Ġnesp Äĵja
ĠL igzd
Ġr aib
ĠO to
Ġnod aÄ¼a
ĠvÄ«r u
Ġlap as
c er
Ġd im
Äģk sl
Ġpr im
ag i
Ġ190 3
ĠTar tu
ĠJÄĵz us
ad Äģ
oj ama
Ġaiz sÄģk
ĠmÅ«z iku
Ġbl Ä«v
Ġfron tes
ĠS un
ĠM agn
bur gu
Ġobj ektu
ĠLab Äģkais
Ġkomit eja
Ġjebk ur
ic ks
Ġkval ifikÄģcijas
Ġska ÅĨu
Ġr ec
Ġkr iti
ceÄ¼ Å¡
ĠSarkan Äģs
ok l
ĠH or
Ġlab ajÄģ
tur nÄ«r
Ġapk ai
ĠMart ins
Ġzem Äĵ
ĠSt en
Ġvirs nieks
Ġkauj Äģs
ĠAtl anta
ĠAn nas
ĠÄĮ er
Ġ ),
Ġk oks
ĠN ar
Ġkop Äĵjo
me ÅĨu
Ġd em
ĠÅ¡ ai
ĠAl l
ĠSom ijÄģ
Ġfilozof s
I l
Ġr est
ĠB iz
ĠpÄģrdÄĵv Äĵja
ĠB erg
az d
Ġliel o
Ġor ient
ĠlielÄģk u
Ġfr ak
ĠDat ums
A N
ÅĨÄ£ Äĵl
an ga
on ia
Ġliel i
ĠKom un
Ġbasketbol ists
Ġtor nis
ĠD ag
ĠD mitr
Ġg Äģzes
ĠÅ¡t ata
Ġgr Å«ti
Ġ Ã
Ġp ot
el Äĵ
Ġpie rakst
ist iskÄģ
ĠKr as
ĠvÄģrd iem
Ġherc oga
Ġkreis ajÄģ
ĠPol s
Ġuzskait Ä«jums
Ġv ingr
ant as
qu e
ĠsÄĵr ijÄģ
Bal t
ĠsvÄģr st
Ġt ap
ĠÅ¡Ä·Äĵrs o
ĠorÄ· estr
Ġnor it
ĠJ ug
Ġapr Ä«Ä¼a
ĠgrÄģm atÄģ
ĠsvÄĵt ku
Ã¼ r
s is
ĠM ill
Ġat g
Äĵn Äģ
ĠV iÅĨi
ĠF ord
ain is
Ðº Ñģ
ĠPl esk
ĠÅ¡Å«n as
k ovs
as ka
en n
Ä«n Äģs
ĠÐ Ŀ
Ġput niem
ved is
j us
Ġin f
ĠvairÄģk os
ĠÅª dens
I S
ĠzinÄģtn iskÄģs
Ġie ceÄ¼
Ġ190 9
ĠIg ors
ĠS aim
Ġbr ig
Ġpl Äģna
ĠpÄĵt Ä«jumu
Ġrek ordu
Ġsaim niec
ES CO
Ġdzelt en
Ġdeb es
ĠuzstÄģd Ä«ts
Ġu kr
Ġr iÅĨ
auk a
Ġ8 6
Ġtur klÄģt
ĠattÄ«st Ä«ba
Äĵj us
atÄ«v Äģ
ĠMu iÅ¾
Ä«g Äģko
Ġ9 1
Ġpul ks
Ġpagast iem
Ä· er
Ġkar t
ĠviÅĨ ai
aun as
Ġlauk umÄģ
ĠÄįetr i
ĠSasnieg umi
M az
Ġvir sp
ĠnacionÄģl Äģ
A k
B lu
Ġsav Äģm
Ġpagas ti
iks s
ĠK HL
ek Ä¼us
Ġnosauk ts
Ġdel eg
Ġmus ul
P S
à ¤
ĠV oldem
Äģl ie
un as
Ġrek on
Ġ er
Ä« ÅĨas
ĠI SO
Ġsavien o
ĠÄ«pat n
k os
il es
ĠZ ar
ĠTr iju
ĠSib Ä«rijas
ĠEur ope
Ġie viet
Ġz ÄģlÄĵ
ĠH av
Ġpirm ajiem
ĠSav u
Ġkol h
Ġv er
Ġdal Ä«jis
Ġup ju
ell o
ĠmilitÄģr o
K P
z inÄģt
ĠÅł ar
Ġiek Ä¼uva
Ġfiz iÄ·is
a els
ai da
and in
Ä«n ija
ĠDzim ta
ĠpakÄģp es
ĠHeinr ihs
e tÄģ
at ori
Ġiz t
ard o
ĠAtÅ¡Ä·ir Ä«bÄģ
o up
Ä ª
op us
Äģn e
ĠÐ ´
A ts
in am
Ġno Å¡
ien os
ĠKan ÄģdÄģ
ĠOk tobr
pÄĵj ams
ĠV j
ĠziemeÄ¼riet umos
v ieta
ĠÐ ¸
iÅ¡ a
Ġ190 7
ĠmÄģjasl ap
r aÅ¾
en b
ĠK e
ĠT ies
ĠpÄģr vÄĵr
ĠÅ¡ah ists
âĢ ł
Ġil ga
Ġd Äģr
ĠT uv
ĠG an
ĠspÄĵk iem
ĠJÄĵk abs
ĠbrÄ«d Ä«
Ġlaikme ta
oriz on
ĠO y
Ġ0 2
Ġieguv usi
ĠJaun zÄĵl
Ġbatalj ons
Ġseg umu
Äĵj oties
om e
Ġuz reiz
Ġkol ek
ĠpieÅ¡Ä·ir ta
ĠRÅ«d olfs
' )
Ġkust Ä«bu
Ġraj onu
Ġneliel s
ĠgaiÅ¡ i
ĠD em
Ġbal ss
Ġte xt
ikl op
Ġmeh Äģnis
I V
p Äĵt
ĠZem nieku
Ġfor mu
w ay
ot nÄĵ
ol lo
oÅ¡ as
ic es
ĠpriekÅ¡ Äģ
Ġsavien ota
Ġautoc eÄ¼a
Ġklim ats
Ġdub ul
% ,
G M
osm os
ĠRec ords
ĠTals u
Ġ ogl
Ġ9 2
ilt enes
ĠtÄĵv iÅĨÅ¡
A ustr
on Ä«
el li
oj ams
iÄģl Äģ
ĠkÄģd as
ĠdziedÄģtÄģj a
Ġeksped Ä«cija
ĠpriekÅ¡ me
ĠBaznÄ«c as
P ie
ĠS eb
Ġpr eÄįu
Ġpas ugas
ĠmeÅ¾ u
Ġsaist Ä«ts
ĠH ot
Ġas fal
ĠmÄģc Ä«tÄģjs
Ġvidusskol as
ĠApdzÄ«v otÄģ
ĠL uk
ĠBr un
Ġma Äį
ĠVis pÄģr
Ġizrais a
D e
Ġu tt
Ġf os
ĠAustrÄģl ijÄģ
C el
Ġ eÄ¼
Ġs aules
Ġt uks
ĠD isk
ĠSudr abs
ĠR as
Ġlaik os
ĠrezultÄģ ts
Ġproj ekts
Ġap gr
Ġh um
Ġsaist Ä«ti
Ġuzdev ums
Ġr otas
ĠR ef
ĠN ev
ĠH r
ĠIn s
Ġsal Äģm
Ġziem Äģ
Ġpamat a
ie b
eÄ¼ iem
Ġbiedr Ä«ba
ĠDaugav pilÄ«
Ġherc ogs
Ġ oz
Ġd istr
ĠÅ¡ Äģda
Ġkar am
ber gas
ĠvÄģc balt
Ġkult Å«r
ĠUN ESCO
Ġiz Å¡Ä·
Äĵl Äģs
Ġdat ub
i Ä·a
Äĵt os
Ġvidusskol u
ĠbÄĵg Ä¼u
Ġiz dzÄ«v
ot ajiem
ĠB uk
Ġ0 1
Ġ190 1
Ġgl Äģb
Ġâ Ļ
ĠIedzÄ«votÄģj i
at t
an ka
Ġveid ots
ĠSt Ä«v
ĠÄ· au
Ġiz vair
Ġizveid ojot
ĠnovÄĵr ojumu
Ġbiedr u
Ġpoliti Ä·i
Ġrok as
a ga
Ġk aÅ¾
ik ovs
Ġc Ä«kst
Ġst ingr
Äĵd as
at ur
Ġl Äĵn
ĠM ol
Ġvien laikus
ĠapdzÄ«v otÄģs
ĠÅ«den skr
Ġs erv
Ġt ilp
am e
am es
ad e
Äį es
ĠC D
Ġin dustr
Ġjaun Äģs
ĠesoÅ¡ o
ĠspÄģr nu
ĠTall inas
Ġb y
Ġm emor
ĠV D
ÄĵtÄģj iem
ank t
Ġatjaun oja
V D
Ġiz pr
ĠTur p
ĠNA SA
" ),
Ġ ils
Ġpr iek
Ġats auces
ĠLosandÅ¾el osas
enÅ¡ te
ĠAtr odas
B ul
z es
ĠL ev
ov i
ĠPr oj
ĠFil m
Ġbeidz ot
ĠÄįempionÄģ tu
ĠÄ«paÅ¡ umÄģ
Ġapvien Ä«bas
Ġmeist ars
Ġmeist ara
Ġkris tÄģl
O N
Ñ İ
ĠP ubl
Ġgr Å«t
Ġ8 3
ĠslÄĵp oÅ¡ana
Ġiec irk
ĠDiscipl Ä«na
Ġno gul
Ġc ikl
ĠAtt Äĵlu
Ġapvien Ä«ba
Ġministr a
Ġkarav Ä«ru
T P
e ÅĨi
ĠV irs
c elt
l ig
Ã ¨
ĠC ent
gl is
Ġliet ots
Ġfr ekven
ĠLosandÅ¾el osa
Ġavi Äģcijas
ĠÄĮikÄģ gas
Ä«n o
ind ows
Al eks
ĠpakÄ¼aut Ä«bÄģ
c ijÄģs
Ġn eitr
Ġpr ef
Ġaugst u
ĠmÄĵr Äģ
ĠÄ£ener Äģl
ĠSlovÄģk ijas
u ts
Ġdaudz veid
Ġietek me
Ġfantast ikas
am Ä«ba
Ġska ÅĨ
Ġpakalp ojumu
Ġgal va
Ġdien Äģm
ĠnÄģv i
Ġatra Å¡anÄģs
% .
Ġt ank
Ġno gÄģd
Ġr ub
Äĵr v
Äĵk s
Ġaug Å¡u
a ÅĨas
Ġ 00
Ä« Ä£
il k
ost ud
man n
Ġdat i
ĠmarÅ¡ru ta
Ġap g
Ġpr op
eg as
Å«d ams
Ġizmant otas
j on
r y
Ġd v
ĠD re
Ġ9 8
Ġproces u
ĠL o
and ieÅ¡u
Ġapvien o
erd in
L akers
Ġv ulk
Ġat vas
ĠD eb
ĠN om
ĠÐ ³
enis s
Ġprot est
Ġziv is
ĠA dr
dz is
ais ti
Ġkar ad
Ð¸ Ðµ
ĠKur zemÄĵ
Ġatjaun oÅ¡anas
ĠK un
Ġie te
Ä«v iem
ĠG od
Ġkomand ai
Ġrezerv es
om er
las e
Ġuzman Ä«bu
K on
Ġk Äģjas
ĠG ol
Ġnep ar
ingr adas
Ġcen Å¡as
Î ½
ĠP o
em i
Ġpor tÄģl
ÅĨ Å¡
ĠÄ«paÅ¡ nieks
ĠmateriÄģl u
Ġliterat Å«rÄģ
ĠuzvÄģr ds
t l
Ġt un
Ġarh ipelÄģ
Ġav Äģr
ĠpakÄģp eniski
r up
Ï Ĥ
Ġl ika
ĠFil ips
ĠatseviÅ¡Ä· i
ĠÅħujor kÄģ
Ð ĺ
Ġ15 00
Ġaugu sta
Ġd Ä«
Ä«n ijas
Ġmod elis
Ġpap ildu
Ġtu vu
h ards
ĠÄ· eiz
Ġbiedr i
e ÅĨa
Ġ Äģdas
Ġkomp Äģnijas
Ġstarptaut isko
ĠP amat
ĠM ac
Ġnot eica
pr et
ĠdzÄ«v Äĵ
Ġnop ost
ĠPortug Äģles
j ana
Ġ ii
ie Ä£
Ġs aul
on y
ag m
ĠC etur
O R
Ġs Äĵrija
Ġl ic
oloÄ£ iskÄģ
ĠvÄĵstur i
ĠM c
Ġpolit iskÄģs
ĠNop elniem
P ol
Ġpal ik
ĠSp ÄģnijÄģ
kar a
Ġbatalj ona
Ġveiksm Ä«gi
ĠSin gl
ĠErnes ts
b i
Ġm ak
Ġpret est
Ġpa gaidu
ĠlielÄģk Äģs
vad r
ĠtÄģd as
omb ard
ĠÅ¡os ejas
u f
ĠstÄģvok li
ĠIzra Äĵlas
ĠVis as
ĠÅ½ ans
ĠBerlÄ«n Äĵ
ĠpaÅ¡ i
ĠgrÄģm at
Ġiev iesa
ĠizvÄĵl ÄĵjÄģs
ĠpaÅ¡ as
ĠapriÅĨ Ä·Ä«
Ġneliel u
Ġizs Å«t
ĠLud v
Ġviz u
Ġ af
ĠS S
Ġg atv
ĠTur klÄģt
Ġoktobr a
ĠfinÄģl s
Ġdokt ora
n avas
Ġt vai
ĠÐ ¢
olf a
Ġv Äĵj
gr upas
ĠpÄģr kÄģp
ĠZ ig
Äĵd ijas
ĠVis i
Ġ189 7
Ġrom ieÅ¡u
ĠpozÄ«c ijas
ĠimpÄĵr ijÄģ
W h
d iv
em d
ĠBr uÅĨ
ĠlielÄģk oties
ĠAlfr Äĵds
ĠP e
ĠV eid
ej ot
Ġvien laicÄ«gi
Ġin ici
Ġrep res
ĠdiÅ¾ kun
Ġb Ä«skapa
Å« Å¡anas
ĠN er
Ġieguv Äĵjs
ĠEl ektr
ÄģÄį pl
las t
ĠbieÅ¾ Äģk
Ġform Äģ
Ġrekord i
H K
en Äĵm
ĠsÄĵn es
tr ets
Ġc ip
ev skis
Äĵn iem
ĠOlimp isko
ĠMÄģc Ä«jÄģs
ar us
or am
ak mens
Ġdzim Å¡anas
Ġpus sal
ĠinstitÅ« ts
Ġpos mu
ĠA NO
oj umam
ĠG ai
Ġaugst Äģko
iÅ¡ s
ĠmÅ«sdien Äģm
Ġzir gu
Ġfeder Äģcijas
Ġnomain Ä«ja
st am
ĠZ ied
Ġak tu
Ġorganiz Äģciju
ĠOtr ais
ga ism
ĠK ab
ĠI Ä¼
ĠIz veid
g ol
ĠM Äĵr
ĠH ok
Ġveid os
pus Äĵ
ĠVidz emÄĵ
ĠstÄģ sts
Ġkontrol i
Ġmus ku
Ġvien am
Ġlab u
ĠspÄĵk Äģ
Ġapar Äģts
ĠpienÄģk umus
Ġ1 18
Ġf iks
ov iÄįa
Ġteritor ijÄģm
Ġban kas
K l
Ġsp ir
Ġdec embra
ĠÅ¡Ä·ir as
Äĵ sl
Ġs Äģ
Ġbr Äģz
ĠakadÄĵm ijÄģ
ĠmÄģj u
Ġpur va
Äģj ies
Ä· ed
Äģt es
ĠDÅ¾ o
ĠizstrÄģd Äģja
ĠGeor gs
Ġnok Ä¼
R en
Ġd en
ur k
ur iem
ĠV iet
ĠM is
Ġap glab
Ġaiz mugur
Ġdaudz umu
Ġviet Äĵjo
Ġpiln var
Ġnoteik t
ĠDzies ma
ĠPar lam
Ġpiem Ä«t
ĠvÄĵrt Ä«bas
Ġsarun as
ek m
ĠJur ijs
ĠJev g
ĠK le
Ġpar ka
ig h
198 9
ĠZiemeÄ¼ amerikÄģ
193 8
Ġizplat Ä«bas
Ġolimpi ÄģdÄĵs
ĠP Ä¼av
Ġr et
Ġ9 9
ĠPol oc
ĠÄĵk Äģ
ĠTÄģd ÄĵjÄģdi
Ġzem Äĵs
Ġfl otes
Ġpareiztic Ä«go
in oties
atÄ«v o
Ġind i
ĠAngl ijÄģ
ĠN a
ed o
Ġne ga
Ġaiz st
oÄ¼ Å¡ev
m ita
ĠBeÄ¼Ä£ ijas
ĠI P
ĠE in
Ġaugst skol
Ġkomp Äģnija
ĠprÄĵm iju
ĠOsk ars
d Å¾
Ä«v o
Ġuzdev umu
f on
p es
it o
eh u
Ġkino akt
Ã ł
Ð¸ ÑĢ
pils Äĵtas
ĠEd m
Ġobj ekt
ĠIzglÄ«t Ä«ba
ĠnepÄģr trauk
Ġv ain
Ġpie r
19 18
Ġdarb os
Ġolimpi ÄģdÄĵ
Ġiebruk a
Ġizz ud
R e
u Ä¼a
ĠdzÄ«v niekiem
ĠAr tur
ĠDÅ¾ eks
ĠtÄģd i
ĠmÄģc Ä«bas
ert ik
Äĵr ijs
Ġz iÅĨas
Ð² Ð°
Ġinter v
ĠdivÄ«z ijÄģ
ĠPav ad
ĠForm ula
Ġat om
ĠR iga
et Äĵ
Ġ0 6
Ġuzvar ÄĵtÄģji
Å« Å¡ana
Ġap tur
ĠG or
Ðµ Ð»
lu at
ĠizcÄ«n ot
198 8
ĠÅł aha
Ġvis liel
Ġbal tu
Ġgrup ai
Ġkap itÄģ
ĠapdzÄ«v ota
ĠstÄģvok lÄ«
v Äĵstur
Ġrakstur Ä«gs
Ġslav en
Ġk Å«r
ĠB oh
ĠR it
ĠD or
sk al
ĠizglÄ«t Ä«bu
ĠAugst ÄģkÄģ
ĠvidÄĵj ciems
Ġs eviÅ¡Ä·i
Ġv ic
ĠD ur
ogr es
n ik
on io
ĠV or
Ġuz aic
iev ieÅ¡u
og i
ap s
Äģm i
Ġmas as
Ġgalvaspils ÄĵtÄģ
! "
Ð ĵ
Ä« Å¡
et h
Äĵm ijas
ĠO t
Ġpart iz
ĠPils ÄĵtÄģ
ĠViegl atl
M an
ĠB Äģr
ies m
ĠÄįetr iem
Ġprod ukt
Ġbag ÄģtÄģ
em ent
Ġat sÄģk
eÅ¾ a
ĠraÅ¾ oÅ¡ana
Ġsauk ts
t al
ur us
Ġdaudz u
ĠvÄģr tu
Ġpav isam
Ġotr s
ĠbaznÄ«c Äģ
ĠAlb ums
Äģt us
Ġaiz s
ĠSk olas
ĠzinÄģm a
ĠDarb a
Ġ ÅĨem
ĠR us
Ġjur id
ĠIzviet ojies
ĠtÄ«m ekÄ¼a
ĠB re
Ġre fer
Äģv as
ĠÄ£ itÄģr
ĠkÄģd reiz
ec s
ĠkÄ¼u vusi
ĠPas tÄģv
Ġpolit ikas
ĠDiv as
Ġv i
Ġl igz
ĠKaln u
ĠJap ÄģnÄģ
Ġimperat ora
Am er
Ġsavv aÄ¼as
ĠDisk ogrÄģfija
Ġie sÄģk
uÅ¡ os
Ġgr Äģv
Ġpies aist
Ġmas a
Ġrom Äģns
ĠuzÅĨem ta
ĠA S
Ġtr ans
SK A
N K
ov er
ĠnacionÄģl Äģs
ĠÅło brÄ«d
Ġasto ÅĨ
Ġpuss alas
a Å¡u
at Å«ras
an y
Ġin vest
ĠÄ£imnÄģz ijÄģ
ĠM oz
ons o
Ġveik ti
ĠtÅ«kstoÅ¡ iem
Ġfestiv ÄģlÄģ
L A
Ä« Å¡anÄģ
Ġkar i
ib er
Ġzem Äĵm
Ġsadal Ä«ta
Ġiekar oja
ĠOÄ¼ egs
D auga
Å į
ĠR aiÅĨa
ĠÅ¡Ä· Äĵp
ĠkrÄģj ums
Ġ/ /
ĠAf gan
b ar
ã Ĥ
Ġ enc
ĠL uks
Äģj usi
Ġaugst a
ĠmÅ«z ika
ĠLu dzas
ĠM Äģksl
ip t
inÄģt o
Ġnovad u
auj a
ĠmatemÄģt ikas
Äĵt ikas
ĠLatv ijai
Ġ13 0
ĠfebruÄģr a
ĠapakÅ¡ dzimta
ĠMed aÄ¼u
Ġb az
Ġpr iest
ĠGr en
ef ic
Ġnod ib
ĠÄ£im eni
Ġattiec Ä«bÄģ
Ġpla Å¡u
ĠvÄĵrt Ä«bu
Ġkor is
ĠArgent Ä«nas
Ġkomb in
ĠAnat ol
Ġpot enciÄģl
ir as
Ġb Ä«st
ĠKr imas
ĠdalÄ«b nieku
Ġturp inÄģjÄģs
Ġdab Äģ
ĠSerb ijas
Ï ģ
an gl
ĠT ol
Ġap Å¡
ain i
ĠSt ar
ĠDz int
Ġplat Ä«bas
ĠDaÅ¾ i
S c
Ġ Ø
Ġs aÅ¡
en bergs
Ä«v Äģs
Ġau kst
Ats auces
Ñ ĳ
ĠS ev
ad i
iek as
Ġaug uma
Ġindividu ÄģlajÄģ
Ġierind ojÄģs
ĠBost onas
ik la
Ġkon str
ĠturnÄ«r u
ĠSv Äĵt
Ġdeb ijas
ĠÅ«den st
ĠBarsel ona
j e
l ava
ĠÄį Å«
Ġkl Äģta
Ġ190 2
Ġparedz Äĵta
Ġproces Äģ
ĠIndiv idu
Ġtr as
ĠBr onza
Ġviet nieks
aug iem
Ġnodarb ojas
Ġparlam entÄģ
or us
il as
ĠL Ä«g
ĠlÄ«dz Ä«ga
var a
Ġnor aid
Ġsek o
oÅ¡ ajiem
Å«d as
z u
ie tÄģ
Ġiz aug
ĠdaÅ¾ iem
ĠLielbritÄģn ijÄģ
ĠpÄģrtr auca
l andes
ie sts
Ġk aim
Å¡ o
ĠD ec
Ġpr aks
ĠSt at
Ġop eras
E F
d aÄ¼as
os lav
ĠF ern
Ġpl Äģks
Ġprogram mÄģ
Ġoke ÄģnÄģ
Ġkonfer ences
Ġt olaik
of iciÄģl
Ġnodarb ojÄģs
ĠÄ·erm enis
p al
Äĵr u
Ġdarb inieku
Ġgrup Äģm
Ġministr u
ĠÄĢfr ikÄģ
ĠpÄģves ta
Ù ħ
ĠGr eg
iÄį i
eit n
ĠOp en
ĠatmosfÄĵr as
U N
ek u
ĠD el
Äģd s
Ġ189 9
A v
Ġs od
ĠD im
ul pt
Ġsp orts
Ġob lig
Ġsport ists
ĠSez ona
Ġv ij
ĠL ed
Ġliel gabal
194 4
Ġaizvad Ä«jis
Ġiep az
k aidr
Å¾ iem
ĠD ibinÄģ
Ġrok a
Ġem igr
ĠvÄģcbalt ieÅ¡u
a inÄģ
i aliz
Ġj Äģs
uk u
Ġ9 4
Ġrakst Ä«ja
Ġjap ÄģÅĨu
Ġh orizon
ĠvÄģr ti
ĠuniversitÄģ te
Ġtehn oloÄ£ijas
ĠCentr ÄģlÄģ
Ġapmekl Äĵja
ĠÅ¾urnÄģl ists
Å« ka
tr as
ob sl
Ġdaudz iem
ĠnodroÅ¡ inÄģt
ĠmilitÄģr Äģ
entÄģl Äģ
ĠscenÄģr ija
ĠS and
iet e
ĠpriekÅ¡ nieks
Ġmet eor
Ġost as
ĠmÄģjaslap Äģ
Ġr ekl
Ġuz kr
gr ieÄ·u
Ġ3 000
ĠKr im
ĠÐ Ķ
vad u
Ġlauk a
ĠrÅ«p nÄ«ca
Ġatsp oguÄ¼
st erd
Ġdz Äĵr
ĠJ eÄ¼
ĠGr and
Ġizveid ojusies
Ð½ Ð°
Ġkras tu
ĠZviedr ija
Ġtagad ÄĵjÄģs
ĠG aujas
nes e
Ð¸ Ñģ
Ġuztur as
Ġrevol ucion
d ab
Ġiz ol
198 0
ĠZviedr u
Ġef ektÄ«v
ĠVasar a
ĠV Äģc
Ġre organiz
pl an
Ġturp ina
Ġvieglatl Äĵts
Ġtelp Äģs
Ġt autu
id as
Ġg Å«t
Ä«k Å¡u
Ġklub am
main Ä«ts
ĠiekÄģr tu
Ġredakt ors
19 20
Äģt o
Ġaiz vien
Ġperi oda
ĠpriekÅ¡sÄĵd ÄĵtÄģju
Ġm estr
ĠB avÄģr
Ġvir tu
ĠFran Äįu
ĠdibinÄģtÄģj s
Ġrakst i
ĠreÄ£ion os
Ġnen ot
ĠÐ ¼
ĠKom p
ĠjÄģ iz
ĠBul gÄģrijas
in du
Ġd iec
19 19
Ġsav am
Ä«l is
inÄģj umus
Å«s u
Ġpies p
ĠÅ¡Å«n u
ĠiegÄģd ÄģjÄģs
Î ¹
ĠT ek
ĠI eg
Ġgar uma
Äĵz e
Ġmet od
Ġkilometr us
W ar
ĠV ik
Ä· us
Ġnov eda
Ġte orija
Ġsa Ä«s
ĠNacionÄģl ais
Ġlap u
ĠMÅ«sdien u
er tÄģ
Ġl Äģd
ĠS ept
ĠP od
Ġpiek Äģp
Ġlej up
it al
Ġpie auga
oz i
Ġ9 7
Ġcentr i
Ġaugst umÄģ
ĠBul l
Ġpos ma
h an
y a
ĠD ieva
Ð¸ Ð»
ent am
if r
dien u
ĠEr n
ĠkÅĨaz s
ĠIzglÄ«t Ä«bas
Â Ń
Ġsp Ä«d
ĠO S
uÅ¡ ais
Ġligzd oÅ¡anas
ĠÄĢd olfs
ĠVir sl
ĠD ailes
ĠspÄĵlÄĵtÄģj a
Ġaizsar gs
Ġkin of
ĠDienvidsl Äģvijas
. âĢĵ
Ġciem Äģ
Br onza
In formÄģcija
Ġ end
ĠV iest
Ð¾ ÑģÑĤ
ĠDienvid Äģfr
Ġiesaist Ä«jÄģs
ai la
ĠM ind
Ġas p
ĠatseviÅ¡Ä· u
ĠGruz ijas
v Äĵ
Ġt al
an us
Ġm ais
Ġkon ven
Ä«l e
Ġsabiedr Ä«bÄģ
ĠZiemeÄ¼ amerikas
ĠÄ¢ ints
Ġprec Ä«z
Ġlikvid Äĵja
ĠnosÅ«t Ä«ja
Ġbud Å¾
ĠC el
Ġdek or
ĠMarÅ¡ ru
B l
e x
as as
in n
Ġm alas
un Äģ
ent os
Ġmin Äĵts
Ġnoteik tu
Ġelem enti
Ġ Ä«sl
Ġno dal
ĠB j
ĠD is
Ġgal vu
Å«d u
ĠDÅ¾ er
Ġstr au
198 4
Ġstad ionÄģ
Ġteor ijas
Ð ĳ
Ġ ev
Ġv ag
Ġv ertik
Ġ8 9
Ð¾ ÑĤ
Ġal tern
Ġgalvaspils Äĵtas
Ġatgr ieÅ¡anÄģs
ĠRum Äģnijas
ĠD es
Ġvad Ä«ba
ĠK ov
ĠL aur
Ġuzskat Ä«t
Ġfin iÅ¡
Ġpamatskol a
ie Å¡ana
ĠD u
ĠJaun Äģ
stÄģ Å¾u
ĠUniversitÄģ te
ass vÄĵt
ĠmatemÄģti Ä·is
n ei
ĠJ os
Ġ9 3
ĠGr Äģm
ciem i
194 1
ĠpiedzÄ«v oja
N o
Ġd et
ĠAm sterd
Ġ x
im i
ĠI er
emp l
vÄģr ds
ĠKlus Äģ
b iedr
Ġties Ä«bÄģm
Ġvers ijas
Ġapl iec
j o
Ġkr on
Ġh ol
Åł aha
Ġartil Äĵrijas
Ġc its
ĠvÄĵl ÄĵjÄģs
Ġapl enk
Ġguber n
Ġn Äģca
ĠÄ· Äĵd
ved a
Ġsadal Ä«jums
Ġuzbruk a
ld is
ĠseriÄģl Äģ
eirop as
M a
Ġs tÄģj
Ġal k
Ġliet as
Ġav otos
Ġtil ta
A C
ĠK aut
ĠC ity
Ä«s ies
eÅ¡ a
Ġvald nieks
ĠmÄĵÄ£ inÄģja
ĠpriekÅ¡pils Äĵta
z i
st er
ĠH C
ĠSt ep
ĠspÄĵk s
Ġslim Ä«bu
ĠuzsÄģk ta
ĠKrist us
ĠsalÄ«dz inot
ĠPiedal Ä«jies
Ġre aÄ£
Ġh im
Ġpag Äģt
Ġpiemin ekÄ¼i
Ġhokej Äģ
ÐµÐ² Ð¸Ñĩ
Ġ::: *
L N
Ġsp al
ic Ä«l
Ġsv Ä«tr
t ie
gr Äģm
ĠOtr ajÄģ
Ġpietek a
h r
iz Äĵja
ĠL iet
ĠN ozÄ«m
Ġrakstur o
ĠKlub a
Ġkosmon auts
G eor
ĠD in
ers s
ĠAn n
ĠmÄģksl inieku
ĠnepiecieÅ¡ ama
Ġobj ekts
Ġtagad ÄĵjÄģ
Ġnok Ä¼uva
k Äģj
ur is
Äģr ajÄģ
av er
od Äģ
ĠH o
ĠdaÅ¾Äģd a
Ġpak aÄ¼
Ġproduc ents
l ic
atÄ«v u
198 6
ĠV iÅĨas
ef a
s u
in dr
ĠL ind
Ġveid ota
Ðµ Ð¼
Ġskol otÄģjs
aug i
Ġnoteik ta
197 4
Ġneiz dev
Lab Äģkais
Ġst ils
ĠlÄ«n ijÄģ
Ġattiec Ä«gi
Ġpopul Äģcijas
ĠpiedÄģv Äģja
Ġj Äģt
Ġsav rup
Ġjaun atnes
Ä«kst es
ĠVald is
Äĵ ÅĨ
Ġt oreiz
ud mal
Ġtab ula
f as
el tu
Ġpie vÄĵr
ĠdzÄ«v ok
val ds
ĠpÄĵt Ä«jumiem
ĠInd ijÄģ
for mu
ĠÄĵr Ä£
ar o
ĠP ur
Ġiesp aid
ĠapakÅ¡ dzim
Ġbrauc iens
ĠDarb i
Ġpref ekt
h am
r ist
ad o
ĠR ol
Ġz onas
Ġpl Å«st
ĠVal ent
Ġup i
ĠpiedÄģv Äģ
ĠatgÄģd ina
Ġn ereti
Ġga bal
ez n
Ġgalven ie
man u
ĠÄ¶ Ä«m
Ġbar Ä«bu
ĠpazÄ«st am
Dz im
p unk
ĠD ir
ĠpÄģr z
ĠsÄģk ums
ĠGr upu
Ġvald nieku
Ġcit os
Ġ189 5
Ġeksp luat
skÄģb es
Ġpabeig ta
Ġm or
ĠO b
ĠGr upa
Ġmed Ä«
Ġ0 5
Ġsad urs
Ġuzbruk uma
Ġelem entu
ĠpÄģrval de
ad elf
ĠR am
ĠÄįetr u
197 0
ĠHer manis
ĠmÄ«l est
Ġv Äģj
iz a
Ġzem ju
ĠnovÄĵr ot
ĠTÄģd ÄĵÄ¼
ĠIzplat Ä«ba
ĠPremj erl
S ta
S udr
iz Äģcija
ĠS iÅ¾ets
ĠB ieÅ¾i
ĠnozÄ«m i
ĠItÄģl ija
ĠstÄģ st
ĠNov gor
ĠPil n
Ġaps Å«dz
Ġun ik
of t
Ġuzvar ÄĵtÄģju
Ð¸Ñ ħ
ĠvÄĵrt Ä«ba
Ġsap l
ĠmilitÄģr ais
ĠMad onas
ĠEdvar ds
Ġenc iklop
A L
Å¾ Äĵl
ĠG en
O K
Ġs imp
Ġsp ektr
Ġdaudz Äģs
Ġpies l
196 2
K Äģr
Ġn ÄģcÄģs
Ġkr Å«
Ġre Äģl
Ġ0 7
Ġput ns
Ġsvar Ä«g
ÑģÐº Ð°Ñı
ĠfinÄģl turnÄ«r
Ġapbalv ots
Joh n
ĠdiÅ¾kun iga
d auga
ĠT ib
ĠO m
Ġpas Å«t
Å«d es
Ġdz irn
ah u
ĠSt amb
ĠMad rid
is mÄģ
ĠV est
Ġat ver
ved Ä«ba
ĠseÅ¡ as
Ġiemes lu
g us
ti f
oj uÅ¡ies
itÄģ t
Ġpl Äģt
Ġsl Äģp
Ġlik uma
Ġmagn Äĵt
ĠLuks em
Ġtr au
Ġvid Äĵ
ĠdaÅ¾ kÄģrt
eidz ot
h u
Ġk ait
ĠF ebruÄģr
ĠpÄĵt niecÄ«bas
Ġskait lis
Ġasoci Äģcijas
ĠPÄĵter burgas
Ġz vÄĵr
ĠpÄģr bÅ«v
ĠH il
Ġaugst Äģkais
Ġpus l
ĠBul gÄģr
ĠIzviet ojusies
efic ien
l era
an tÄģ
Ġl ieg
ĠV iÅĨu
ĠM o
Ġsimbol s
ĠtÄ«kl u
Ġbir ojs
Äĵ Å¡a
tr Ä«c
Ġdien Äģs
t daÄ¼
u Ä¼i
Ġp op
Ġd ej
ĠK ev
ak o
Ġuz pl
ĠcilvÄĵk us
ĠuzÅĨem ts
Ġfol kl
ĠÄ«sl aic
P Äĵt
Ġl oÄ£
ĠM aj
ĠN esk
az Äģm
me ÅĨi
Ġmuz ejÄģ
Ġbi atl
ĠiepriekÅ¡ ÄĵjÄģ
ĠprofesionÄģl s
ĠTor onto
M et
r ut
Ġie lai
ist us
Ġizm ir
ĠdzÄ«v ot
Ġrad Ä«t
ĠFil e
Ġned r
ĠGl ob
ĠP ed
ĠD abas
ĠI epr
Ġre form
Ġnov irz
Äĵd u
zem e
ĠmÄĵn es
Ġlap Äģ
ĠlÄ«m eni
Ġstaf ete
ĠÄªr ijas
Ä«n Äģm
ĠiekÄ¼ auti
Cel tics
Ren ault
Ġk ant
Å« ku
ĠL as
ator ijÄģ
iest i
ti ÅĨu
ĠN es
ist ikas
Ġsl ik
Ġkontrol Äĵ
ĠRobeÅ¾ ojas
L ar
f ur
Ġsv eÅ¡
ĠSta cijas
ĠJau nie
Ġkompleks s
ionÄģ Ä¼a
Ġpietiek ami
ez ers
ĠLai ka
Ġnoz ar
Ġsavstarp Äĵji
C r
Ä« ÅĨ
ĠP op
tu l
ĠPr ot
ĠPr ov
ĠLai kÄģ
Ġbals u
'' :
ĠS em
Ġst arts
Ġvasar nÄ«cu
Ġac Ä«m
astr ukt
itÄģ cijas
niec es
Ġvirz iena
Ġtek st
ĠÄĢz ijÄģ
Ġsapul ces
ĠAlÅ«ks nes
I P
ĠF er
Ä£ a
Ġkr itu
ĠpÄģrstÄģv jiem
ĠÅ¡Ä·ir nes
e gu
Ġs ens
oj u
Ġsiev u
Ġtren era
Ġprosp ekts
Ġl Äĵc
ĠA us
ĠK las
ĠM uh
Ġsek ojoÅ¡
198 7
ĠÅ¾urn Äģla
Ġnotik umi
Z iem
m on
n av
ec as
ĠPr iek
Ġnosauk umi
Ġsingl u
et n
Ġsk an
ĠuzÅĨÄĵm Äĵjs
Ġdzies mÄģm
E ur
Ġpar kÄģ
Ġgu vis
ĠdÄĵv Äĵ
ĠÄĴÄ£ip tes
ĠsekretÄģ rs
ĠkaravÄ«r i
m Äģju
Ġp ens
ĠP ag
Ġpil ots
Ġatjaun ota
ĠMet al
Ġsmil Å¡
Ġm ij
ĠW illi
ĠÄ£en Äĵt
as ts
ĠM Äģjas
ĠD etro
ĠpÄģr st
ĠSp ec
lÄĵk Å¡ana
ĠFutbol a
Ġs emin
ĠC Ä«r
ĠvÄĵstur nieks
ĠGalven ais
ĠizcÄ« ÅĨÄģ
B lack
V ien
as tu
Ġlid osta
ĠtreÅ¡ ajÄģ
Ġprakt iski
Ġat d
te in
Ð° Ð¹
Ġfr agm
ĠCentr ÄģlÄģs
ĠGeor g
S ch
ik ul
ĠZ vaigz
ier iem
Ġ12 5
Ġkap i
kop Ä«bas
Ġkilometr u
ĠNÄģkam ajÄģ
Ġd Äģv
ĠF erdin
veid Ä«go
Ġko eficien
ĠmÅ«z iÄ·i
Ġ189 8
Ġsauc a
Ġredz ams
ar tu
ĠÐ ŀ
ĠÄ· ieÄ£
Ġmilj onu
Ġspie sts
raudz Ä«bas
ĠDob eles
ĠT il
ev u
nes es
niec Ä«bai
Ġmaz Äģks
Ġdat us
ĠreÄ£ion u
ĠpalÄ«dz Äĵja
ĠMaks im
E C
L ai
M ed
v Äģm
Ġd a
en gu
oj am
Ġz Äģles
inÄģ tÄģ
Ġgar u
Ġkol ektÄ«v
ĠJÄĵk aba
ĠimpÄĵr iju
ĠBos n
V ec
k nÄģb
es tra
ĠD o
Ġkar st
ĠC or
iÄģl i
Ġbiznes a
h o
Ġiz j
Äģv i
ĠnÄģv ei
Ġap sar
it ija
Ġaug i
Ġuzvar a
ĠLiep Äģja
Ġseg m
itÄģl ijs
ĠIes pÄĵjams
' t
in ska
ĠB as
ov an
ĠLiel Äģs
ied arb
Ġorb Ä«tas
ĠpolÄģrstac ijas
ĠTran sp
F errari
f ran
ĠN Äģciju
Ġsk ulpt
197 8
Ġnogal inÄģja
ĠdziedÄģtÄģj i
Ġapspalv ojums
ĠVieglatl Äĵtika
ub il
Ġ7 00
olo gi
Ġatkl ÄģÅ¡anas
ĠatÅ¡Ä·ir Ä«bÄģ
ĠJÅ«r malas
aun s
Ġas ist
ĠVÄĵstur es
198 2
ĠSta ÅĨ
Ġid ejas
Ġsadarb Ä«bÄģ
Ġmez gl
Ġiz skaidr
Ġdz ejas
ĠpÄģr ÄĵjÄģs
Ġrok Äģs
ĠsociÄģl o
Ġfilm ai
ĠproblÄĵm u
eniek s
ĠAizsar dzÄ«bas
Äģ Å¡anai
ĠG ir
ĠFil adelf
Ġglez na
Ġagr es
ĠtÅ«r isma
Ġstand arta
Äĵt iem
Ġties a
Ġ189 0
Ġmazu Ä¼i
Ð»Ðµ ÐºÑģ
ĠK ausa
oj umos
ej evs
and er
Ġgr un
ĠdibinÄģ Å¡anas
ĠTÄģp Äĵc
ĠieÅĨem t
Ġast ero
L iep
enc a
Ġlid ojumu
ĠKaz im
i Ä¼a
Ġb oÄ¼Å¡ev
Ġst iep
Å«d eÅĨ
ĠÄ· ir
ĠkuÄ£ iem
197 2
Ġman ev
Ġrun Äģ
Ġuzbr Å«k
Ġtop Äģ
L u
Ġs oda
ĠP iek
ak ar
ĠlÄ«dz Ä«gs
Ġkaln os
Ġkan Äģls
Ġkan Äģla
M S
n Äģc
ie dza
ĠR ei
aj evs
od is
Ġgar as
Ġm Äģr
Ġgr oz
ent as
Ġaut ori
Ġdraudz e
ĠReg ul
o Ä·
Ġ ÑĤ
ar g
er us
ec u
ĠpÄĵd ÄĵjÄģs
ĠmÄĵn eÅ¡u
Ġatgriez ties
Ġnomin Äĵta
ĠR Å«p
ĠlÄ« k
ĠÅł r
ĠBr and
Ġaug iem
ÄĵÅ¡an os
Ġkat rs
ĠnodroÅ¡ inÄģja
Ġspec ializ
ĠKaral istÄĵ
SA T
ĠDaudz i
ĠIepr iekÅ¡
Ġk vadr
on iju
iv er
Ðµ Ð¹
Ġgalven ajiem
Ġnogal Äĵ
ĠMa Ä·ed
ĠLatgal Äĵ
l Äģ
Ġvid Äĵjais
ĠSavien Ä«ba
ĠD ep
Ġ3 16
la Å¡u
ig as
ĠmeÅ¾ i
Ġcelt niecÄ«bas
Ġstrukt Å«ra
Ġzvaigz nes
ĠSez onas
Äģ Ä¼a
Ġk up
Ġd Å«
ĠS ilv
Ġkr u
Ġaug sts
ĠdaÄ¼ Äģm
ĠpÄĵd Äĵjos
ĠEz era
ot t
ĠL ÄģÄįpl
od uk
Ġnod aÄ¼Äģ
ĠvÄĵstur iski
Ġrom ant
ĠLu iss
Ġsh ift
Äģr iem
val ific
ĠnacionÄģl o
: (
Ð Ķ
Äģl ijas
Ä«j uÅ¡ies
ĠJ Äģz
ĠÄĮ etr
ĠPirm ie
ĠattÄĵl u
ĠEk sp
ĠbibliotÄĵk as
Ġs fÄĵr
isk ajai
Ġfon da
Ġkult Å«ru
Ġpolit iku
198 3
Ġparedz Äĵja
ĠatkÄģp Äģs
w ard
ag Äģ
ĠÅł v
Ġh al
og n
atÄ«v as
ĠIntern ational
iÅĨ ai
iÄģl Äģs
pl e
Äĵv s
Ġsak Äģva
z in
ĠK ost
Äį enko
Ġdiv reiz
ĠIz slÄĵgÅ¡anas
ĠZem e
Ġad vok
ĠJÅ«l ijs
Ġapkai mes
ĠM en
ieÅ¡ a
Ġjaun ais
Ġid eju
Ġpiel Äģg
ĠPoloc kas
C P
P irm
g Äģzes
ĠP ast
Ġr emon
Ġtirg Å«
ĠPap ild
ĠKonstant Ä«ns
ĠIman ts
Ġizsl ud
in ta
tr op
ĠB undes
Ġdz iedz
ab iedr
eg ov
Ġposm os
H z
Ġb ak
Ġr Ä«ta
od Äĵ
ĠDÅ¾ en
Äģz ijÄģ
ĠPol ija
ĠFeder Äģcijas
ĠKaliforn ijas
Ð ¢
ĠK urs
ant o
oloÄ£ iskÄģs
ĠiekÄ¼ ÄģvÄģs
Ġapmet Äģs
ĠVidus jÅ«ras
eirop Äģ
Ġuguns gr
ĠÄ· Ä«nieÅ¡u
le y
ĠVÄ«r ieÅ¡u
ĠDr Ä«z
ĠAnt ons
ĠbÄ«skap u
ei f
Ġpas t
ekt oru
ĠLiel o
Ġsac er
ĠnovÄĵr ota
ĠmilitÄģr Äģs
Ġkod ol
X X
Z elts
Ġn aba
al es
ĠP aula
Ġvis pirms
Ġnev ien
Ġneliel as
ĠÄ£int Ä«
ĠpilsÄĵt ai
âĢ¢ '''
n et
Ġs ienas
ĠGr oup
Ġd oties
Ġga ita
ĠM iera
ĠT u
Ġj Äģn
ĠH im
Ġgr iez
ub e
vien Ä«bas
ih u
ĠFran ciju
Ġob s
ĠdziedÄģtÄģj s
Ġrepubl ika
Ġlielmeist ars
Ġkukai ÅĨiem
Ġp Ä¼
ĠÅ¡ Äģv
Ġrad ies
ĠTa gad
aukÄģz a
Ã Ł
ĠK et
ĠL ife
ĠE li
Ä«z ijÄģ
bol s
vÄģr du
I N
Ì ģ
Ġno b
ĠT ik
iti on
ĠspÄĵk a
Ä«tÄģ k
ĠAk t
Ã¡ n
ĠFinÄģl s
Ġpopular itÄģti
s i
in da
or Äģ
Ġno st
Ġr as
ĠVal kas
Ġkrust ne
Ġtemperat Å«ru
ĠBl au
ĠHar ijs
Ġlaikrakst a
Ġz ona
ul f
Ä«ta jÄģ
ĠlielÄģk ie
Ġab Äģm
Äģves ts
Ġsvar a
osp ort
Ġtrolejb usi
ĠbrÄģ Ä¼i
ĠDmitr ijs
v ins
Äģ Å¡
ĠL imb
ĠB arb
ĠD ay
Äĵn ija
ogr ess
Ġkaral istes
ĠSavien Ä«bÄģ
ĠtÄ«kl s
ĠReiz Äĵm
Ġr ak
ep a
Ġpirm sÄģk
Ġvis os
ĠBr a
Ġmed aÄ¼a
ĠlielÄģk ajÄģ
ĠUn ited
enh of
pol it
ĠPÄ«t ers
r is
v an
or es
ĠP ort
ĠU ldis
Ġapr Å«p
Ġgar umu
ĠadministratÄ«v o
g uns
p el
os Äĵ
un gas
Ġviet ÄĵjÄģ
ĠFr en
" ''
Ġteritor ijÄģs
Ġreiz e
ĠAp akÅ¡
ĠZiem assvÄĵt
Ġieg Å«tu
ĠnÄģk amo
Ġpam et
ĠHam ilt
Ġkinoakt ieri
Ä« Å¡i
ĠS ankt
ĠB ir
ĠR omÄģ
Ġ''' âĢ¢'''
Ġz onÄģ
ĠE p
ĠattÄ«st Äģs
197 5
Ġkonc ep
Ġsaglab Äģja
Ġbeidz is
h i
m us
Ġv aÄ¼
ot Ä«ba
ec a
Ġkl av
ĠEn d
ĠTo ur
Ġeks ist
ĠbulvÄģr is
A c
y e
Ġ eva
ĠdaÅ¾ reiz
if s
196 4
ĠDaÅ¾ as
Ġatbil stoÅ¡i
B ru
on ovs
ĠS icÄ«l
ĠÄģr lietu
ĠAustr oun
Ġsak Äģrt
ĠLietu va
Ġslep kav
ĠP oz
ĠB ibli
ĠBal k
Ġav ots
Latv ieÅ¡u
Ġizte iks
Ġkalp oja
ĠSig uldas
ĠVoldem Äģrs
Ġno daÄ¼u
bol a
irop as
Ġkaln i
197 6
Ġfot ogrÄģf
Ġtramv aju
H y
H er
Ġt est
om o
ĠVal stu
ĠattÄ«st Ä«jÄģs
Ġop t
Ġkontrol es
Ġd Äĵl
Ġd Äĵlu
ĠÅ¡ ajÄģs
andr a
194 5
ĠSta cija
ĠPet ers
ĠnodibinÄģ ta
ĠKasp ars
t era
ĠL PSR
Ġpar ametr
Ġc uk
uÅ¡ Äģ
ma ÅĨi
193 7
Ġsadarb Ä«bas
ĠVents pilÄ«
K n
ĠL am
os u
ei ta
Ġdaudz viet
Ġlatv iski
Ġzemes trÄ«c
ĠplÄģn ots
Ġkatr am
Ġgr av
ĠBal vu
Ġvirs mu
Ġmat r
ĠAndr eja
ĠlidmaÅ¡ Ä«nas
Ġneizdev Äģs
Äĵj umos
ĠG B
Ä£ Äĵrb
Ġne il
ow iat
Ġbalst Ä«ta
Ġdiplom Äģt
' ),
r Ä«
jÄģ ÅĨa
Ġatz Ä«ta
Ð³ Ð°
Ġapstipr inÄģts
ĠdÄģrz s
l en
o ok
Ġm ier
ĠV II
ĠKr iss
andr s
Ġbeig Å¡anas
Ġmod el
Ġilg i
Ġbat er
Ġac is
ĠApvien otajÄģ
Ġkrist iet
ĠlÄ«d eri
Ġiero Äįu
Äģr ÅĨ
ĠZ ob
Ġaiz mainÄ«ts
Ġmet ode
Ġd ump
Ä¼ auj
Ġsas kar
inÄģ Å¡anÄģ
Ġpal ai
dien a
ĠbÅ«v es
Ġuzst ÄģjÄģs
Ġs it
ĠS yst
Ġkl Ä«n
ĠFran k
ĠÄ» ub
Kr iev
Ġkandid Äģtu
Ġapt ver
Ġspiedien a
ĠV es
ak ti
ĠpÄģr deva
Ġnoz ares
ĠHorvÄģt ijas
h ana
em e
Ġkr Äģt
Ä«z a
Ġvec umu
ĠMar tin
Ġnosl Äĵp
ĠLielbritÄģn ija
valst is
Ġpedag oÄ£
T or
Ä ¢
ur gas
ĠS eriÄģl
ĠM ah
Ä£ e
Ð° Ð²
Ġier Äĵd
ĠSal dus
Ġinfr astrukt
M el
T M
ed Å¾
iv a
ĠAr Äģb
ing v
ver p
Ġhip ot
b Å«t
Ġv ik
Ġt au
ĠÅł l
ĠSp Äģnija
ĠâĢ ł
ĠTr ans
Ġuzbruk ums
ĠÅ«denst ilp
o Ä¼i
av i
Ġliet oja
ĠMih aels
Ġautoc eÄ¼Å¡
Äģ dz
il n
Äį empion
gan a
Ġmir usi
ĠspÄĵk us
ĠcÄ« ÅĨÄģs
Ġtitu ls
ĠievÄĵroj am
Ġnevar Äĵja
Ġpietek as
a ins
ĠV ils
Ä«t ei
Å«r ijas
ĠJaun ais
Ġciet okÅ¡
ĠLab ÄģkÄģ
Ġkriev i
Å« ts
ĠÄįempion es
eb s
Ġsl Ä«p
ieÅ¡ us
ch en
Ġ187 0
isc he
Ġjur ists
Ġr ev
ĠN iks
ĠC it
Ġ5 000
Ġgl iem
ĠDaugav grÄ«vas
Ġeva ÅĨÄ£Äĵl
% ),
s av
Ġun gÄģru
ĠL Ä«ga
ĠV irz
ĠN ez
198 5
ĠvÄ«r ieÅ¡i
Ġattiec Ä«bu
197 3
Ġpies pie
Ġ188 5
ĠCentr a
Ġzv ej
rom ieÅ¡u
aiÅĨ Äģm
ĠG ran
ĠlielÄģk ajiem
ĠW indows
Äĵz i
Ġteor iju
ĠK and
ĠL ad
ion u
kr auk
Ġpiec i
Ġfunk ciju
Ġm un
ĠV itÄģlijs
auk ts
itÄģ ru
Ġpl ank
auj Äģ
ĠcilvÄĵk am
ĠpÄģrstÄģv Äĵta
197 7
Ġsudr ab
Ġe irop
ĠkÄģj Äģm
ĠskaÅĨ darb
ĠL it
ic al
19 28
ĠOr ganiz
ĠzÄ«m e
ĠizcÄ« ÅĨas
Ï Ħ
at oties
Ġc ar
Ġaprakst s
Ġmal Äģ
Ġizskat Äģs
ĠizpÄĵt es
ĠierÄ«c es
Ġparas tais
ĠÐ½ Ð°
ĠMedic Ä«nas
Ġga la
Ġm Äĵs
id o
ed ia
ĠH idr
ĠC an
Ġ18 0
ne Å¡a
Ġal g
ĠSal Ä«dz
Ġilg stoÅ¡
Ġs ark
ĠS ep
ti p
Ġg ult
ĠLiel vÄģr
Ġde ta
S en
ĠM ot
ĠpÄģr strÄģd
ĠInd on
ĠDan iels
K ings
o x
is ijas
ot ni
Ġpas uga
ĠÄį ehu
Ġpa Äģtr
197 9
Ġpam azÄģm
ĠÄ£imnÄģz ijas
Ġnaud u
Ġukr aiÅĨu
Ġt Ä«Ä£
al g
om en
ĠÄ«p aÅ¡u
ĠattÄĵl o
ĠAb d
ĠSÄģk ot
ĠbÄģz e
Ġdiev n
en dr
ez u
Ġpamat u
ĠAnt verp
J u
Ġc ieÅ¡i
gr ess
Ġkomand Äģm
Ġsadal Ä«ja
kr it
Ġkin ostud
ĠDzies mas
Ġdeg vielas
Ġastr on
ĠP iet
Ġ10 1
Ġkl Äģj
Ġsl ieÅ¾u
aud as
ĠÄ¼ aun
Ġpart ijÄģ
Ġgais Äģ
C ap
au b
Ġd ig
Å« Å¾
Äģr ta
ĠR ost
Ġkr ed
ĠlielÄģk i
Ġsport istu
Ġtrad Ä«cijas
ĠNikol aja
ĠLei p
Ġprop or
. â
R ock
l at
ĠK aÄ¼
Ġap droÅ¡
Ġbal ts
ĠsastÄģv Äĵja
ĠÄ«paÅ¡ umu
Å Ł
iÅĨ os
Ġatr is
ÅĨÄĵm ums
193 6
Ġkalp o
Can ad
ĠRÅ« j
Å« tais
Ġno deva
ĠS ap
un u
ÑĢ Ñĥ
Ġvalod Äģm
Ġfilm Äģm
Ġterm iÅĨÅ¡
Ġatgr ieÅ¾as
ĠPlesk avas
D on
R T
n ot
Ã ¬
Ġs ir
st ot
ĠA B
Ġuz r
Ġc ilv
ĠF j
iÄģl o
pils Äĵta
Ġmilj ard
ĠSta d
Ġkonta k
D S
P N
R aksts
S an
n ing
y g
Ã §
an ova
ĠS ah
ĠG oda
ĠlÄ« cis
Ġgr an
Ġtik pat
Ġmin Å«t
Ġprogram m
Ġbatalj onu
Ap ollo
ĠPolit iskÄģ
C ar
an tes
in Å¡u
Ġb akt
ĠL il
ĠB il
it am
Ġkr ita
ĠC iti
Ġmetr iem
Ġbij usÄ«
ĠMin skas
Ġtehn ikas
ĠSku j
l im
tr u
Ġgadsim tam
ĠPaÅ¡ reiz
ĠSkot ijas
, -
à ¦
ab il
Ġpie zÄ«mes
Ġsl avas
ĠAt kl
Ġ189 3
Ġpers onu
Ġp atv
iel a
inÄģt Äģs
Ġvad Ä«bu
ĠBal d
Ġkol ÄĵÄ£
ĠpieÅ¡Ä· Ä«r
ĠDom in
ĠMeh iko
ĠKrista ps
y d
Ġ âĢĶ
ot Äģm
ĠJ ul
ĠdaÅ¾ u
stÄģv u
Ġlid ojums
Ġw ith
ĠPers on
ĠVÄĵ tra
Ġkarad arb
P a
am Ä«bas
il Äģ
ĠB ill
Äģl am
Äģl us
et us
ĠN et
ĠE t
ov skas
Ä«d iem
Ġdat oru
198 1
Ġsamaz inÄģs
Ġnop irka
ĠKrust pils
ĠsÄĵk l
Ġoks id
at Å«ra
og as
Ġkaral iste
Ġorganiz Äĵja
Ġ189 4
Ġstrukt Å«ras
ĠKriÅ¡ jÄģÅĨa
ĠO la
uÅ¡ a
Ġt h
ĠpÄģr ÅĨem
ĠmÄģj Äģm
ĠaugÅ¡ ÄĵjÄģ
Ġmij iedarb
k oda
ĠV iÅ¡
ĠV Ä«nes
Ġf as
Ġbr Äģl
Ġvis lab
ĠGr Ä«n
ĠGr ob
Ġjaun Äģkais
Ġkat ed
ĠTr en
ĠtÄģd Äģ
Ġklas e
Ġ188 0
ĠMaz Äģ
fil ma
ĠTeod ors
u da
Ġat dz
Ġsp ilg
Ġkr avu
Ġkom Äĵdija
ĠGulb enes
ĠHelsin ki
k urs
tu ves
19 22
196 8
Ġnol ikta
Ġkvalific ÄĵjÄģs
ĠBud ap
19 24
Ġlaik iem
Ġaugst Äģk
Ġdom Äĵ
Ġkosm isko
ĠÄįetr Äģm
ĠÄ£e ogrÄģfija
Ã¤ r
Ġapbalv otie
ĠÅłveic Äĵ
Ġplan Äĵtas
c k
iz glÄ«t
ĠB K
Äģn o
Å«st ot
ĠstÄģ sta
i or
Ġd amb
ĠR ok
Ðµ Ð´
Ġpies pr
196 9
Ġ188 1
Ġaizvad ot
for ma
Ġdraf tÄģ
Ġnedr Ä«kst
ĠS ant
ĠK ast
ĠV Äĵst
ĠT aur
Ġaut or
ĠrobeÅ¾ Äģs
197 1
ties Ä«bu
vil i
Ġvak arÄģ
raÅ¾ a
ĠStÄ«v ens
on im
ĠK Ä¼
Ġat lai
ĠF e
19 30
ĠPr ess
Ġ0 3
ĠattÄ«st Ä«bÄģ
Ġilg ums
ĠRÄĵzek nÄĵ
tec Äĵ
Sudr abs
ĠR ep
Ġliel Äģs
Ð¾Ð º
Ġek str
ĠzÄ«m es
ĠpÄģrs niedz
ĠFinÄģl isti
Ġrekon struk
c u
ĠL SD
ĠR aj
'') ;
Ġgais s
Ġpolit iskÄģ
ang Ä¼u
Ġpies ÄģrÅĨ
Ġiedal a
ĠÅ¡Ä·ir a
Ġfilozof ijas
ĠcÄ«n Ä«jÄģs
ĠNapole ona
Ġ ÑĢÐ°
Ġp ortu
au Å¡ana
Ġkl aus
ĠPr ei
aid as
ĠUz vedÄ«ba
Ġnotik umiem
b et
Ð Ľ
Ġdaudz us
uc k
ĠIr Äģnas
Ð»Ð° Ð²
Ġtelp Äģ
ĠsacÄ«kst es
ĠAzerbaidÅ¾ Äģnas
jon Äį
Äģ Å¾as
Ġt ajÄģs
on ijÄģ
ĠS um
ĠD eniss
ĠÐ ¤
ĠlielÄģk as
Äģtr a
ĠapstÄģk Ä¼i
ĠAiv ars
Ġpaaudz es
ir b
Ġga id
Ġz Äģl
Ä£ u
Ġtik usi
ĠAr v
Ġnoteik ts
Ġ186 0
ĠUkr ainÄģ
ĠValdem Äģra
ĠSeb asti
Ġrefer end
ĠBibli ogrÄģfija
Ġ iv
Ġs eksu
ĠP urv
ĠT MA
Ġpr ok
ild es
Ġcit ur
ĠpastÄģv ÄĵÅ¡anas
ĠMon gol
195 6
ĠRaim onds
ĠMadon na
ĠNesk atoties
Ġno dev
ĠV ers
Ġor an
Ġas s
Ġsabiedr Ä«ba
Ġpul kst
Ġrel j
Ġsapul c
Ġsapr ot
Ġogl ekÄ¼a
N av
Ġ ista
Ġv eÄ£
Ġd ÄģÅĨu
ĠR on
Å«r ai
Ġg Äģr
Ġtr iec
Ä«r ijÄģ
Ġbr Ä«
og o
Ġsek undes
isl ava
Ġsev Ä«
Ġat skaÅĨ
ic ros
Ġkar b
ĠKr Å«m
og Äģ
Ġkreis Äģs
Ġstun du
Ġev aku
Å¡ Äģ
ĠM S
ĠR oss
Ñĥ ÑĢ
Ġkonf eder
ĠaizstÄģv Äĵja
ĠdiriÄ£ ents
ĠJug las
B ar
ĠR ac
Ġ189 2
ĠbrÄ«v i
ĠTel ev
ĠRen ault
Ġt aur
st Å«ra
Ġpr etr
ut h
ĠmuiÅ¾ Äģ
Å«k stes
atÄ«v Äģs
ĠsastÄģ va
ar iem
dz ies
ĠL ar
ĠD ok
ĠN ol
Ġre tÄģk
Ġlaik am
aÅ¡ i
ogr aph
Ġuzvar ÄĵtÄģjs
Ġpamat ojoties
Ġizplat Ä«ta
Ġslim nÄ«cas
darb Ä«bas
ĠJelga va
ĠplaÅ¡ Äģk
Ġner vu
F l
is lav
st ies
ĠP ot
ej Äģm
Ġre it
Äĵk Å¡
oloÄ£ iski
Ġotr as
tic a
Ġsm ar
Ġskr Äĵj
pu tes
ĠmaÄ£istr a
v Äģcu
ĠK ob
id es
ĠbÅ«t iski
ĠZem i
Ġglez nas
ĠiestÄģd e
d aÅ¾
p ak
Ġm ai
ĠP re
ĠR ot
ĠH of
Ġne aiz
Ġvalst ij
193 1
Ġ188 9
ĠpaÅ¡vald Ä«ba
Ġpac ien
ĠCiem s
ĠHerc egov
Ġgald iÅĨa
B L
U r
l endas
m etr
en br
ĠS au
ain Äģs
Ġpiem Äĵrs
ĠnovÄĵr ots
ĠmarÅ¡ru tu
ĠÄĮehoslovÄģk ijas
à ¸
ĠP am
ĠL av
ĠR ai
Ġz Äģle
ĠdaÅ¾ us
Ġtel es
Ġsen o
Ġsaist Ä«bÄģ
Ġpurv s
K osmos
b ek
an nes
Ġn eÄ¼
ik e
Ġat ÅĨem
audz is
Ġ0 8
man i
Ġies vÄĵt
Ġskat Ä«tÄģju
ĠstÄģvok lis
d Äģs
d eg
ĠR ek
Äģn am
and u
Ġkr Å«m
ĠÅł Å«
Ġnes pÄĵj
Ġkaral iene
ĠtÄĵv iÅĨiem
Ġpublic Äĵts
ha w
Ġprovinc Äĵ
ĠPh jonÄį
bo ard
G l
ĠV Ä«n
Ġj ubil
Ġvien oÅ¡anÄģs
Ġpl kst
Ġ186 6
i Ä¼u
m Äĵram
ĠV els
Ġf irm
az z
aud is
Ġgadsim tu
ĠmÄģt Ä«tÄĵm
194 9
Ġlap Äģm
ĠsociÄģl Äģs
Ġneiz Å¡Ä·ir
m Äĵ
Äģr ais
ĠR af
Ġkop Ä«gi
ĠAustr umos
196 0
ĠbijuÅ¡ as
ĠS ub
ĠL Å«
eÄ¼ us
ĠvÄĵl as
ĠSt end
Ġpart n
ĠmateriÄģl i
ie tÄģm
at orija
ĠD eg
ĠÅł arl
ig or
Ðº Ð¾Ð²
Ġsarakst i
Ġmain Äģs
ĠmarÅ¡ rut
skÄģb e
ĠElizab ete
H ar
Ø ±
Ġm and
ĠK Äģp
it z
ĠZ h
Ġst umbr
Ġvid Äĵjo
dien Äģs
vil c
j at
Î »
Ġp eÄ¼
ĠK ul
ov am
ĠdaÅ¾ Äģm
Ġmaz a
ied umu
Ġrom Äģnu
ĠBor iss
Ġl Äģ
Ġm ig
ĠS ek
ĠP ad
ĠK in
Ä£ i
ĠO ne
ĠU CI
Ġpil oti
ĠSav Äģ
ĠrezultÄģ tus
Ġatp Å«tas
Ġasoci Äģcija
Ġsavv aÄ¼Äģ
ĠÄĮÄģrl zs
L at
ga du
Ġno gÄģz
ĠL im
Äģt am
Äģta is
pus es
196 7
m Å«z
ĠD ek
ĠlÄ«dz i
Ġsav Äģs
tur ku
ver t
Ġturp inÄģs
Ġgu v
ĠpanÄģk umu
ĠMeks ikas
ĠAbr enes
a el
k an
ĠKr on
Ġdr Äģma
Ð¾Ð ¿
Ġnol Å«k
ĠpakÄģp e
Ã¼ n
Ġost a
Ġm Ä«kst
Ġliel us
Ġgadsim ts
ĠFr ans
ĠSl okas
istÄģ nÄģ
ĠuzvÄģr du
ĠCl ub
A b
Ġga itas
Ġpl Äģns
Ġgar Ä«dz
Ġko al
Ġned ÄĵÄ¼u
Ġelem ents
Ġtil tu
Ġparal Äĵli
D ie
r of
ĠH a
Å«r Äģm
ĠSp ace
Ġrakst a
inÄģj umiem
ĠÅ¡Ä· iedr
ĠuzÅĨÄĵm umÄģ
Ġizr audz
ĠAb i
Ġcil mes
Ġdisk us
Ġobs erv
R S
k ina
ar ia
uÅ¡ s
Ġvid ÄĵjÄģs
Ġgar i
ĠStr ad
und as
tek us
Ġnomin Äĵts
Ġpremjerministr s
d ir
Ã ¥
ĠS ievieÅ¡u
ĠraÅ¾ oÅ¡anu
d om
an iÅĨu
Ġkar ogu
Ġbei gu
gor it
al st
Ġst ikla
Ġpiec u
Ġimperat oru
Ġsasl im
ĠLÄģÄįpl ÄĵÅ¡a
ĠBudap eÅ¡
ĠD aÄ¼a
Äģm Äģ
Ðµ Ð»ÑĮ
Ġizmant oÅ¡ana
ĠpalÄ«dz Ä«bas
Ġnoris inÄģs
ĠMel bur
Äĵn Äģs
Ġpa ÅĨÄĵm
ied es
ĠÅ¡Ä· Äĵr
Ġplat formas
ĠrÅ«p nÄ«cas
ĠnodroÅ¡ inÄģtu
ĠUl maÅĨa
Ġeks empl
Ġvojevod istes
ĠRih ards
ĠA gl
ĠpÄģr iet
Ġarm ÄĵÅĨu
196 6
zem i
Ġnez inÄģm
Ġsabr uk
S up
Ġ eg
ĠS M
ĠV iÅĨam
Ġat sl
Ġlab Äģkajiem
ĠKar ol
Ġizl Å«k
ĠAd ministr
d ots
m b
Ġ az
Ġno ma
ĠC SKA
ĠÄĢr lietu
he im
eks s
ĠX V
ĠesoÅ¡ Äģs
emokr Äģtu
ĠpÄģrdÄĵv Äĵta
Ġpriek Å¡u
m aks
Ġk ora
Ġn ama
al t
ĠM iÅ¡
Ġc ieÅ¡
aiz iv
ast as
ĠRakst ur
Lab ÄģkÄģ
ĠziemeÄ¼riet umu
Ġkorpus a
ĠriteÅĨbrauk Å¡anas
ai lu
ot ajÄģm
it is
ok Äģ
Ð° Ñģ
Ġ188 2
Ġaizvad a
ĠÄ£e ometr
ĠapzÄ«m Äĵjums
ĠAugu sta
iz Äģciju
ĠV o
Ġiz slÄĵg
ĠB ot
oj uÅ¡Äģs
ĠD ist
op i
Ġz iÅĨu
19 50
ĠviÅĨ us
ost Äģ
ĠTall inÄģ
ĠÄģrzem ju
ĠSten lija
Lar en
L in
M on
k v
l an
Ġ o
Ġk av
ĠI elas
ĠO d
Ġ189 1
ĠÄ» oti
Ġatm iÅĨas
ĠuzbÅ«v Äĵja
ĠArn olds
Äģ Ä¼i
ĠB ek
ok Ä¼u
ion i
ĠFil mÄģ
Ġizdev ums
ĠKrist of
Ġcelt niecÄ«ba
Ġkonkurs s
Ġtek stu
ĠsaglabÄģj usies
R ad
n y
u Äģ
oz Äģ
Ġliterat Å«ra
A ut
Q u
dz ied
ek ul
ej ai
ma h
ĠMat Ä«s
Ġkreis Äģ
ĠHenr ijs
Ġk aÄ¼
ĠS ud
ĠB a
ĠD ol
ĠG P
19 17
ĠvÄģc ieÅ¡i
Ġav oti
ĠapriÅĨ Ä·i
ĠSar akst
Ġnum urs
Ġs Äģls
em ts
ĠB ah
19 21
and as
ĠziemeÄ¼ austrumu
Ġbasketbol isti
Ġuzbruc Äĵja
A s
Ġb oks
Ġaugu stam
ĠÄįetr us
Ġsaist Ä«tas
Ð°Ð½ Ð´
ĠSe ula
Ġkinor eÅ¾isors
ĠV e
ĠH ip
ĠlÄ«dz ekÄ¼u
aÅ¡ a
ut e
Ġsta b
Ġsmag i
R O
v el
Äģ Å¾u
isk ajam
Ä«g ÄģkÄģ
Ġbal tas
Ġpasaul i
Ġparlam ents
Ġizst ÄģjÄģs
ĠArtur s
ie du
Ġl Ä«b
ĠJ Å«n
Ġ188 8
Ã© r
ĠX X
Ġnotik umu
ĠD NS
ĠW ar
ĠdalÄ«b niekiem
Ġ187 6
Ġbasketbol Äģ
Ã¤ n
Ġfron tÄĵ
Ġaizsardz Ä«bu
ĠÄ·erm eni
Ġbase ina
m Å«zikas
ik am
Ġc ir
ĠJ um
ĠlÄ«dz Ä«gas
ĠC Ä«ÅĨas
oz as
Ġpus Äĵm
Ġpus muiÅ¾a
195 8
Ġspr ieg
ĠzinÄģtn isko
ĠmarÅ¡ru tÄģ
ice Äįempion
ĠLid ojuma
Ġvilc ienu
E x
s as
Å Ħ
Ġd oc
Ġno spÄĵl
Ġuz z
Ġg var
Ġal us
Ġziem o
oloÄ£ iskie
Ġan gl
kal pe
ĠPÄģr dauga
Ġsingl i
Ġceremon ijÄģ
Ġu l
Ġn amu
id i
ĠI ec
19 29
atÄ«v a
Ġbrauc ienÄģ
ĠpÄģrviet ojas
Ġfakt iski
ĠLudv igs
F or
e w
am os
Ġno gr
ok omot
Ġtr oÅĨa
Ġsl ov
ĠlielÄģk ajÄģm
Ġab iem
Ġsavien Ä«bu
Ġtel pu
Ġilg gad
ĠattÄĵl a
ĠQ u
ĠDetro itas
L C
v ietu
ac Ä«kstes
Ġpolit ika
ĠOr b
ĠsaglabÄģj uÅ¡Äģs
ĠsaÅĨÄĵm usi
ĠVen Äĵc
m Äģc
ot ajÄģs
ĠS on
ap p
os ip
ĠlÄ«dz ekÄ¼iem
ip a
Ġpas ta
stÄģ Å¡anÄģs
Ġdzin Äĵju
ĠDzelz s
ĠUnivers ity
an gs
ĠS avas
eg ul
ĠmÅ« Å¾
Ġsimbol u
ĠpÄĵc nÄģc
Ġvald Ä«bÄģ
ĠZiemeÄ¼ Äģfr
ĠVit eb
Ù Ĭ
gr Äģv
Ġek r
ĠpÄģrstÄģv Äĵjis
Ġpul ku
gÄģ Ä¼u
Ġklas ific
Ġpulk vedis
ĠvÄĵd era
ĠMonre Äģla
o o
is ija
iz Äĵts
Äĵj ai
ĠM ercedes
Ġnep at
Ġmod uÄ¼a
ĠattÄĵl ots
Ġl Ä«vu
iz Äĵt
Ġdzim uÅ¡i
Ġ10 5
Ġaut osport
iniek us
Ġizp ost
ĠÄĮeh ijÄģ
ĠloÅ¾ met
Ġrel atÄ«vi
ĠÄ»eÅĨ ingradas
ĠklÄģt bÅ«t
Ġkolh oza
T T
i Ä·u
ĠA R
ĠK uÄ£
Ġr itu
ĠF ed
ei ts
ĠpriekÅ¡ roc
196 5
ĠY ork
ĠAiz krauk
Ġstat istika
ĠBur t
olog y
ĠpievÄĵrs Äģs
I X
e e
Ġ ai
Ġs ist
Ġat cel
Ġpr ogres
ĠE P
Ġ187 8
Ġprec es
ĠÄĵr as
ĠArm Äĵnijas
A M
Ġd Ä«z
ab i
iv as
Ġatt Äĵls
Ġaugst as
Ġloc ekli
ĠMinh ene
Ð¾Ð³ Ð¾
ĠKazahst Äģnas
Ġ316 6
Ġp iena
il da
Äģj umi
19 25
Ġtik tu
Ġvec ÄģkÄģ
Ġties u
ĠÅ½ urn
ĠpusfinÄģl Äģ
Ġnaba dz
c in
Ġk ot
ĠS j
ĠT emp
ĠJ Äģ
Ġveid oÅ¡anÄģs
eÅ¡ s
Ġkat ras
Ġsa dzÄ«v
Ġnev iens
Ġdienvid austrumu
ĠElizab etes
H eat
ĠP iec
ok ol
ec tr
Ð¾Ð ±
193 4
195 9
at nÄĵ
ĠS P
ĠB og
ĠH an
Ġfil iÄģl
Ġ* '''
ang ers
ĠGrieÄ· ijÄģ
Ġmot Ä«viem
Ġcilt is
ĠpieÅ¡Ä·Ä«r usi
Äĵl Äģ
ĠJ anvÄģr
Ġtr ase
ĠPar k
Ġnor v
Ġnoz ieg
Ġgatv e
ĠGreg ora
E N
Ġz ib
Ġkr Å«Å¡u
Ä«d es
ĠSavien oto
ÄĵjoÅ¡ o
ĠnoslÄĵg ts
ĠfakultÄģ ti
Ġmei tu
ĠDÄģv ids
A iz
ĠÄĢ tr
iÄģl ais
Ġlid l
Ġtrad Ä«c
ĠZinÄģt n
pie bal
ĠP ic
ĠF ol
ĠE UR
Äĵk u
ans es
Ġdien estÄģ
Ġpal Ä«gs
ĠuzÅĨÄĵm umam
ĠmÄĵr a
Ġspec if
ĠizvÄĵl es
ĠNA TO
ĠWilli ams
R om
V il
Ġt ips
Ġb ank
ĠM iÄ·
Ġap gaism
Ġliel ais
Ġas te
196 1
ĠbijuÅ¡ o
Ġkonfer ence
Ġare Äģls
Ġsepti ÅĨas
m Å«sdien
er ti
ĠM asa
Ġpopul Äģrs
Ġatjaun ot
ĠIk Å¡Ä·
ik Äģs
Ġie ejas
ĠN ig
ĠH eid
ĠH art
ip i
Ġ16 0
Ġturp inÄģjums
ĠMon t
ĠAiz putes
ĠuzstÄģd Ä«ja
Ġdubul tsp
icros oft
K al
P aul
Ġs oci
Äĵr ijÄģ
Ġsp oÅ¾
ĠG az
ec es
Ä«d Äģ
Ġvec Äģkiem
ĠSk andin
Ġatkar Ä«gs
ĠApdzÄ«v otÄģs
Ġstaf etÄĵ
L ietu
Ä« las
al itÄģtes
Ġm aj
ev Äģ
iv al
ĠH j
Ġpirm os
ne y
Ġcentr Äģl
ĠlielÄģk ajos
Ġgalven ajÄģ
Ġsar Ä«k
Å«k as
Ġpla Å¡a
Ġskait Ä«Å¡anas
ĠadministratÄ«v i
ĠCiem a
ĠVj etn
e et
ĠP opul
os lavs
ast op
man a
Ġkan Äģlu
ĠSen Äģs
ĠÄ·Ä«m iÄ·is
ĠStud Äĵja
ĠK uz
ĠK amp
ĠL et
Ġau k
ei b
Ġsl Äģ
Ġjaun us
Ġsabiedr Ä«bu
Ġfiz ikas
Ġatkar Ä«ga
Ġvarian ts
Ġb Äģr
it Äģs
Ġsp Äĵju
ĠlÄ« cÄ«
Ġ17 58
aid es
erb onis
Ġministr ija
ĠreÅ¾is ore
Ġpedag ogs
Ġaugs nes
Ġresurs u
I r
M ag
f t
ĠT j
ĠT ab
Ġz inÄģÅ¡anas
ĠC H
Äĵk a
Ġpl Äģnu
Ġmir st
ĠzinÄģt nieks
ĠÄĢd ams
ĠOzol iÅĨÅ¡
ĠPapild us
m Äģrs
Ġs ien
ĠS Ä«rijas
un c
ĠpÄģr Äĵjie
ĠIz dev
oks s
ĠSÄģk umÄģ
Ġdal Ä«bu
ĠpastÄģv Äĵt
Ġmet odi
ĠÄ¢ im
ĠrÅ«p niec
ĠpakÄģp i
Ġtransp orts
Ġdepartam enta
ĠMus ic
Å¡te ins
d on
ain ais
ĠkÅĨaz u
Ġdeg un
ĠatvÄĵr ta
ick is
ĠJ ek
Ġak cijas
ĠtÄģd s
Ġkrust ojuma
ri ors
Ġ186 1
Ġint el
ĠKok neses
B M
Ġt Äģlu
ĠN od
Äį iem
ĠO str
Ġgar n
Ġnod edz
ĠiekÄ¼ aut
Ġmod eli
Ġviel a
Ġapsp r
Ġnorv ÄĵÄ£
i gu
Ġs ega
Ġk ori
en to
Ġh lor
ĠIn c
Ġjaun i
Ġlatv ietis
Ġlid ojumÄģ
Ġdzelz ceÄ¼u
ĠtÄĵv u
ĠatÅ¡Ä·ir Ä«bas
Ġebr eji
ĠAugu st
Ġzvaigz ne
slid oÅ¡ana
Ġligz du
Ġsavrup mÄģju
M eln
Ġ en
Å¡ ais
Ġsabiedr iskÄģ
Ġkarj erÄģ
gen skaln
Äĵ gu
Ġs erb
ĠG abr
ĠKat oÄ¼u
Ġlauk saim
elga vas
Ġskait Ä¼u
Ġstand art
ĠT un
Äĵl e
Ġizmant oÅ¡anu
ĠSk ots
ĠTur cijÄģ
kop Å¡
Ġnepie dal
Ġp last
ĠD iÅ¾
ĠI vars
Ð° Ð¼
Ġaugst ÄģkÄģs
Ġrad niec
Ġkval itÄģtes
Ø§Ù Ħ
ĠPatr iks
ĠEurope an
L V
ĠsastÄģv daÄ¼a
ĠW e
ieÅ¾ ot
Ġplat ums
Ġnoteik umi
ĠtreÅ¡ Äģs
ĠmÄĵneÅ¡ iem
Ġog Ä¼
ĠComp any
Pas aules
Î µ
id Å¾
Ġat guva
ĠT Ä«r
19 27
Ġgal u
Ġaprakst a
Ġban ka
ĠFiladelf ijas
Ġs Äģp
ĠT oties
ei dza
Ġatkl ÄģtÄģ
193 5
Ġrok u
Ġcil indr
ĠsÄ«k Äģk
j oties
Ã ±
Ġv ed
ĠK ot
Ġiz augs
ĠJ eru
Ġaiz b
Äĵta jiem
Ġviet ÄĵjÄģs
ĠDienvid kor
Ġidenti fic
ĠBiz antijas
Å ħ
iek st
ĠF iÅ¡
ip ul
Ġgal am
Ġpl udmal
Ġvirs nieku
vÄĵl Äģk
Ð² Ð°Ð½
Ġapmet ne
Ġizmaks as
ĠVaÅ¡ingt onas
Ġs Äģnu
Ġ( '''
ĠpÄģr ejas
ip e
sl ieÅ¾u
iedr ich
ud as
Ġslim nÄ«cÄģ
ĠjÄģ at
Ġsald Å«dens
ai Å¡u
Ġuz glab
aj i
ĠlÄ«dz s
ĠÅł tr
ĠAl s
Ġuzvar ot
ĠVis bieÅ¾Äģk
ĠKon tin
Ġtuv Äģk
ĠAut o
ĠseriÄģl a
Ñ į
ar ch
Ġd ur
or o
ĠA ig
Ġsp Äĵjas
ĠE SP
19 26
ka ÅĨ
tur es
Ġsept embrim
Ġmetr opol
Ġapvien ojÄģs
Ġkomis ija
ĠPlat Ä«ba
U TC
d el
Ġ ÅĨemot
an gu
Ġl and
ĠB and
ic u
ĠpÄģr Äĵjiem
Ġkl ajÄģ
Sp arta
ĠapstÄģk Ä¼iem
ĠTer itor
ĠÅ¡tÄģ ba
Ġb er
ĠL en
ĠL ej
Ġrakst os
Ġietekm Äĵja
Ġep iz
Ne w
Ġkatedr Äģle
Ġizlai da
n ijs
Ġt Äĵls
Ġd ot
Ä«t us
ĠIgaun ija
Ġman i
ĠGalven Äģ
Ġaudz Äĵk
ĠjautÄģj umiem
au Å¡anas
Ġm aiz
ĠT uk
ĠN em
Ġkol onijas
196 3
Ġmik ro
Ġpaaugst inÄģts
Ġsitu Äģciju
Ġkareiv ju
isch en
# '''
or ijas
ĠS w
ĠK lai
ĠB ad
Ġpar az
Ġpr ez
ĠJ ers
Ġka f
Ġvair ums
ĠSt ju
Äģb s
Ġkap itÄģl
Ä«tÄģ m
Ġsaglab Äģt
Ġtek sts
ĠTok ija
ĠBrun o
) "
om m
ĠpÄģr Äĵjo
Ġvien Ä«go
ogr af
Ġop ozÄ«c
ĠPaÅ¡ vald
ĠspÄĵc Ä«gi
Ġbumb as
ĠJ un
Ġg ul
Ġpav eid
af s
Ġ188 7
ĠCentr s
195 7
ĠuzbÅ«v e
Ġmusul maÅĨu
ĠFj od
es p
ai du
gr e
19 23
ĠH ist
Ġal gorit
ĠIz pild
Ġier oÄį
ĠÅħ Å«d
ĠinstitÅ« tu
Ġatbil stoÅ¡
Ġasfal ta
z ir
Ġn amÄģ
ĠK ons
ĠI elÄģ
Ġvien Ä«bÄģs
Ġgal ma
Ġizm Äĵra
Ġsl Äģnis
Ġnav ig
Ġ187 3
ĠTe il
ĠGun Äģrs
ĠarhibÄ«skap s
ĠvÄģrtsar gs
Ġdv Äĵs
Ġn ej
tÄģ ra
ĠK ing
Ġpal Ä«g
Ġpunk tÄģ
astr of
ĠUzvar as
Ġidenti tÄģ
ĠmedaÄ¼ nieki
Ġatv aÄ¼
ĠIet ek
Ġisl Äģma
ĠNovgor odas
D ev
F I
Ä« la
os c
om Äģm
ĠD un
Ġkr Å«t
ĠC ap
ĠC aur
ĠW ings
Ġup uri
Ġil gu
ĠPl an
Ġaustr ieÅ¡u
Ġizplat Ä«ts
ĠSom ija
Ġoke Äģns
Ġmeln s
Ã¶ r
Ġbalst Äģs
ĠenerÄ£ iju
ĠÄ£imnÄģz ija
ĠK up
ĠM es
ĠB lu
ez a
Ġtr opu
ĠuzÅĨÄĵm umiem
ĠnozÄ«m Ä«ga
Ġ187 1
ĠOlimp iskÄģ
Ġtransp ort
ĠBerlÄ«n e
Ġstrukt Å«ru
ĠSalas pils
F ly
Ġs Äģr
ĠJ am
Ġau gl
Å«r i
Ġdarb am
ĠVal Äĵrijs
ekt ora
ĠmÄģksl inieka
Ġatz Ä«st
Ġteor Äĵt
Ġmazu Ä¼iem
ĠPÄĵd ÄĵjÄģ
ĠvÄĵj Å¡
Ġalk oh
LN NK
ĠL ip
ĠV ingr
ĠpÄģr kl
ĠC ol
ĠÄĢ b
Ġes tr
Ġlauk umu
ĠesoÅ¡ Äģ
Ġkompon isti
Ġps eid
Ġatdal a
ĠK oz
Ġuz cel
ĠsÄģk umam
ĠspÄĵlÄĵtÄģj iem
Ġietek as
Ġ186 3
ĠslÄĵg ta
Dzim is
M y
e an
ĠA HL
ĠS ojuz
Ġaut oru
Ġvec Äģ
ĠpaÅ¡ n
na eus
Ġ187 5
ĠatseviÅ¡Ä· as
Ġsamaz inÄģjÄģs
Ġtor ÅĨa
valst Ä«m
el le
os kop
ul ti
Ġto brÄ«d
ĠÐ ±
eÅ¡ as
ef r
Ġriet um
Ġkan ÄģlÄģ
ĠL is
oj ami
ĠAn ti
ĠAt m
adom ju
ĠnozÄ«m Ä«gu
Ġturp m
ĠÄ«s u
Ġkandid Äĵja
ĠvÄģrt iem
G ads
d oÅ¡anas
i Ä¼i
Ġt at
us as
ĠV ern
Ġap lis
ĠH on
oÅ¡ os
Ġties nesis
Ġapvien ojot
Ġpap Ä«ra
laik os
ĠÄģtr Äģk
ĠbruÅĨ ur
Ġabsol Å«tais
Canad iens
ar ks
at o
iz Äĵta
ta vas
arb Å«t
Ġez erÄģ
Ġkaln a
194 6
Ġiem Äģc
irg us
Ð½Ñĭ Ð¹
Ġt anku
st as
av e
ĠD ab
ĠI eva
Ġvien Ä«bÄģ
inÄģ Å¡anos
ina e
bal l
Ġstarp z
gan o
ÄĵÅ¡an Äģm
ĠSk ol
Ġek v
Ġlauk Äģ
ow er
ĠSal ac
Ġsimbol izÄĵ
ĠPat eicoties
ĠplaÅ¡ s
Ġizteik ti
ĠPÄģrstÄģv Äĵjis
Ġt uk
en tes
ĠB Ä«b
ĠpÄģr nes
ist isko
Ġizr ÄģdÄĵ
Ġpasaul e
Ġpam an
Ġpor tr
Bru ins
Ñ Ĭ
Ġ y
Å¡ ÅĨu
Ġv ab
ĠJ ord
ĠÄįempion iem
Ġpamat lic
mir usi
ĠEn g
Ġredz Äĵt
ĠAlb Äģnijas
ĠSport isti
ĠNÄ«derl andÄĵ
ĠenerÄ£ ija
austr umos
S ar
w w
Ä« sp
at Å«ru
ĠT al
Äģj umus
ĠF et
ĠE ti
ĠÄ¶ er
Ġveic ot
Ġprofes oru
194 2
Ġneatkar Ä«gi
ĠpanÄģk t
Ġterm ins
Ġaktiv itÄģtes
1 10
ir ts
Ġno form
oj Äģ
Ä· im
Ġdarb ojies
ĠAr Äģbu
Ġpavad a
amb l
Ġilg stoÅ¡i
Ġmis ijas
ĠK val
ĠZ ol
Ġsk el
ens ons
ĠÐ ·
ĠmÅ« Å¾u
ĠSp Äģr
Ġsac Ä«kÅ¡u
Ġsieviet e
Ġkareiv ji
ĠPor trets
ĠriteÅĨbrauc Äĵjs
ĠStaÄ¼ ina
ĠNez inÄģms
ur y
Ġgr aud
Ġol balt
Ġ0 9
ost u
els ons
Ġil ustr
ĠraÅ¾ o
ĠKaral iste
kap i
Ġkongres Äģ
Ġtermin u
E T
m or
ĠP eld
ĠpÄģr skat
Ġdzim um
ĠjÅ«l ijam
f Ä«l
r am
ĠV esel
ĠD uk
Ġ188 6
ĠpÄģrd ots
ĠiepriekÅ¡ Äĵjo
riet umos
ĠatbrÄ«v oÅ¡anas
ĠÄĮempion u
C on
Ġs olo
ĠÅ¡ elf
ĠÅł Äį
ĠdzÄ«v nieks
Ð½ Ð¸Ðº
Ġattiec as
Ġfunk cija
ĠKrÄģs lavas
il ers
ĠS erv
Ġr at
Ġsav Äģk
ĠSp orts
Ġnep iet
ĠOl ga
ĠMai ks
ĠlidmaÅ¡ Ä«nu
ĠVarÅ¡ avas
ĠNeatkar Ä«bas
M Äģr
r et
er Ä£
iz veid
Ġiz tek
ĠM Äģra
ĠFran c
Ġministr i
Ñĥ Ñģ
Ġneliel Äģ
ĠievÄĵl Äĵta
Ġelektr onu
Ġ187 9
ĠKrist Ä«ne
skÄģb i
Ġceremon ija
Ġsum ma
ĠBrand en
Ġbak al
C H
Ä« Ä¼u
ÅĨ ai
ta in
ĠV III
Ġat nes
Ġap Ä£Äĵrb
Ġgal akt
Ġveid oties
ĠIn form
ĠAustr ijÄģ
Ġoper Äģ
ÄĵjoÅ¡ Äģ
Ġdepartam ents
Ġsabr ukuma
Ġzon de
Ġ''' (
Ġc enu
Ġdz el
ĠApr aksts
ĠmaÄį Äģ
g er
Ä«g umu
it ijas
ĠsÄģk umu
Ð¸ Ð·
Ġatt iek
Ġas i
Ġsu ver
Ġatjaun oÅ¡anu
Ġizl iek
ĠVas iÄ¼
ĠParlam enta
er mÄģ
eg o
ĠÄĢ genskaln
ĠÐ »
ĠPr iv
Ġizveid otas
Ġmaz Äģka
Ġnek ust
Ġkomp Äģniju
Ġfunk cion
Ġdek Äģdes
Ġlaure Äģti
Ġlog o
ech n
Ġsmadz eÅĨu
ĠMarÅ¡ru ts
p iem
Ø ¯
ai ds
ĠK arp
ĠM un
ĠF ac
Ġbal ti
Ġvers iju
Ġkod s
Ġnom inÄģl
Ġpretend entu
Ġpiesl Äĵg
v irs
Ġpl ata
Ä«ta jiem
ĠEirop a
ĠAtt Ä«st
ĠSig ism
S arkan
f f
Ä« ka
Å« kl
ĠB asketbol
Ġtr aÄ£
itÄģ tÄĵ
ĠspeciÄģl i
Ġmedic Ä«n
ĠbrÄ«d i
inÄģtÄģj u
Ġprogrammat Å«ras
KÄģr lis
S u
m y
er Ä«
tu p
ĠH Äģr
uÅ¡ Äį
ĠU S
ĠspÄĵl Äĵjot
olo gu
ym p
ĠMars a
Ġkorpor Äģcijas
latv ijas
k am
r ed
w o
ĠvÄĵl reiz
ĠmÅ«z iÄ·
ĠvÄ«r s
Al l
ation s
ĠsacÄ«kst Äĵs
ĠÅ«denskr Äģtu
Ġpartiz Äģnu
Ġkonstr ukt
M ad
ar ovs
ĠS TS
ĠJ ura
Ġcentr ÄģlÄģs
Ġietek mes
ĠIl g
haw ks
C D
P owiat
an kas
il le
Ġr Äģdi
ĠÅ¡ aut
ag l
Ġin fic
Ä«l ija
Ġdirekt oru
Ġuzskait Ä«jumÄģ
Ġkak la
ĠbrÄģz mas
ĠMetal urgs
P P
Ù Ħ
Ġk ub
Ġm en
os e
ant iem
ĠÄ£ itÄģra
Ġal tÄģr
eÅĨ Ä£
Ġciem ats
Ġpopul Äģcija
ĠGalven ie
Â» .
Ġvel osip
Ġkoncentr Äģcijas
B or
Ġt Äģr
Ġr ota
ĠKar te
ĠpÄĵd as
ĠmÄģks la
Ġsasnieg ums
. ;
B e
k et
Ġ Äĵt
ĠP ul
ĠD am
ais a
ier es
ug o
andr Ä«z
Ġveic inÄģja
ĠDienvid amerikas
anc es
Ġbi ogrÄģfija
Ġsadarb Ä«bu
Ġtrim dÄģ
Ġ% ),
ĠÄĮempion i
Ġmolek ul
i Å¡u
ur es
ĠL em
ant h
ĠÄįempion e
ĠmÄĵr Ä·iem
evol Å«
ĠpieÅĨem t
Ġligzd as
ĠuzbÅ«v Äĵta
Ġnomin ÄģcijÄģ
Ġrepubl iku
Ġcilv Äĵc
an am
Ġd ikt
Ġno jauk
ĠM ust
Ġap d
Äģrt as
ĠdzÄ«v Ä«bas
ĠstÄģ stu
Ġkrast iem
Ġug un
Ġsup er
Aleks andrs
C o
a ÅĨa
d inÄģl
f in
Ä »
Ġ is
ĠH um
ĠlÄ«dz ekÄ¼us
Ġne oficiÄģl
Ġpat ri
Ġman ipul
ĠÅ¡aur ums
Ġred ak
ĠBaltkriev ijÄģ
ĠpÄģrdÄĵv Äĵts
aw ks
eniek u
ĠTreÅ¡ Äģ
ĠA ss
ĠK andid
ĠR ev
ĠJ auk
Ġ10 8
Ġzaud Äĵjis
ĠRepubl iku
Ġslim nÄ«ca
ĠvienÄģd s
ĠPrÄģ gas
b ase
o und
Ġ ).
ĠK amer
Ġdaudz Äģm
Ġsavien ojumu
ĠKon f
Ġvirz ienu
Ġpul kÄģ
Ġsen grieÄ·u
Ġekonom isko
ĠMal tas
Ġem oc
ĠRakst os
Ġkomun istu
ĠÄ«pat ÅĨi
ĠStef ans
k ub
ĠT os
Ä«g Äģkais
ĠZ aud
ĠPr inc
âĢĻ )
Ġapkalp o
S M
Ġuz rÄģd
Ġz ÄģÄ¼u
Äĵn es
Ġjaun Äģko
Ġizveid i
ĠÄģr valstu
ĠDr oÅ¡
ĠsaglabÄģj ies
Ġdiec Äĵzes
P ac
ĠL uc
Ġau s
up it
ig o
Ġpl au
Ġrakst niece
Ġizc eÄ¼
Ġmar tam
Å«l ija
ĠspÄĵc Ä«gs
Ġtic Ä«bas
ĠaÄ£ent Å«ras
d orf
p Å«
u ch
Ġs istemÄģt
ĠG om
ĠsÄģk t
ĠKar Ä«bu
Ġdek ÄģdÄĵ
cÄ« ÅĨa
ĠJar oslav
ĠplÅ«s mas
Ġizzud is
V ar
b ul
Ġl im
ien am
Ġtr op
ĠTr ad
enc s
ÑģÐº Ð¾Ð¹
Ġik gad
izglÄ«t Ä«bas
ĠJeru z
Y ou
u dz
ĠS ur
Ġiz main
ĠH ai
ĠU s
aÅ¡ s
val odÄģ
Ġkat astrof
ĠÄ¶ Ä«na
Ġveik ts
ĠpÄĵt Ä«jumus
Ġfiz i
ĠatmosfÄĵr Äģ
ĠLed us
O p
k ol
m Äģtes
Ġb in
Ġiz kr
Ġvien oÅ¡anos
ip u
Ġizc ÄĵlÄģs
Ġab Äģs
all urg
eit as
ĠSl im
Ġies nieg
ĠVlad islavs
Ġelem entiem
ĠStokhol mÄģ
ĠBundes l
k ad
Ġpal aisti
ĠTr am
uz var
Ġprezid enti
ĠÅħ Å«
Ġrind as
ĠseriÄģl s
Ġpieej ams
ĠSat iks
ĠreÅ¾Ä«m a
Ġaizsardz Ä«ba
V Äĵstur
ĠR odr
Ġuz d
Ġbr uÅĨu
ne ta
Ġpiedal Ä«Å¡anos
Ġklub os
Ġuzskait Ä«jumi
Ġied ves
V ol
W illi
g ari
Ġs el
Ġt ajos
Ġn am
ĠS ir
ĠsÄģk ta
ĠvÄĵl ÄĵÅ¡anÄģm
Ġas in
ĠFr eder
Ġkan Äģd
ĠnacionÄģl ajÄģ
ĠpozÄ«c iju
VI D
Ġcietoks ni
Ġrest aur
m Å«r
Å ³
Ù Ī
Ġt auk
en os
en ei
en berga
Ġl y
Ġm oÅ¡
Ġie gr
gr am
Ġz Ä«l
ĠF ar
la h
Ġ18 48
Ġskol otÄģja
ĠAustr ija
ĠÄįetr Äģs
ĠuniversitÄģ ti
Ġkrist ieÅ¡u
yc l
Ġmestr s
b it
ak l
ĠB ob
Ġvid i
Äĵz ija
skol Äģ
Ġrakstur Ä«gi
ĠapdzÄ«v otÄģ
Ġsagr Äģb
Ġpaug ur
d an
Ġ Ä«r
in skas
al Äģ
Ġl Äģcis
or ks
il ijs
ĠP its
ĠL and
ĠL aura
Ġf en
ĠN ight
ĠJ Äģni
Äį as
ĠO ks
Ä«r as
Ġveid oti
Ä«z ija
Ġuzskat s
ĠKon go
ĠbÄĵr ns
Ġizpild Ä«ja
ĠReÅ¾ is
1 20
m ed
o ÅĨus
Ġs Å«k
Ġt oties
ĠN el
ev iÄįa
un der
ĠZ a
ec kas
ig ur
to grÄģf
ud i
ug h
Ġcentr ÄģlÄģ
erat ors
Ġfon ds
Ð¸Ñ Ĩ
ĠEn dr
ĠÅ«deÅĨ raÅ¾a
Bul ls
K op
n era
Ġd Äĵli
Ġj Äģv
Äģd o
Ġsl Äĵdz
iÅ¾ u
ĠIn formÄģcija
Ġbei gas
Ġdal Ä«Å¡anas
ĠuzÅĨÄĵm a
Ġkap itu
cel ona
ĠGrieÄ· ija
ĠKrust a
Ġbaz il
ĠZvaigz ne
Ġga itÄģs
Ġtr ak
Ġh i
sl o
Ġ11 5
Ġaugst skolas
Ġnor mu
ĠKl im
Ġdienvid rietumu
Ġstud ijÄģ
Ġrom Äģna
Ġe x
Ġdokum entu
ogl e
Ġjos la
epr ezid
Ġkru sts
j ers
Ġv itam
ĠV olf
em as
Å¡an Äģm
ĠlÄ«dz Ä«gu
Ġst ie
if er
Ġfiz ikÄģ
D B
d o
es u
Ġno skaÅĨ
ĠP s
ĠM Äģl
Äĵk Äģ
Ġ18 30
Ġpirm ajÄģm
ĠAl Å¾
inÄģj ies
Ġoktobr im
Ġkras ts
Sp ace
Ch ar
Ã¶ n
z as
au Å¾u
or gan
ĠM anu
Ġ9 00
ĠDr Äģmas
ĠSal u
Ġvajadz Äĵja
Ġizgatav oja
ĠjautÄģj umu
ĠjautÄģj umos
ĠTim e
ĠPÄģv els
ĠSo Äįi
ĠmÄģs a
ĠSof ija
ĠZaÄ¼ o
Ġapglab Äģts
ĠJevg eÅĨ
ĠAntverp ene
n ija
s ons
as h
um taut
Ġm uÅ¡
Ġlaik i
Ġin s
Ġkop ienas
Ġieguv es
193 3
ĠÄ»eÅĨ ina
ĠUzÅĨÄĵm ums
engu ins
ĠHamilt ons
Ġpie ciem
Ġkur Å¡u
ĠPar al
Ġma ijam
atÄ«v s
ĠmÄģksl u
ĠVid eo
ĠÄ«s i
ĠPav l
ĠPiem in
Ġorg Äģnu
E iropas
I T
t ai
an h
ĠP oÄ¼u
ĠB us
Äĵl ija
Ġin tr
ĠKat ru
Ġgais mu
ĠattÄ«st Ä«bai
ĠJaun Äģs
Ġpieej ama
Ġnomet nÄĵ
ĠPrei Ä¼u
y th
ek sp
Ä· Ä«m
ĠpÄģr cel
ĠC er
Ġizveid o
ÑĢ Ð¸
Ġats auc
Ġamat pers
194 7
Ġw ww
ĠstÄģvok Ä¼a
Ġnem ain
ĠsaglabÄģj uÅ¡ies
SK P
c ilvÄĵk
Ġs iÅ¾
ga la
ak Å¡u
Ġpar ku
Ġpr eses
ins s
Ġkat al
Ġpamat s
fr Ä«ds
ĠY our
Ġbi ot
kaln u
Ġmedic Ä«nÄģ
V Äģcu
g iem
m aiÅĨas
Ġv Äĵs
Ġl iber
av en
Ġz o
otÄģj am
ĠÄįempionÄģ ti
Ġan ti
ĠtÄĵl u
Ġkinof estiv
K ap
Å¡ Äģs
Ġv j
Ġno bals
ĠR ock
od ien
Ġkar oga
Ġpav Äĵli
end orf
ĠAndr e
Ġpam est
Ġ187 2
Ġzir gs
Ġapar Äģtu
Ġlielmeist ara
NA SA
S m
at is
ĠV at
ĠZ ir
ĠZ Äģl
Ġ18 12
Ġst ep
Ġter or
Ġdat umu
ĠmÄģksl Äģ
ĠvÄģrd us
Ġnogal inÄģt
Ġprec Ä«zi
Ġiec ien
angl iski
Ġbakal aura
I sl
z iv
ÅĨ Äģm
Ġb obsl
iz l
Ġar ist
ĠB aku
Ġpr om
ĠH Äĵr
Ġau ga
Ġtr ijÄģs
ĠKr asti
Ġveik als
Ġklas Äĵ
Ġsauk t
enh Äģg
ĠFrÄ«dr iha
ĠIekÅ¡ lietu
Ġm om
Ġm aiÅĨas
ĠV EF
Ġie stÄģÅ¾u
ĠH ab
oÅ¡ ajÄģm
gal Äģ
Å«l Ä«t
ĠceÄ¼ i
Ġloc ekÄ¼iem
ĠAk adÄĵm
Ġtitu l
Ġnop irk
Ġciet umÄģ
ĠPal est
Ġmekl Äĵ
Ġanal Ä«zes
Ġkaps Äĵta
ĠSacens Ä«bas
ĠLielvÄģr des
s on
Ġv olej
ek Ä¼
end er
ĠPol iju
Ġapvien oja
ĠrobeÅ¾ Äģm
193 2
ĠBar Ä«ba
ĠSch w
ĠMuh am
ĠB art
Ġre g
ĠLiel Äģko
ĠLÄ«dz Ä«gi
ĠZiemeÄ¼ amer
ĠÅ¾urn ÄģlÄģ
ĠDiev s
O H
ĠBr is
Ġturp inÄģt
ĠGal erija
ĠIl Å«kstes
ĠMe ier
ĠMil itÄģr
ĠDom br
Ġlaikrakst Äģ
ĠBrazÄ«l ijÄģ
Ġsmil Å¡u
ĠKristi ans
Ġdiametr s
ĠpazÄ«m es
Ã ¸
Ġar od
Ġiz k
up Ä«te
Ġdien Äĵja
ĠÄ¶ em
Ġbar j
Ġsim fon
Ġ188 3
Ġ188 4
Ġekonom iskÄģs
Ġklim ata
ĠmaÅ¡ Ä«n
ĠPÄĵr navas
Kn icks
er tr
Ġm orf
el Å¡anos
iel d
ĠU m
Ġa er
ĠLietu vu
Ġrakstur a
Ġatjaun ots
ĠiekÅ¡ Äĵjo
Ġpiepras Ä«ja
Ġsezon Äģs
A B
Ġsp Ä«ti
ĠlÄ«dz Äģs
ĠÅł Äģda
gan as
Ġkosm iskÄģ
ĠZviedr iju
Ġiedal Äģs
ĠPiedal Ä«jÄģs
ĠFern ando
N ik
Ġdz ird
ĠG andrÄ«z
br uÅĨ
Ġkr i
ac a
Ġapgabal i
ĠJaun o
Ġ186 5
Ġprovinc i
Ġautoc eÄ¼u
Ġpussal Äģ
Ã º
ga ds
st ein
ĠA tra
Ġsp ons
Ġvien Ä«bÄģm
Ġbal tÄģ
Ġbal to
Äģtr ija
Â» ,
ĠtÅ«k st
Ġmik ros
x e
ĠR eik
ĠN ord
ens a
Ġbr Äģli
Ġal ians
pl Å«d
ber gu
Ġvald nieki
Ġrad ik
Ġpers ona
ĠTe am
ĠVÄģr ti
ĠatÄ¼ Äģva
ĠAnd ers
ĠgÅ«st Äģ
V Ä«r
Ġv es
ĠL es
ĠM erk
ĠG ord
Ġpret Ä«
ing as
Ġaugst umu
ĠraÅ¾ oja
''''' ,
ĠKan Äģda
ĠtÅ«r es
Ġpakalp ojumus
ĠSup erl
âĢ² âĢ²
Ġaic inÄģja
War riors
ĠÅħÅ«d Å¾ers
Ñ ī
ĠP ÄĮ
ĠK oÅ¡
Å¾ ot
om Äģt
Ġc on
ĠN am
Äģn us
ej iem
ĠC itas
Ġaut ore
Ġpadom i
Ġloc ekl
Ġ186 8
Ġbalst oties
Ġsarkan Äģ
Ï ĥ
Ġk u
in ka
ai g
Ġr Ä«tÄģ
od y
ĠI edz
ĠLatv ia
ĠC K
Ġsas auk
Ġh ier
ĠPr Äģta
ĠNe il
Ġmon Äĵtas
ĠBÄĵr nu
Ġcetur tÄģ
ĠbagÄģt ie
Ġmilz u
Ġpild Ä«ja
gaid Äģm
ĠUngÄģr ijÄģ
Ġvide okl
ĠEkonom ikas
ĠTurp mÄģk
P al
Z elta
ie w
al itÄģti
ĠS n
oj amas
Äģj uÅ¡i
ut as
ĠAl onso
Ä«ga i
Ġizveid oÅ¡anu
Ġnev Äĵl
ĠNe ap
Ġoke Äģnu
ĠMill ers
ĠTransp orts
ik Äģciju
ak Äģs
ĠJ ust
ĠAts eviÅ¡Ä·
Ġko ordin
ĠIr Äģkas
Ġ186 7
Ġmain Ä«ja
Ġiemes ls
ĠLib er
ĠSaks ijas
ĠGrob iÅĨas
Ġat cÄĵla
ĠE va
Ġvien ai
Ġst atu
Ġvai vad
Ġvair oÅ¡anÄģs
Ġ10 7
ast er
me ÅĨiem
ang e
Ġpad ara
Ġdel f
ĠizrÄģd Ä«jÄģs
Ġdistr ikts
Ġolbalt um
B ill
P enguins
p ektÄ«v
Ġm Ä«Ä¼
ĠK ell
ek cija
''' ;
Ġ10 6
Ġgar Äģm
Ġvald nieka
Ġab s
des mita
ĠÅ¾ ir
Ġgu Ä¼
195 5
ĠknÄģb is
ĠPhjonÄį hana
T im
v ers
Ġs ver
on gs
iz z
ĠL iga
ad Å¾
Ä«g ÄģkÄģs
ĠpÄģr cÄĵla
ĠÅł m
uk i
ĠAn rÄ«
val des
ied e
Ġel p
Ġorgan ismu
rÄģd s
ĠIl ze
Ġfilozof i
ĠMod ern
ĠKolumb ijas
Ġstiep jas
Ġm ark
am ies
tu Ä¼
ĠR el
ev ska
un dz
ĠH ant
Ġkr im
Ġdr augs
ĠziemeÄ¼ austrumos
Ġzaud Äĵjusi
ĠLu ijs
Ġarhit ekta
Ġcetur tais
ĠOk e
ĠNorvÄĵÄ£ ijÄģ
ĠArh it
ĠapvÄĵrs uma
Re al
A T
c ilt
k ona
Äĵr t
ag ask
ĠH Äģbs
ied is
ĠÅ¾ ag
ĠRepubl ikÄģ
Ġperiod u
195 1
ĠprofesionÄģl Äģ
Ġstil u
ĠDav id
ĠLimb aÅ¾u
ĠZiemassvÄĵt ku
ĠEti op
C ol
M al
Ġm ie
am Äģk
Ġj Å«t
Ġdin am
ĠRom Äģns
Ġkarav ad
Ġmit oloÄ£ijÄģ
ĠAtra Å¡anÄģs
i u
s udr
ur r
ĠM Hz
ĠD und
Ä· os
ĠPr ogram
Äĵv iÄįs
Ġnodarb oties
Ġapar Äģta
Ġcetur to
ĠdibinÄģtÄģj iem
ĠtradicionÄģl i
v irz
ĠL eik
Ġat krit
ĠR es
ok o
Ġnot ies
Ġkaral im
Ġnoteik umiem
oÄ¼ es
entÄģ r
Ġatst Äģjot
ĠÅ¡Äģd s
ĠlÄĵm ums
ĠnÄģkam Äģs
inÄģtÄģj s
ĠmÄģs as
ĠUngÄģr ija
ĠieÅĨÄĵm is
ĠeÄ¼ Ä¼as
ĠstÄģj Äģs
ĠAgl onas
ĠpaÅ¡n Äģv
F R
ai ÅĨi
Ġ2 10
Ġdr upas
ĠSk onto
Ġsak nes
ĠFr ei
Ñĥ Ð´
Ġoper Äģciju
ĠatbrÄ«v oja
ĠdziÄ¼ umÄģ
Ð»Ð° Ð´
Ġep id
ĠMc Laren
ĠD ie
Ġpar ad
Ġvien Äģdi
ĠAr ena
ain o
ĠIn g
ĠLiel Äģkais
ĠMar gar
ĠAb as
Sp urs
Ġkurs u
C ilvÄĵk
c il
m l
Ġm Äģti
ĠT amp
Ġliel ums
Ġrakst s
ÄĵtÄģ k
Ġdat ora
ĠizvÄĵl as
ĠbruÅĨ oto
ĠStarptaut iskajÄģ
ĠmazÄģk umtaut
ĠpÄģrvald Ä«ja
ĠpasÄģk umi
Ġkorpus s
Ġspiedien s
ĠAizkrauk les
ĠnorvÄĵÄ£ u
Z S
un t
ĠraÅ¾ oÅ¡anÄģ
Ġris inÄģjums
Ġdis ertÄģ
Ġvislab Äģk
Ġm ums
Ġgr Äĵdas
Ġ10 3
Ð¾ Ðµ
Ġsl ÄģÅĨa
ĠAt kar
gal vas
ĠÄģr ÄĵjÄģ
Ġfon du
Ġ187 7
ojoÅ¡ o
Latv ija
entÄģl s
pas aules
ĠGun ter
Ġbiez ums
Ġdzin Äĵjs
Ġcik la
aval iers
Ġabsolv Äĵja
F SR
Ġp ian
ap aÄ¼
ĠI d
gal e
Ġapm ier
ĠattÄĵl i
Ġ186 4
âĢĻ ,
ĠspÄģr ni
ĠpÄģrbaud es
ĠÄģrkÄģrt as
f u
Ġl ugas
ek ciju
ĠD a
ĠI X
Ġmin or
Ġiel ejas
Ġpievien ota
Ġpan Äģca
ĠpÄģrval da
Ġvelt Ä«ta
ĠPolit ehn
Ġsilt uma
Ġvic eprezid
ĠFrank fur
R angers
ik ova
am il
ĠK ai
ĠK Äĵn
Ġ10 2
ĠÄĮ akst
ĠpriekÅ¡ met
ĠÄ¶ ek
ĠnozÄ«m Ä«gs
ang o
ĠbÅ«v Äĵta
Ġ187 4
Ġmain Ä«ts
Ġprinc ips
Ġmal u
Ġpier obeÅ¾
Ġgarn iz
ĠÄ¶er meÅĨa
Ġarist okr
I C
O n
Ġv Äģk
ĠPr o
Ġal u
aus u
Ġas ti
andr o
ĠmeÅ¾ Äģ
Ġiev iest
ĠnoslÄĵg uma
Ġkapte iÅĨa
ĠportÄģl Äģ
B S
h al
m el
Å« dza
ĠM it
ĠZ el
oz u
Ġnoteik tas
ĠgrÄģf s
Ġdiscipl Ä«nÄģs
ĠautomaÅ¡ Ä«nu
ĠBoh Äĵmijas
v ec
ĠK uk
ek r
ĠT an
oÅ¡ ajÄģ
Ġin sp
Ġgar Äģ
pl es
Ġpus sar
ĠGal vas
ĠkÄģr tu
ĠpakÄ¼ auta
ĠievÄĵroj amu
ĠNÄ«derl ande
Ġjuni oriem
ĠIzmant oÅ¡ana
O L
en Äįu
ĠK ipr
Ġpie stipr
Ġaiz r
Ä«d us
ĠtÄģd Äģs
ĠjÅ«n ijam
Ġvidus daÄ¼Äģ
Ġav otu
ÑģÑĤ Ð²
ĠspÄģr niem
Ġban ku
ĠMaks s
ĠKau ÅĨas
Ġsimp t
ĠViteb skas
G o
ĠS mits
ĠH all
Ġ18 59
aÅ¡ k
Ġkl int
Ġsar aÅ¾
Ġvirs dzimta
ĠraÅ¾ ot
ĠJap Äģna
Ð¸Ñĩ Ðµ
Ġpras Ä«bas
eck is
Ġabsolv Äĵjis
eitn ants
Ġt emat
Ġn Ä«derl
al b
or um
Äģt Äģs
ĠlÄ«dz ekÄ¼i
str u
Ġizm aiÅĨÄģm
ne ts
Ġal as
enes anses
iÄ¼ as
Ġveic ina
ikt ies
ĠzÄ«m i
ĠakadÄĵm ija
Ġokup Äĵja
Ġmeln o
Ġpiekr asti
Ġsmag Äģ
ĠKev ins
Ġuzpl auk
in ais
ai p
Ġb ot
ĠÅł var
Ġgal er
Ġnod Äĵv
ĠÅħ ik
ĠKal gari
Ġizl aists
ĠÅ¾urn Äģls
ĠAd ams
ĠEk str
ĠIv anovs
ĠApvien otÄģ
ĠprÄĵm ija
ĠatvÄĵr a
ĠVilhel ma
Ġnodok Ä¼u
Ġk Äģju
ĠM end
ĠÅł p
Ġne iek
ĠÐ °
Ġcentr Äģlo
ĠÄĵk Äģm
ĠLiep iÅĨÅ¡
Ġid eja
ĠtÄ«kl Äģ
ĠOktobr a
ĠmÄĵnes Ä«
ĠcietokÅ¡ ÅĨa
ĠSau ber
Ġn ark
us Äģ
Ġiz ej
Ġpr es
uÅ¡ ajiem
Ġliel uma
Ġkop a
Ġop era
195 4
Ġautom obi
ĠnedÄĵÄ¼ Äģ
Ġdol om
ĠMÄģc Ä«jies
Ġ% )
Ġdzimt enÄĵ
ĠBol der
ĠKras n
Ġbrig Äģdes
ĠsaÅ¡ Ä·
Ġgrun ts
Ġb ombard
ĠL Å«s
Ġr Äģp
ak Ä¼
ĠB irz
Ġ10 4
ĠJaun ajÄģ
195 3
Ġautob usi
ĠPetr ogr
Ġizdal a
opa gan
ĠDienvidsl Äģv
ÄĴ r
Ġl oka
ĠD aiÄ¼
Äģj ams
od ot
az a
Ġg ot
Ġgr ants
Ġbr ÄģÄ¼u
Ä«tÄģj us
Ġsat urs
ĠBar ona
viel a
ĠÄ·Ä«m ijas
M ap
d is
m iÅĨa
Ġt end
Ġr ob
ek tiv
ej am
ĠBr auns
auj ot
end Å¾
Ġsak Äģves
Ġsabiedr iskais
ĠreÅ¾is ori
kÄģr ta
Ġstarpz onu
M at
ĠL otus
ĠR ik
Ġkr up
ĠO slo
ĠAl f
ber l
ra ga
Ġspec ial
Ġmain Ä«t
Ġpaliel inÄģs
fel ds
ĠSaim niecÄ«ba
ĠVD R
Ġl eg
Ġdiv desmit
Ġjaun izveid
iks as
ĠSk ul
ĠFran cis
ĠKosm osa
ĠteritoriÄģl Äģs
Blu e
Met allurg
tul k
Ġs ejas
Ġd ie
ik Äģm
Ġj Å«d
ĠG et
ia e
Ġnol emts
Ġapl Å«k
Ġkreis i
Ġbir oja
yl l
k oku
v Ä«ns
Ġs ing
Ġk eram
ĠS ul
Ġat vien
Ä«g ums
ĠJ er
Ġh ist
ĠzinÄģt nieku
Ġdzelz ceÄ¼Å¡
ĠSaeim a
Ġcil Å¡u
Ġsign Äģlu
Ġdraf ta
Ġastronom s
ĠZemgal Äĵ
ĠTurnÄ«r a
ĠRac ing
Ä Ļ
Ġ1 19
Ġsas p
Ġkon gress
Ġmed Ä«bu
ĠBal odis
Ġko ord
Ġvirs ma
Ġlik t
ang Äģ
ĠaktÄ«v s
Ġmeln Äģ
Ġser ver
A ugu
Ã ¢
ĠB ag
ĠB ut
ĠB lack
Ġgr auz
ĠSl am
ich ael
Ġjebk uru
Ġpieej ami
ĠSol tl
Ġapvid Å«
ĠPremjerl Ä«gas
ĠArv Ä«ds
! ''
H el
au Å¾as
ĠL Ä«d
ĠT erm
Ġdz emd
niek os
Ġpat Ä«k
Ġnes ta
ĠpÄģrstÄģv ot
ĠVair oÅ¡anÄģs
ĠbÄ«skap ijas
Ġizcels me
ĠdziÄ¼ ums
ĠKatr Ä«na
Ġinstrum entu
ĠSoltl eiks
A Z
S ab
al itÄģte
ÅĨ ikovs
ak ova
ti tu
Ġh orm
ilv er
Ġpa griez
Ġvec Äģko
194 8
Ġslim Ä«ba
Ġ186 9
Ġredz ama
ĠTe Äģtra
At l
Ġinteres es
ĠmaÅ¡ Ä«nas
Ġkabin eta
Ġmeit eÅĨu
ĠStokhol ma
ĠValst is
ĠVirz ienÄģ
N HL
ga ilis
ĠV s
im ul
om at
ĠB iju
Ġc olor
Ġkom tur
ĠAt ÄĵnÄģs
ĠDÅ¾ ona
Ġkok iem
ĠbijuÅ¡ Äģ
entÄģ la
ĠdÄĵv Äĵja
Ġnolai Å¾
ĠaugÅ¡u p
ĠÅ¡elf a
S ol
ar am
ĠL az
ag en
iedr u
Ðµ Ñģ
Ġbiedr Ä«bu
ĠtÅ«kstoÅ¡ us
Ġain avu
onÄ«m s
ostac ion
Ð»ÐµÐºÑģ Ð°Ð½Ð´
O ilers
m eds
p os
Å¡ os
Ġga Ä¼as
ĠS ark
ĠB M
ĠH ES
ĠC im
ig i
ĠattÄĵl ota
Ġrok grupas
Ġaprakst Ä«ja
ĠAlber ta
Ġreak cijas
Ġfabr ika
ĠMonre Äģlas
kait ot
ĠBosn ijas
A P
S uns
U T
aj ev
Ġj ezu
od er
ĠG ud
Ġ17 95
Ġvir sk
Äģz i
Ġsat ura
Ġput n
ĠPÄĵt ersons
Ġmel na
ĠsaÅĨem t
Ġasto ÅĨas
ĠPÄĵter burgÄģ
Ġklost era
Ġienaid nieka
C avaliers
Ġn ec
Äģr us
Ä«g Äģkie
Ġg en
Ġkr Ä«zes
Ġpirm ajÄģs
gl Äģb
ĠGr ieÄ·u
ĠIn t
Ġrakst Ä«t
ĠKl Äģr
skol a
Ġlik umi
ĠÄģtr uma
Ġpiete ik
Ġkaval ieri
P el
k ov
Ġgad Ä«jumu
ĠB ebr
ĠD Äģnija
Ġkar dinÄģl
Ġpils Äĵti
ĠSk at
ĠFr icis
ÄģtÄģj u
ĠVol gas
Ġdist anÄįu
ĠOz ols
Ġkonfer encÄĵ
ĠBeÄ¼Ä£ ijÄģ
Ġobjekt iem
Q L
Ġn ul
en am
ĠS ec
Ġat Å¡Ä·
aul u
Ġak c
ĠTur cija
Ġsabiedr isko
ĠpastÄģv Ä«gi
ĠmÄģj Äģ
ĠMeln Äģs
ĠdiÅ¾ cilt
Ġii i
Ġly ga
M art
ĠR og
ĠH erm
Ġ12 8
Ġrad ot
ĠÅ¡Ä· iet
Ġkomp onis
Ġizdev ies
ĠEn erg
Ġrind Äģm
ĠmateriÄģl a
Ġkurs Äĵja
ĠfiniÅ¡ Äĵja
m Äĵm
as u
ta jiem
ĠS ed
ĠG e
ĠE ver
19 12
ĠÅł im
Ġgal s
Ġ11 1
ĠKl Ä«v
ĠBalt ijÄģ
ĠMask avu
Ġnoteik tÄģ
Ġsport istiem
Ġcelt ne
ĠMa ija
ĠGl ez
ĠSm oÄ¼
mat eriÄģl
Ġlaikme tÄģ
ĠapÅ¡ aud
Ġs ÄĵÅĨu
ĠpÄģr var
Ġkr ÄģÅ¡
aun u
Ġsl Äģvu
Ġkomand iera
Ġaugst ÄģkajÄģ
Ġnor obeÅ¾
Ġsen Äģs
inot e
zem ei
Ġsamaz inÄģt
Ġperson Äģm
Ġnoz iedz
ĠinÅ¾en ier
Ġtrauc Äĵjumiem
ĠSak arÄģ
ĠbrÄ«vprÄģt Ä«go
ĠkanÄģd ieÅ¡u
I tal
Ġv ol
Ġ2 20
ĠP eru
te f
ĠdaÄ¼ iÅĨu
ĠDz irn
Ġapgabal iem
Ġarm ijai
ĠKon c
ĠbrÄ«v Ä«bu
ĠDauga va
Ġpiln veid
ĠzinÄģm i
In d
Ġmaksim ums
Ġakme ÅĨ
ĠFet els
F il
M ir
k ul
â Ĩ
um ul
ik Äģcija
Äĵj ami
ĠT Äĵrv
Äĵr i
Ġpar Äģda
un ga
nie Å¡u
Ä«ga jÄģm
ĠraÅ¾ otÄģjs
Ġsen kapi
ĠpriekÅ¡pils ÄĵtÄģ
ĠÎ ¼
Ġlaure Äģts
ĠVankÅ«v era
ĠpriekÅ¡me tu
.â Ļ
) ''.
. âĢĿ
I m
Ġs ekl
Ġl ine
Å« Å¡anu
ur ga
Ġie zÄ«mes
ĠR uc
âĢ ŀ
ĠJ ozefs
aln s
Ġpa gal
Ġpil is
ĠÅ¡Ä· Ä«st
Ġpavad oÅĨa
bil st
ĠCentr Äģlais
Ġizrais Ä«t
Ġglezn otÄģji
Ġziv Ä«m
ĠgÅ«st ot
ĠRod Å¾ers
ĠpagÄģt nÄĵ
ĠlÄ«b ieÅ¡u
piebal gas
D iv
k Äģju
ĠL ut
ĠB ank
Ġpr esti
ĠF eld
ep ar
inÄģj usi
ĠAp tuveni
Ġtel pa
Ġtenis a
Ġatv iegl
ĠFerdin ands
k ova
ei Å¡
ĠU SA
Ġnov embrim
ĠPirm oreiz
Ġkrust u
Ġatbal sts
Ġdi agn
anc he
Ġmeist ari
kat oties
ĠVÄ«n Äĵ
h ov
w orth
ĠL N
Ġiz vad
ĠT eks
Ġkr ekl
sp Ä«d
itu cionÄģl
ĠLiel upes
ĠKol or
Ġproces a
ĠEm Ä«ls
Ġbir Å¾Äģ
Ġrud ens
ĠMaks ims
ĠizmÄĵr i
ĠrezultatÄ«v Äģkais
B ay
z ijas
as tÄģ
on ists
ĠP ik
ĠR op
Ġz ud
ĠN ad
Ġpie ÅĨÄĵm
ĠÅ¡ oreiz
Ä«z u
osm Äģ
Ġdec embrim
Ġpolit ikÄģ
alas as
ĠAndr Äĵ
ĠKal p
ĠNacionÄģl o
ĠEir Äģzijas
Ġpac Äĵl
ĠmÄĵÄ£ inÄģjums
ĠUr b
ĠpÄģrsp Äĵja
p Äĵd
Ġm anu
ĠP C
ĠP iltenes
om us
Ġ3 50
Ġsav os
Ġbr em
Äĵn os
skat a
Ġ36 0
Ġsasniedz is
Ġbur t
Ġnem ier
Ġmaksim ÄģlÄģs
ĠtieÅ¡ Äģ
ĠSup er
ĠLeon Ä«ds
ĠIndividu ÄģlajÄģ
ĠPiln varu
M us
e u
Ġv arbÅ«t
Ġd urv
ist ons
Ġ18 00
Ä«r Äģs
Ġin st
Ġveid oÅ¡anÄģ
Ġtik Äģs
Ġpret Äĵji
Å«v es
Ġan aliz
ĠKaz aÅĨas
ĠBel gr
Ġfot ogrÄģfijas
Ġhron ikas
ĠM aÄ¼
ĠR oÅ¾
isk ai
Äģd ijs
19 14
eri a
Ġvec o
ĠattÄ«st Ä«ta
ja ÅĨ
Ġav otiem
ĠmÄĵn esi
ĠbruÅĨ niecÄ«bas
Ġkamer as
Black hawks
m od
Ġiz vÄĵrt
ĠT echn
ĠJ ana
ĠBr at
ud o
ĠÄĮ Ä«les
ĠVÄĵstur iski
entÄģl o
Ġperson Ä«bas
Ġac s
ĠHol iv
ĠizstÄģd e
Ġbas Ä£
Ġjebkur Äģ
Ġapgr oz
Ġhorizon tÄģl
Ġkrim inÄģl
i gan
at iem
ic ip
ez era
Ġieguv Äĵju
ĠMin es
ÄģtÄģj s
ifik Äģciju
Ġatp azÄ«st
ĠAnd ersons
ĠreÅ¾Ä«m s
Ġdomin Äĵ
ĠVirsl Ä«gas
enbr ÄģÄ¼u
L okomot
T R
V is
h er
Ġ ed
in ens
ĠA sar
Äį uks
Ġtr oni
Ġvad Ä«jis
ĠpÄģrstÄģv ju
Ġpavad oni
Ġizplat Ä«ba
ĠX II
ĠNorvÄĵÄ£ ija
ĠvieglatlÄĵt ikÄģ
Ġmetr o
Ã¶ l
ĠapstrÄģd es
ĠÄ·ieÄ£ eÄ¼u
ĠStrad iÅĨa
Ġnavig Äģcijas
H R
Z em
ij iem
Ġl atu
il ovs
ak r
ĠT ieÅ¡i
Ġap aÄ¼
Ġliel os
ib ir
Ġolimp iskajÄģm
Ġvald Ä«bai
lai d
Ġnes a
Ġalb umÄģ
Ġies niedza
ĠuniversitÄģ t
Ġsitu Äģcija
Te am
ĠMuiÅ¾ as
g oÄ¼u
ag ar
Ġkar aÄ¼
ain t
Ġizveid oti
Ġab os
ĠmÅ«z ikÄģ
Ġme ta
ĠÅ½ em
Ġpunk ta
ĠAleksandr u
Ġinter eÅ¡u
Ġnogal inÄģts
Ġuzdev umus
ĠkÅĨaz a
ĠrevolÅ« cija
ĠreÅ¾Ä«m Äģ
Ġmobil o
Ġizb eig
ĠPazÄ«st am
ĠbudÅ¾ eta
ĠBra iens
ĠFren ks
" ;
M T
es ch
am iem
Å« tÄģ
br auca
Ġlab vÄĵl
Ġpiek Ä¼u
Ġkan c
ĠPil ots
ĠDzelz ceÄ¼a
ĠraÄ· eÅ¡u
Ġsint ez
ĠCetur tdaÄ¼
Ġspal vas
ĠGlob usa
ĠdÄ«z eÄ¼
ĠJek ater
% ).
4 00
il hel
ol is
Ġie sk
av Äĵl
Ġre formu
Ġmu tes
Ġdaudz uma
Ġdr Ä«kst
ĠEirop u
Ġpubl iski
Ġsacens Ä«bÄģm
Ġoper Äģcija
ĠÄ£imnÄģz iju
Ġkatr ai
Ġaizl iedza
Ġp ÄĵkÅ¡
ĠP ost
ĠK od
ĠM ug
ĠN ed
ic isma
Ä«r ija
ks s
Ġpret inieku
Ġpat r
ĠstÄģ sti
ĠKaln iÅĨa
ĠÄĴÄ£ip tÄĵ
skal o
ĠLSD SP
ĠJers ikas
Fly ers
B en
M eÅ¾
S on
ĠM Ä«l
Ġpils dr
vien Ä«ba
Ġieg Å«ta
ĠKon rÄģds
Ġsat uru
195 2
Ġtab ulÄģ
ĠpÄģrraid es
ĠÅ«deÅĨ os
Ġuzrakst Ä«ja
ĠSent lu
Ġos maÅĨu
ĠAnatol ijs
l pp
n ere
Ġ Å«n
au m
em ini
ĠD j
Ġuz celts
ah r
ans a
ĠÄ«paÅ¡ Ä«bÄģm
Ġnel eg
ĠpÄģrs niedza
Ġiest Äģjies
Ġtek sta
ĠApvien oto
ĠseÅ¡ i
Ġpiedzim st
Ġdiscipl Ä«nÄģ
Ġdiplom Äģts
ĠIet ilp
Ġvirk ne
ĠDemokrÄģt iskÄģ
aska ÅĨas
ĠErn sts
Ġpatv Äĵr
E E
m Ä«l
ie ts
Ġt akt
Ġsk udr
Ġreiz Äĵ
ait is
Ġsarakst Ä«ja
ĠbÅ«v Äĵt
ĠbÅ«v niecÄ«bas
ĠsÄĵr iju
ĠDiev mÄģtes
y on
ta k
em b
ĠB ak
Ġz Äģli
Ġsav ain
Ġpils nov
pr om
Ġrakst us
ing Äģ
Ġan trop
Ġpiekr it
ĠiestÄģd Äĵm
ĠpÄģves tu
ĠPart ija
ĠÄ·au Ä·is
ĠLeip c
N r
P ils
Ġl auz
Ġat omu
ĠF Ä«n
Ð° Ð·
niec i
inÄģj uÅ¡i
Ġaugst i
Ġliet otÄģju
Ġlid ostas
ĠbijuÅ¡ ie
aliz Äģcijas
Ġ186 2
Tr Ä«s
Ġpiekr ita
ĠnÄģv ess
ĠRezultÄģ tÄģ
ĠpÄģrtrauk ta
ĠnoslÄĵdz Äģs
Ġrest or
Ġnoraid Ä«ja
ĠAig ars
G L
G iro
J os
y an
Ġk auju
Ġat slÄĵg
of il
ah as
Ġvad oÅ¡ajiem
Ġvirz iens
ĠnÄģk otnÄĵ
Ġatgriez ies
inga p
Ġfron ti
ood Äģrz
ekm Ä«gi
Ġnej au
3 00
j az
Å¡ us
ĠS anta
ĠL R
Ġpr ogn
Ä· Äĵr
Ġgar ajÄģ
ter i
Ġmar at
ĠÄ«paÅ¡ nieku
Ġnes katoties
ĠVis liel
ĠkÄģrt Ä«bu
ĠJoh n
Ġrun Äģj
Ġprinc is
ĠinÅ¾en ieri
ĠkompozÄ«c ija
ĠAgr Äģk
agr Äģk
ĠRu dz
Ġsaj auk
ĠPag asta
ak Äģ
ĠT ulk
Ä«z Äĵ
ĠJaun atnes
Ġmod eÄ¼a
Ġpiemin ekÄ¼a
Ġierakst s
ĠproblÄĵm Äģm
Ġac u
Ġapmet nes
ĠStokhol mas
D A
n Ä«bas
Ġ est
Ġ itÄģl
Ġm embr
Ġpr Äģvests
19 15
ĠO h
uk tur
ĠKr it
Ġsas ta
te h
ver as
Ġbar Ä«ba
ĠRÄ«ga i
ĠPÄĵt ers
ĠoficiÄģl ais
Ġspr Äģdz
ĠreÄ£istr Äĵta
Ġrep r
Ġkontin enta
Ġdzimt ai
ĠHels ink
ĠKristi Äģns
h idr
Ġs est
ad em
Äĵm s
ist am
ĠDz in
ĠKar aÄ¼a
Ġatl iekas
Ġsh Äĵma
Ġfos il
I K
s il
Ġ Äģ
Å¡ ie
Å¡ ot
Ġl Äĵni
ĠP au
et ta
Ġkon tek
ĠsvÄĵt kos
ĠDÅ¾ons ons
ĠBrÄ«v Ä«bai
Ġapgalv o
n Äģk
Ġ18 50
val da
Ġpol im
Ġmaz s
og or
Ġvalod ai
ĠTr olejb
ĠmÄĵr oga
Ġsarakst Ä«jis
Ġizplat Ä«jÄģs
ich ard
ĠrÄ«k ojumu
ĠSm iltenes
ĠNat Äģlija
ĠHans s
ĠkapitÄģl daÄ¼u
c us
j ut
s alas
Ġs eÅ¡u
Ġv Äģji
an Äģ
ĠpÄĵc kara
Ġ12 00
Ġsl al
Ġvirs otne
ciem Äģ
ĠiekÅ¡ ÄĵjÄģ
ĠKaln a
ĠVair Äģkas
ĠIv an
ĠatbrÄ«v ots
iniec e
ĠpilsÄĵt ciem
ĠrÄ«c Ä«bÄģ
ĠTir dz
Balt ijas
S C
x d
Ġb and
ĠP Å«
Ġat las
ĠR omu
ĠlÄ«dz ska
ĠC oll
Ä«r iju
Ä«c ijÄģ
Ġveid otas
ust a
Ġpret inieka
Ġlab klÄģj
els at
Ġnes en
Ġpavad oÅĨu
Ġpies kait
ĠsociÄģl d
ĠblÄ«v ums
Ġcip aru
ĠBald ones
Ital ia
Ġ Ø§ÙĦ
ĠR im
br uc
Ġh aiziv
Ġzem gaÄ¼u
ĠdaÄ¼ iÅĨas
ĠfebruÄģr im
Ġpiemin Äĵta
ĠskÄģb ekÄ¼a
ĠmaÅ¡ Ä«nu
ĠFin anÅ¡u
ĠJÄģz epa
K arl
Ġk ir
ĠL op
ĠV Ä«l
Ä«n iem
Ġvar onis
oloÄ£ iskais
Ġapgabal os
ĠPie auguÅ¡
Ġplat s
onz e
ĠriteÅĨbrauk Å¡anÄģ
o id
am br
ĠK el
Ġ''' +
Äĵt ums
aÅ¾ as
ĠÄ«paÅ¡ a
ĠiedzÄ«votÄģj us
Ġrakstur Ä«gas
Ġkonc erts
Ġsvar Ä«ga
Ġdzej oÄ¼u
ĠspÄĵc Ä«gu
ĠatÄ¼ auju
M ac
ĠS ag
Ġc ara
Äģn ijai
Ġkar og
Ġgr Äģdi
Ġtr Ä«sk
itÄģ Å¡u
Ġme tÄģlu
Ġraj oni
Ġmod eÄ¼i
ĠkÄģp uri
ĠProfes ionÄģl
Ġiepaz inÄģs
maks as
ĠAtkar Ä«bÄģ
Ù Ĩ
Ġk Å«dr
en du
ĠL iesma
ĠR und
gan u
ĠpriekÅ¡ nieku
ĠÄ«paÅ¡ uma
Ġieg Äģja
Ġkomp ens
Ġrakstur ojums
ĠFI BA
ĠItÄģl iju
ĠÄ«s s
Ġcelt nes
Ġlau p
Ġtor ni
Ġost u
Ġkonta kt
Ġbrauk Å¡anas
ĠHr uÅ¡Äį
Rock ets
Ġteles kop
H enr
Ġz u
az ds
ec tion
ĠC es
Ġgr ie
Ġ18 56
sp ÄĵÄ¼u
Ġzem Äģk
Ġ11 2
Ġizveid ojas
Ġmaz o
ĠAp mÄĵram
ĠÄģr Äĵjo
Ġplat Ä«bu
ĠVÄĵl ÄĵÅ¡anÄģs
194 3
Ġbl oÄ·
ĠLond on
Ġzir gi
Ð· Ð´
Ġpriv il
ĠUl manis
ĠierÄ«k ota
on ta
Ġl amp
am us
ĠS astop
ap l
ĠD irk
Ġc ars
19 05
ei p
Ġh el
Ġdarb Ä«bÄģ
ĠBr as
Ġaustr um
ĠSÄģk oties
Ġorb Ä«tu
ĠuzbÅ«v Äĵts
Ġpad ev
ĠJeÄ¼ ena
VÄĵstur e
L ight
Ġd ejas
ĠP auk
ĠM etr
Ġpr opagan
ĠpÄģr a
ĠIn gr
ber t
Ġolimp base
pus e
ĠAmer ikÄģ
Ġrun as
ĠPÄģv il
ĠraÄ· etes
Ġ ein
Ġ Ñĥ
Ġ ÑģÑĤ
is ons
ĠS tÄģ
ĠD oma
Ġpr Å«Å¡u
ec ka
Ġ18 15
ant onio
Ġ10 9
otÄģj us
iks u
Ġpaz emes
Ġdi ap
ĠJoh ana
ĠreliÄ£ ijas
amm y
ĠRegul ÄģrÄģ
h ard
v eÅ¾a
Ġp ab
Ġ18 40
sp al
ĠtÄģd iem
Ġpies kai
Ġpiec us
Ġherc ogu
Ġik dienas
Ġatrast as
Ġsan Äģk
ĠImp Äĵrijas
Î¿ ÏĤ
ĠPubl ic
ovan ni
ĠZob enbrÄģÄ¼u
ĠKand avas
ĠMelbur na
Lin naeus
at om
ĠA BC
ĠK Ä¼av
ĠB iedr
ĠC AN
Ġne dz
ĠkÄ¼u v
Ġpiedal oties
Ġdienvid rietumos
ĠiespÄĵj ama
ĠZiemeÄ¼ rietumu
ĠpÄģrd ot
ĠRob ins
ĠsociÄģl Äģ
ĠspÄĵc Ä«ga
ĠnoslÄĵg Å¡anas
ĠkrÄģj umu
ĠtrÅ«k ums
ĠMÄģt Ä«tes
ĠMinh enes
ĠStrÄģd Äģja
Ġviedok Ä¼a
Ġmigr Äģcijas
Ġp Äĵta
ĠK em
ĠL ong
op inga
Ġkrust ojas
ĠJur id
Ġviel Äģm
Ġfunk cionÄģl
ĠproblÄĵm isti
ĠkompozÄ«c ijÄģ
pol ijas
ĠPrezid ents
ĠBlau maÅĨa
ĠIkÅ¡Ä· iles
r eÅ¾isors
Ġs e
ik ums
Ġap skalo
et am
ul aik
Äĵt ai
ĠAn im
Ð¾ ÑģÐº
Ġizveid es
ĠuzÅĨÄĵm Äĵj
Ġzaud Äĵjumus
ifik ÄģcijÄģ
Ġteor ijÄģ
ĠÄ¢e ogrÄģfija
ĠautomÄģt iski
ĠbrÄ« Å¾a
A ug
M in
M ercedes
Ġt Äĵli
ĠM ika
ĠD ÄģnijÄģ
ĠG oth
oÅ¡ iem
ka ÅĨas
Ġlab ÄģkÄģs
Ġmaz as
ĠMar ts
ied er
Ġskol Äĵnu
ĠaprÄ«l im
Ġfran c
Ġmaksim ÄģlÄģ
ĠatklÄģta is
ĠautomaÅ¡ Ä«nas
Ġvj l
Î ·
Ġ ~
Ġp und
ir i
tÄģ ns
Ġno ÅĨem
ĠS imp
Ġiz vÄĵr
Ġpar asta
Ġap val
ĠG ER
ĠpÄģr ÄĵjÄģm
oc es
Ġmed iju
Ġsam aks
ĠÄ¢ ener
ĠapkÄģrt nes
Ġtirdz niecÄ«bu
ird Å¾
ĠbÄģz i
Ġdiev kalp
ĠCÄĵs Ä«s
Ġlok omot
Ġiep azÄ«st
Ġklost eris
ĠZar iÅĨÅ¡
v Ä«r
in tÄģ
Ġb enz
ĠS es
ĠS Äģms
ĠK emp
ĠB aik
Ġuz raudz
Ġvien lÄ«dz
ĠÅł mits
Ġdr uk
Ġdr augu
le ts
ĠAnt onio
tais n
Ġneb Å«tu
ĠpakÄ¼ Äģva
ĠÅłveic e
Ġbalt krievu
Ġapvid us
Ġpropor cionÄģl
ĠmazÄģkumtaut Ä«bu
A val
ĠL ars
Ġiz glÄģb
ĠI TA
Ġ4 000
ĠÅł n
Ġ11 6
ĠÅ¡ah istiem
ieÅ¾ oties
Ġloc ekÄ¼u
ĠpieÅ¡Ä·ir tas
Ġnoris es
ĠInter es
ĠPÄģv ila
ĠDibinÄģ ts
ĠHidr ogrÄģfija
desmita jos
E B
Ð ķ
ĠA re
ap unk
ĠT ob
ĠKr asta
Ġ13 5
ĠTur Ä«na
Ġpiek Ä¼
Ġtemperat Å«rÄģ
ĠkÄ¼ Å«da
ĠnÄģk amÄģ
mar Å¡
ĠleÄ£ iona
ĠvieglatlÄĵt ikas
Can ucks
Ġkinor eÅ¾is
Ġfrak cijas
Ġserb u
ilhel m
y p
ã ģ
Ġ asar
Ġp Ä¼av
Ġs c
at os
ĠL aiz
os h
iÅĨ Äģs
âĢ İ
auc ot
Ġpil ot
Ġgais u
kal ne
Ġaizsar gÄģ
Ġkok os
Ġproc ed
Ġfiz ik
osfÄĵr as
ĠPÄģv ils
ĠVairÄģk kÄģrt
Ġle op
ĠÅħÅ«dÅ¾ers ijas
Î ¬
ĠK oh
ais tÄģ
ĠG il
ĠpÄģr gÄģj
ĠC eÄ¼Å¡
Ġkom Äĵd
Å«z a
ĠLe ons
ĠBÄĵr n
Ġcelt niecÄ«bu
ĠprofesionÄģl Äģs
Ġtram pl
Ġsil tÄģ
Ð»ÐµÐºÑģÐ°Ð½Ð´ ÑĢ
l apa
ĠM ig
av at
ĠB uld
Ġap gu
Äĵt iskÄģ
ĠC eÄ¼
Ġdzim umu
Ġiek Ä¼u
atÄ«v ais
ĠnozÄ«m Äĵja
umb a
Ġpublic Äĵjis
uj as
ĠMad agask
ceÄ¼ Äģ
Ġled Äģja
Ġguber ÅĨÄģ
ĠlielkÅĨaz s
ĠProfes ionÄģÄ¼a
W orld
at ne
ĠA sp
ĠM oh
ĠI ela
Ġz eltu
Ġdz iÄ¼i
ĠG av
ĠH en
ĠC ep
Ġkl inÅ¡u
ĠKat al
ogrÄģf s
Ġlauk s
Ġizd om
Ġorganiz Äĵ
Ġpievien ots
Ġ==== =
Ġprec iz
ĠIevÄĵroj amas
ĠVankÅ«v eras
ĠÐ¾ Ð±
ĠSÄĵl ijas
ĠSingl s
m ei
Ġb Å«dams
ĠA US
ĠV u
ĠM ain
ĠR ib
az ers
ĠC ir
Ġsk and
ub a
aÅ¡ vili
iÄģl s
ĠPas aul
ĠLiel a
Ġizp auÅ¾as
ĠStarptaut isko
Ġcent imetr
ĠSat ur
ĠHu ans
ĠDienvidÄģfr ikas
K az
c as
ga is
ĠR al
ĠR osa
ĠD ef
ĠPr ec
eks a
Ġnovad os
ĠTur aidas
ĠVil is
Ġkok i
ĠrÅ«p Äĵjas
ĠVec Äģ
ĠZinÄģt ne
ĠbrÅ«n as
ĠatvÄĵr ts
ĠvispÄģr ÄĵjÄģs
ĠkompozÄ«c iju
Ġolimpi Äģdes
Ġiemes la
ĠPÄĵd Äĵjais
L S
v Äģc
Å¾ ok
Ġpie v
ĠJ upit
Ġbr Ä«n
Ġh rom
ĠsÄģk usi
ĠAt brÄ«v
Ġbar oka
Ġizp aus
Ġindi ÄģÅĨu
Ġv aku
en st
en ens
ik ti
Å« b
ĠS ingap
ol Ä«ta
Å«r Äģs
ĠAn s
Ġpl Å«d
pr oj
Ð½ Ð´
Ġdep o
ĠpÄĵt nieks
Ġneliel i
finÄģl Äģ
Ġmel ni
Ġvirsp avÄĵl
B Äĵr
G A
J o
N BA
Ð £
al us
en berg
ĠP ats
ĠV Äģg
ĠT Å«r
Ġpar auga
Ġf arm
ĠH as
Ġkon t
Ġdaudz os
Ġliet oÅ¡anas
ĠsistÄĵm Äģm
Ġalb umus
Ġsm al
ĠBerl in
ĠÄ£ener ÄģÄ¼a
Ġnepiet iek
O tr
m o
Ġn itr
Ġd Äĵla
um e
ĠL Ä«gas
ĠT ap
Ġst obr
Ġaiz tur
ĠdzÄ«v ojis
Ġvad Ä«t
Ð½ Ð°Ñı
af a
ĠÅ½ or
vil k
ĠAustrÄģl ija
Ġbur tu
ĠnÄģv e
Ġproduk ti
Ġef ektu
Ġapj oms
Ġarhib Ä«skapa
ĠBan kas
ĠEkstr al
Lokomot iv
H awks
j ot
ĠB EL
Äģj ums
Ġpr ieÅ¾u
Ġcentr iem
Ġkam aniÅĨu
ator iem
ĠHer berts
Ð¾Ð» ÑĮ
ĠVidus j
ĠVen ecu
Ġizvirz Ä«ja
ĠCO VID
ĠjÄĵdz ienu
g old
ie ÅĨu
Ġk inote
an itÄģr
Å« Å¾u
Ġtr onÄ«
ĠKr ak
Ġier odas
ĠnovÄĵr otas
ĠLiv e
ieviet es
Ġatp al
Ġdirekt ora
Ġskaidr i
Ã³ n
ĠAntarkt Ä«das
ĠmedaÄ¼ Äģm
ĠpolÄģrstac ija
ĠHercegov inas
l id
at Äĵ
Ġt eic
ĠE iÅ¾
Ġne ir
Ġ17 0
eb ook
Ġnovad i
ĠvÄĵstur isko
Ġsek as
ĠBar celona
ĠpakÄģp Äĵ
ĠreÄ£istr Äĵts
tec is
Ġminer Äģli
ĠKolor Äģdo
g atav
k Äģjas
m aj
Ġl eju
ĠK aug
ien tÄģ
ĠI b
ĠÄįempion titu
Ġdien estu
Ġstr Äģvas
Ġaut oriem
ĠTur ku
Ġatrad nes
ĠrÅ«p nÄ«cu
Ġsin dr
ĠGun tis
ĠFlor idas
ĠRem ix
ĠJaunzÄĵl andes
ĠaprÅ«p es
ĠBurt nieku
ĠVingr oÅ¡ana
ĠJevgeÅĨ ijs
: :
M I
T el
a o
l ikt
m ers
s ilver
Ġt orn
en skas
ĠS i
ĠS to
ĠM ez
ĠJ PN
ĠÅ¡ auj
Ġne ies
ĠdaÅ¾ Äģs
Ġdr Äģmas
akt is
Ġekonom ikÄģ
ĠdÄģrz a
Ġanal Ä«ze
tec e
Ġkuk aiÅĨu
ĠValmier Äģ
ĠnosÅ«t Ä«ts
ĠatkÄģp ties
ĠsÄĵkl Äģm
ĠPic tures
ĠbruÅĨur upu
Aval anche
r us
Ġv Äģv
ĠJ as
Ä«t Äĵ
Ġkar os
ĠIz c
ĠKriev ijai
ĠrezultÄģ tiem
bil isi
ĠnodroÅ¡ inot
ĠapdzÄ«v o
Ġord enim
ĠÅ¡Ä·Äĵrs oja
ĠDÅ¾eim sa
Ġalfab Äĵta
ĠRef er
ĠStaÅĨ islavs
N ov
T F
ot er
iz u
Ġat deva
Äĵr p
op oles
las a
ain e
ern s
Ġmod ul
atl ons
Dz Ä«v
ĠViÄ¼ akas
ĠgÄģj ienu
ĠsastÄģ da
Ġparas tÄģ
b ez
m iera
Ã «
ĠL azd
ĠB RA
ĠR et
it als
Ġkar tÄĵ
ob usu
auk as
ĠdzÄ«v niekus
ug g
Äģz Äĵ
ask as
Ġvec Äģs
Ġsag Å«st
ĠSpÄĵl e
ĠziÅĨ ojumu
ĠievÄĵroj ams
odr oma
ĠiegÅ« Å¡anas
ĠpaÅ¡reiz Äĵjais
Ġreorganiz Äĵja
Ġintel ektu
J azz
r Äģ
Ð Ĺ
Ġs edz
Ġs oÄ¼
Ġb Äģka
Ġm ieru
im ans
ĠN K
br onze
ĠH UN
ĠAl i
tÄģl s
Ġakt ieru
Ġkaln iem
ĠDzim usi
ĠattÄĵl Äģ
Ġbl ok
ĠiznÄ«c inÄģja
Ġmug ur
Ð¸Ðº Ð¾Ð»
Ġtvai ka
Liep Äģjas
ĠVils ons
) '',
- )
H e
c entr
l ine
il b
ĠP ac
19 13
ma hers
ĠSt Ä«vs
Ġskol Äģs
Ġstud Äĵjis
Ġkult Å«rÄģ
ĠreÄ£ion i
ĠÄ¢ ertr
ĠaktÄ«v u
Ġsamaz ina
Ð°ÑĤ Ð²
ĠÄªpaÅ¡ i
Ġkonstruk cijas
ĠiekÄ¼auj ot
O t
h auz
w a
Ġ qu
en us
dz i
Äģj oties
19 10
Ġ18 02
Ġkop as
Å«s a
Ġnev iena
Ġeksp ort
Ñĥ ÑĤ
Ġkan cel
ĠRob erta
Ġkontrol Äĵja
Ġkategor ijÄģs
Ġlaikme ts
bo x
ĠBaznÄ«c a
Ġkaps ÄĵtÄģ
ĠiekÄģr ta
ĠKriÅ¡ j
ĠtÄĵr auda
2 10
A g
Ġv eter
ÅĨ ep
ĠS W
ĠM ets
ĠM Å«z
Ġj ut
Ġf ona
Äĵt us
Ä«n ai
aÅ¾ ieru
ĠAr k
Ġvid um
uz ÅĨÄĵm
ĠmÄģc Ä«jies
Ġkosm iskais
ĠvÄĵrt Ä«gÄģko
ĠX VI
ĠSm iÄ¼
ĠDaudz as
ĠreÅ¾Ä«m u
ĠlidmaÅ¡ Ä«na
Ġspiedien u
ĠAustroun gÄģrijas
ĠDist anÄįu
ĠKÄĵn igs
ĠnÄ«derl andieÅ¡u
, ''
M il
i ana
Ġt aks
Ġm Ä«k
ta g
aj eva
Äį os
ob a
ĠAr he
Ġpret ÄĵjÄģ
ĠBal s
Ġdal Äģs
Ġties ne
Ġizd ot
ĠVec r
ĠapdzÄ«v oja
Ġdesmit gad
Ġatrod ami
Ġkalend ÄģrÄģ
anz as
Ġjum ta
Ġiestud ÄĵjumÄģ
ĠHelsin ku
Ġportu gÄģÄ¼u
H or
Ġp ienu
Ġj Äģm
ĠE manu
Ġne iet
ast ies
Ä«l ijas
ĠsastÄģv u
istÄĵm a
istÄĵm u
ĠUz bek
ĠatseviÅ¡Ä· a
Ġzvaigz n
Ġfabr ikas
liet as
Ġdramat urgs
Ã± a
Ġhier arh
ĠMines otas
at ed
an ia
ĠL ink
av Äģs
ĠT ak
Äĵr as
Ġc irk
Ä«n am
Ġ4 50
ip p
ni a
Ġaut ora
Ġsu ÅĨu
Ġties Äģ
Ġstud enti
ĠLiv onijÄģ
Ġsadal Ä«ts
ĠPadom e
mal a
ĠatseviÅ¡Ä· Äģs
ĠiekÅ¡ ÄĵjÄģs
ĠgÄģz u
ĠPj Äĵrs
Blu es
Ġnopost Ä«ja
ĠNa gano
Ġlocekl e
5 00
K om
P istons
ĠA Å¡
un du
ov ka
ĠC Äĵz
Äĵta jÄģm
Ġatr asti
Ġ11 7
Ġmaz Äģ
Ġviet nieku
Ġel ast
Ġnev ienu
Pr ogress
Ġmain Ä«jÄģs
ĠMal aiz
ĠattÄģl ums
Ġdokum entÄģlÄģ
Ġliec Ä«bas
ĠimpÄĵr ijai
ĠiegÅ« ts
fal o
S im
V lad
Ġp ud
st Äģk
Ġm er
Ä¼ ot
ĠV irdÅ¾
ic o
br Å«n
Ġlai c
ĠÅł eksp
Äģv s
Ġvis p
Ġdarb iniekiem
Ġgal da
Ġizmant oÅ¡anas
le x
ĠLe afs
Ġtirdz niecÄ«ba
ĠtieÅ¡ s
Ġaizsardz Ä«bai
Jaun Äģ
ĠpavÄĵl Äĵja
ĠreÄ£ionÄģl Äģs
ĠSlov Äĵnijas
ĠÅ«denskr it
O s
Å Ľ
Ġs Äģn
Ġl it
ot ips
Ġno apaÄ¼
ĠK Äģrs
ul tu
Ġliel h
Ġvis tic
Ġpat ska
Ġuzskat Ä«ti
tic Ä«b
pus dienÄģ
ĠvÄģrd nÄ«ca
eis ons
Pr ov
Ġpiemin Äĵts
ĠnepiecieÅ¡ ami
Ġnogal inÄģti
ĠSm il
Ġkons ult
Ġarhitekt Å«ra
ĠpasÄģk umu
Ġmis ija
ĠizstÄģd es
ĠsÄĵk las
Ġkoeficien ts
iceÄįempion i
O M
n im
t ona
Ġs Äĵ
in Äģcijas
ti ons
Ġkr iet
ĠO ut
Ġ11 4
Ġgar ais
Ġlab s
Ġsim etr
ĠpÄģrd oÅ¡anas
Ġien Äģca
Ġlat gal
Ġpras Ä«bÄģm
agu e
Ġkongres a
ĠsultÄģ ns
ĠBalk Äģnu
P er
Ġt oks
ot Ä«bas
ĠS or
ĠL ill
om ed
Ġ''' .
ĠI F
ag iem
Äĵn us
Ġkomand Äĵja
otr op
uss ia
ĠKatr Ä«nas
Liel ais
ĠKub as
Ġapbed Ä«tie
Ġpadar Ä«ja
Ġansamb lis
ĠAmsterd ama
K Äģ
V A
d iÅĨÅ¡
g Ä¼i
Ġm aiÅĨu
ĠA uk
Ġie kr
Ġiz ÅĨem
op erat
19 07
up i
Ġ24 0
ĠKl em
Ġsat r
Ġkam era
Ġinter n
ĠPils Äĵtu
darb u
ĠizvÄĵl Äĵts
Ġorb itÄģl
Ġizviet oti
ĠKam Äĵr
ĠKatr Äģ
ĠTÄģl Äģk
ĠJanvÄģr is
Ġdur vis
ĠTirdz niecÄ«bas
Ġv ilt
Äģr ie
ĠM Äĵrs
Ġpie veic
ĠÅł Äģds
ans s
Ð° Ð´
ĠAp gabal
Ð» Ñı
ĠjanvÄģr im
Ġraj oniem
Ġaizsar ga
cel Å¡ana
ĠDienvid amerikÄģ
''''' .
ĠBl azers
Ġekonom ists
Ġform ul
ĠnepiecieÅ¡ amo
Ġsimbol iem
Ġneiz mant
use um
Ġnomet nes
Ġbas ein
ĠpiekÄģp Äģs
ĠÄ«slaic Ä«gi
ĠÄ»ub Ä¼
G er
l ing
t ei
ĠL igz
Ġap kalpe
sk y
19 16
up s
Ġatr asts
ĠÐ Ń
ug v
ter u
ĠW elt
ĠJaun j
Ġneatkar Ä«gu
ĠUkr aina
Ġdzej nieki
Ġrind Äģ
pil i
ĠRÄĵzek ne
Ġvojevod istÄĵ
Ð¡ Ðł
Ġmazu Ä¼us
Ġdub ult
Ġreak cija
ĠTehn iskÄģs
po ol
ĠVies Ä«tes
ĠnepÄģrtrauk ti
ĠSoltleiks itija
E D
G ut
Ġs aista
au Å¡anu
ĠR ak
Ġc ietu
ag er
ĠÅł ai
Ġ12 1
ĠW ay
Ġliet otÄģja
ĠapakÅ¡ ÄĵjÄģ
ĠMaz ov
ĠNik o
Ġiga u
ĠizpÄĵt e
Ġaizsardz Ä«bÄģ
ĠGust ava
ĠgrÄģd us
Ġatzin Ä«bu
ĠÄĮer ÅĨ
d Äģm
n Äģm
Ġt Å«lÄ«t
Äį uk
Ġ18 25
ĠAr ist
ĠÅ¾ ud
Ġgu dr
Ġsabiedr oto
Ġzaud Äĵ
Ġizl Äĵma
ĠizstrÄģd Äģta
ĠiepriekÅ¡ ÄĵjÄģs
Ġfak ti
ĠadministratÄ«v Äģ
ĠapmÄģc Ä«bas
ĠapdroÅ¡ inÄģÅ¡anas
Ø ©
Ġp ist
Ġl Äĵ
Ġb itu
iz ÅĨemot
ĠS aus
ĠL ov
ĠV i
ĠT eh
Ġz a
19 08
umÄģ ÅĨu
Ġne es
ĠBr it
ud Äģrz
ĠÄ¼ audis
ĠattÄ«st Ä«ties
ond o
ĠizstrÄģd es
ĠÅ¾urn Äģlu
ĠKaln ciema
St ar
ĠHar alds
par asti
Ġizst iep
ĠÅ¡Ä·idr uma
ĠStrÄģd Äģjis
Z A
Ġ Å«dr
Ġd ots
Ġvien Äģda
Ġne gaid
Ġsai mes
ĠPr im
ch er
Ġliet oÅ¡anu
ĠbaznÄ«c ai
Å«z as
Ġkonf igur
Ġform ulas
Ġpublic Äĵti
ĠesoÅ¡ ie
ĠÄ·Ä«m isko
ĠViÄ¼ ÅĨÄģ
ĠBÄĵrz iÅĨa
Ġpieaug ums
ĠPh il
ĠMeier ov
m eni
or ia
ĠM and
ĠD VD
Ġj en
ĠZ f
ĠÄģr stu
Ġsm alk
Ġzaud Äĵjums
ĠpazÄ«st ami
ĠMa o
ĠmateriÄģl s
Ġsarkan o
ĠAlÅ«ks nÄĵ
Ġneveiksm Ä«gi
Ġpasnieg ta
Ġkriti Ä·u
ĠdÄģr g
Ġlokomot Ä«v
v ir
Ï Ģ
ĠK aukÄģza
ĠT ips
ĠT bilisi
Ġsk otu
Ġliel iem
Ġh arm
oz s
Ġrakst nieka
ĠpaÅ¡ pÄģr
Ġorgan ismÄģ
Ġop tim
Ġmuz eju
Ġprec Äĵjies
Ġvieglatl Äĵti
Ġfestiv Äģla
Ġfos f
ĠVD K
ĠArÄģb ijas
ĠveÄ£ etÄģ
Ġdiap az
P Äĵd
u ta
Ø ¨
Ġm Å«r
Ð° Ðº
ĠÅ¡ah istu
Ġgar ant
ĠSt and
Ġmaz liet
Ġuzvar ÄĵtÄģja
Ġpadom Äĵ
ĠattÄ«st Ä«t
ja Äįes
Ġpla Å¡as
Ġpopul Äģra
ator iju
ĠÄ«s as
Ġatst Äģt
Ġfron te
Ġkolon iju
Ġhron ikÄģ
ĠjÄĵdz iens
ĠglÄģb Å¡anas
ĠCent er
ĠDzint ars
k er
Ġk oÅ¡i
ĠS ven
ĠH D
ĠZ Ä«m
Ġtr Ä«sp
Ġmin Å«Å¡u
aur u
ĠBal tic
Ġkap u
Ġats eg
ĠoficiÄģl o
ĠVid es
Ġelem entus
Ġpabeig ts
ĠPart ijas
Ġizmekl ÄĵÅ¡anas
ĠRol ands
itÄģt Äĵm
ĠReÅ¾is ors
E P
Å ª
is ion
Ġs us
iz s
ĠB Ä«r
Ġpie st
Ġaiz d
re is
uc iem
Ġsiev ieti
Äģves ta
ĠLosandÅ¾el osÄģ
desmit o
ĠpieauguÅ¡ o
ĠdaiÄ¼ rad
ĠCÄ«r ih
ĠCor por
ĠÄ¶ek avas
ĠSÄģms alas
K ol
R h
S om
Ġun ivers
Äģr st
tr ol
ĠJ ack
ist ei
str um
vien Ä«bu
ĠKat ra
ĠLiel Äģk
Ġliet oti
Ġizd oti
Ġbiedr iem
ĠDauga vu
ĠÄ» v
ĠspÄĵc Ä«gas
Ġost Äģ
ĠArm ijas
Ġlaikrakst s
Ġpavasar a
Ġsign Äģla
urÄ£ ijas
ĠPeld ÄĵÅ¡ana
ermÄģ ÅĨu
ĠParal Äĵli
å ¤
Ġ amer
Ä« Äįu
Ġs odu
ij evs
ĠK aÅ¡
os ies
ĠR at
ĠJ uni
ĠZ os
ier e
Ġvir sl
Ġdat ors
Ñĥ Ð±
ĠÄ¢ irts
Ġmon tÄģ
finÄģl i
ĠkrÄģj umi
ĠaÄ£ent Å«ra
Ġinf ekcijas
R ud
l ines
on ti
Ġno kl
ĠB ert
ĠD istr
Ġf og
sk e
Ġin ov
Ġbr ies
iÄģl u
Ġveid oÅ¡anos
ĠPr oduc
Ġas inis
Ġnod ota
ĠvÄĵstur iskÄģ
Ġklas ifikÄģcija
Ġizpild Ä«tÄģjs
ĠTor o
Ġmel od
Ġneap mier
lÄĵk Å¡anÄģ
Ġsasl Äĵg
Ġbase inÄģ
Rob ert
ĠriÅĨ Ä·a
aver icks
Ġfolkl oras
Ġizraudz Ä«jÄģs
Z vaigÅ¾ÅĨu
Ġs Äģniem
Ġ18 39
of iz
Ġaugst ienes
ĠMar ta
ĠIgaun iju
ĠSÄģk otn
Ð¸Ð½ Ð°
ĠÅ¾urnÄģl isti
uÄ¼ Ä¼u
Ġkompleks a
ĠscenÄģr ists
ĠUzvar a
latv ieÅ¡u
Ġieros inÄģja
ĠStat istika
d iem
Ġd aba
Ġl auc
Ġm ut
ĠP lay
ĠM em
ĠM Äģrt
19 06
Ġg lu
ĠAn astas
Ġter ap
.) '''
ĠKop enhÄģg
ĠmÄĵr en
Ġiel ejÄģ
Ġtel e
Ar t
ĠVair Äģki
Ġnoz are
ĠnesÄĵjraÄ· etes
ĠPil skaln
Ġef ektiv
ĠÐ¿ ÑĢ
ĠierÄ«k oja
ĠSad raudzÄ«bas
Ġpadz iÄ¼
Ġmolek ulas
ĠDund agas
h ip
m ekl
ie Å¡anai
Ġt vert
om in
id Å¾i
ĠJ Äģn
ed u
iev Äĵr
Ġsl ud
Ġnep r
ĠvÄģc ieÅ¡u
Ġlid apar
ĠlÄ«g umÄģ
Ġviegl Äģk
ĠakadÄĵm iju
Ġstart Äĵ
ĠbrÅ«n s
Ġsarun u
ĠBeÄ¼Ä£ ija
Ġkaul u
Ġkv antu
ĠKarl oss
ĠMaÄ·ed onijas
K a
b ija
ij os
al da
Ġl akst
ĠL auk
ĠR aÅ¾
ĠH ir
Ġkl us
Ġpamat nes
Ġizdev niecÄ«ba
Ġsarakst u
ĠStr au
ĠrÅ«p nÄ«cÄģ
Ġglez nu
Ġsimbol i
Ġpaliel inÄģt
Ġkategor ijas
Ġapkalp es
Ġarest Äĵts
Dauga v
ĠKrÅ«m iÅĨÅ¡
Ġnepiedal Ä«jÄģs
F lam
Ġl omÄģm
Ġb urv
ĠS oc
ĠV isk
av ad
ĠT aiz
ĠD alasas
Ġf Ã¼r
Ġsav s
ĠsÄģk um
Ġma ina
Ġneat z
Ġredz ami
Ġobj ekta
ĠsÄģkotn ÄĵjÄģ
Mag ic
L et
M er
M ik
R ub
Ġ amb
Ġt Äĵm
in Äįa
er na
Ġl andes
Ġm Äģla
ĠK air
ĠT iem
sk an
ĠÄĢ bol
ig m
ĠInd ia
Ġgalvas k
ĠatseviÅ¡Ä· os
ĠBen ed
Ġtab ulas
Ġraid Ä«jumu
ĠbrÄģ Ä¼iem
Ġtaut Ä«bas
Ġcietoks nis
ĠriteÅĨbrauc Äĵji
ĠAfgan istÄģnas
Ġvij ol
Ġrekl Äģmas
w e
Î ¼
ar os
Äĵj uÅ¡as
Äģj iem
op er
it Äĵ
ĠG v
ing i
Ġnod ar
ĠÄģr ÄĵjÄģs
Ġizr Äģdes
inu x
Ġtrad Ä«ciju
Ġmekl Äĵt
ĠTÄĵv iÅĨi
ĠviÄ¼ ÅĨu
Ġlaul Ä«bas
ĠBavÄģr ijas
L U
R iet
Ġn est
ur b
os worth
tr auc
Ä«g Äģk
Ġval da
ĠBr od
Å«s as
Ġsavien ojums
Ġkonc ertu
ĠSen ajÄģ
ĠKor ejas
Ġsadarb Ä«ba
ĠpÄģrvald Äĵ
ĠbrÄģ Ä¼a
kom it
Sen ators
Cap itals
ĠRÅ«j ienas
D er
o us
Î º
Ġs n
Ġn atur
Ġl op
ol us
Ġc ien
Ġz ebr
Ġz oodÄģrz
ĠN ek
ĠN ils
Ġtr ib
ĠPr es
Ġmaz Äģkas
ĠiespÄĵj amo
ĠreÅ¾is ora
ĠJur j
ĠfakultÄģ te
Ġred uc
ĠEz erÄģ
auks mes
ĠKazim irs
Kriev ija
V isu
r Å«p
ot ehn
ĠM ay
ĠB ai
ĠT um
Ġvien tuÄ¼
ĠVid Äĵjais
Ġatst Äģj
Ġcent er
ĠuzvÄģr di
ĠÄ·Äĵn iÅĨÅ¡
ĠpriekÅ¡roc Ä«bas
kub Äģcijas
G u
M e
Î ¯
au Å¾
Ġap kar
Ä«g Äģkajiem
Ġg ulb
pr inc
Ġmaz ÄģkÄģ
istÄĵm as
ĠpalÄ«dz Äĵt
Ġkonf likt
ojoÅ¡ Äģ
Ġpiec Äģm
ĠmateriÄģl us
ĠjautÄģj ums
ĠJans ons
ĠValdem Äģrs
Ġdiz aina
Ġlabor atorijas
Ġnopiet ni
Ġpretest Ä«bu
ĠFebruÄģr is
Ġpiespie da
Ġmun icip
Ġkapitu l
ĠÅ½em ait
ĠCorpor ation
' ,
ai ka
ĠA fr
Ġiz ot
ĠT irg
ĠD ig
ĠH od
Ġkop iju
ĠDz j
Ä«p aÅ¡
Ð½ Ñı
Ġatkl Äģtas
Ġbar oÅ¡anÄģs
Ġplat uma
Ġsm ilt
Ġstarptaut iski
oÅ¾ a
ĠEn c
for ds
Ġik vien
ĠvÄĵst nieks
ĠapstÄģk Ä¼u
Ġizgatav ots
ĠbibliotÄĵk u
ĠViljams s
Ġpamatskol Äģ
Ġ% ).
umbr iedumu
Ġpieredz i
Ġmetod Äĵm
G emini
ĠA G
ĠP la
Ġie nes
Ġj omÄģs
ul us
sk o
ĠE br
ĠE ls
Ġ12 6
ĠAr ch
Ġliet ota
Äĵz d
Äĵz Äĵ
Ġme Ä£e
bur gs
Ġpiln Ä«gu
ĠmÄģt Ä«tei
Ġsnie dza
ĠpÄģrcÄĵl ies
ĠJÅ«rmal a
Ġpir am
Ġsekm Ä«gi
ĠÅłÅ« mahers
Ġprivil ÄĵÄ£
Ġkinote Äģtr
A br
S B
Ġ Äģdu
Ġs ienu
Å¡ in
Ġn an
Ġd iska
ĠA ks
ĠK aÅ¾
ĠL ok
ĠB eÄ¼
ĠD ÄĵjumÄģ
ov o
Äį o
eÄ¼ Ä¼u
Ġlab dar
ĠtÄģd us
ĠÅ¾ ur
Ġdom e
ĠreÄ£ion iem
ĠMaz ais
Ġiedal Ä«t
ĠIg n
ĠnorÄģd Ä«ts
Ġvirk ni
ĠTat jana
Ġsist emat
Ġnark ot
C arl
U l
u Å¡u
Ġs om
Ġie bÅ«v
Ġz Ä«da
Ä£ es
19 11
Ġkar iem
Ġvien i
ĠÄį akst
Ġak cion
ĠAr kt
Ġal um
pils Äĵtu
Ð¾Ð ·
ĠKon ven
Ġatrad a
ĠÄįetr os
Ġprofes ora
Ġtagad Äĵjo
Tr ail
ĠspeciÄģl ists
Ġpac eÄ¼as
ĠÅ¡aur slieÅ¾u
ĠDÅ¾ord Å¾a
ĠGais mas
put ns
ĠPÄģrstÄģv Äĵjusi
Ġkated ras
Dev ils
Map le
A A
Ġk aula
Ġl odes
ĠS C
ĠM og
iet o
ĠF lo
Ġfil tr
ÑĢ Ð°Ð½
ĠÄĮ ern
Ġvald e
Ġimp uls
ĠUz skait
skol u
Ġsek r
Ġpievien ojot
Ġveic inÄģt
Ġsadal Ä«tas
Ġredz es
ĠAlb uma
Ġizviet otas
Ġtramv aji
ĠkapitÄģ la
ĠGB R
Sup er
V Äģr
V id
b y
m ju
'' ''
Ġt aust
in er
Ġn Äĵs
ĠP agas
Ġap griez
Ġpie lik
ĠG ab
19 04
Ġh ar
Ġizp ilda
Ġsnie gs
Ġzir ga
Ġtop s
ĠpÄģrl id
ĠKatr am
ĠBu enos
ĠierÄ«c e
ĠizÅ¡Ä·ir tsp
ĠSabiedr iskais
ĠSacens Ä«bu
bet ona
j es
w ork
Ġp h
Ġl Äĵz
Ġm i
op t
19 09
Ġ18 06
aÅ¾ os
ĠÐ Ĺ
Ġ17 92
le Äį
ĠÅ½ aks
ĠJaun avas
ozÄ«c ija
Ġform ÄģtÄģ
ĠKrist ofs
Ġvismaz Äģk
ĠpienÄģk umu
Ġtramv ajs
Ġminer Äģl
Ġcep ur
ĠkaÄ¼ Ä·
ĠTÄĵrv etes
ĠFÄ«n iksas
Ġt auta
ĠA P
ol Å«
Äĵr k
Ġf ac
Ġf erm
ed im
Ġvien reiz
ens iju
Ġsas kat
ĠVil c
ang er
ĠSal a
Ġpoliti Ä·e
Ġform Äģli
Kr ist
laÅ¡ Äģk
Ġpuss ala
Ġprotok ols
Ġinfr ak
ĠmÄ«t ne
ĠVenÄĵc ijas
S tu
f e
an gas
Ġl Å«dza
Ġb iÄ¼
ek i
gr upa
ic ijas
ĠH es
Ġ18 57
ĠÅł am
ekt ori
ĠpriekÅ¡ nieka
Ġmil itÄģru
Ġliet otÄģjiem
elt en
Ġme Å¡ana
ĠdalÄ«b niece
Ġpiek t
Ġinterne tÄģ
Ġradi ostac
onÄ«m u
ĠKaliforn ijÄģ
Ġinici atÄ«vas
ĠGeorg ijs
ĠSarakst Äģ
ĠsadzÄ«v es
ĠHj Å«st
ĠHant imans
ĠHantimans ij
y y
å ¸
ÅĨ ak
ĠM oc
ĠB eidz
ul ozes
ĠpÄģr ceÄ¼
iev ien
ĠÄ£ ildes
ĠGr Äģv
Ġnep iln
ĠmÄģc Ä«tÄģj
ĠzinÄģm as
ĠMon ako
ĠmÄĵÄ£ ina
ĠslÄĵg ts
ĠVÄ«t ola
Ġair ÄĵÅ¡ana
ĠDag das
s e
v on
z y
Ġb o
Ġm aiÅĨa
or aj
ĠB aj
Ġveid ojusies
Ġpal icis
Ġdal Ä«jusi
tur e
ĠvÄĵstur nieki
Ġskr ej
Ġtehn oloÄ£
ĠbÅ«v niecÄ«ba
ĠCh rist
ĠCÄĵs is
ĠKarj eru
igh ts
Ġgrav itÄģcijas
Ġautosport ists
ĠitÄģl ieÅ¡u
C al
d abas
in Äįu
Äģr iju
ĠL og
ĠM ans
ĠM ON
ĠT autu
ĠN osl
Ä«v ais
ej Äģs
te Äįi
if a
Ġpat ur
Å«s s
Ġnes kaidr
ĠDien as
ĠceÄ¼ iem
ĠfinÄģl am
ĠRom an
ĠseÅ¡ iem
Ġfakt ori
ĠSK A
DÅ¾ ons
Ġdomin Äĵja
ĠAntarkt Ä«dÄģ
ĠtrÅ«k uma
ĠÄĮehoslovÄģk ijÄģ
ĠaizsargÄģj amo
ĠPavad onis
Ġkant ons
ĠJeruz al
Ġiedves m
Ġabs orb
g ers
Ġ ov
Ġl ieta
Ġ'' -
ĠV ak
Ġpas niedza
eim a
darb Ä«bu
land e
Ġinstrum enti
ĠRum Äģnija
ĠSerb ija
ĠAlfr eds
ĠCom m
ford as
Willi am
ĠFreder iks
ĠPits burgas
P ant
m am
p ur
p art
ĠK ant
ĠR eliÄ£
Ġz Äĵnu
Ġ17 72
ĠDÅ¾ on
Ġviet Äĵjie
ĠKon gres
ĠÅħ em
ĠMa ijs
Ġproduk cijas
Ġradio akt
Ġtelef onu
Ġgubern ators
ĠapakÅ¡dzim tas
ĠL eh
ĠT ais
Äģl ajiem
Ġap stÄģd
Ġdz eja
ĠN ational
veid Ä«gie
Ġkop ums
Ġdiv kÄģrt
pr iekÅ¡
Ð¸ Ð²
Ġjaun ajiem
Ġrad Ä«ta
Ġdi oks
ĠsaglabÄģj ot
ĠpÄģrm aiÅĨas
ĠnezinÄģm u
D av
k ak
r oku
ĠS emj
ĠK ust
dz iÅĨÅ¡
ĠlÄ«dz dal
ĠGr igor
oÅ¾ as
Ġbi ogrÄģf
Ġvers ijÄģ
Ġra Å¡anÄģs
Ġatbild es
Ġtrim das
Ġcik ls
ĠnorÄģd Ä«ja
Ġfig Å«ru
ĠSÄĵl pils
Ġatg Å«t
enÅ¡te ina
Ġnesta bil
N acionÄģl
Ġ ÑĦ
Ġk oru
er it
ĠV iceÄįempioni
ĠR aid
Ä«j umam
ĠH em
ĠzinÄģt ne
viedr u
Ġdom Äģm
ĠbÄĵr nus
Ġekonom iskÄģ
ĠVladim ira
Ġinstr ukt
Ġvilc iens
Ġsign Äģls
ĠiegÅ« Å¡anai
ĠDraudz e
ĠSc ien
ĠUzÅĨÄĵm uma
ĠBab Ä«tes
Ġklien tu
Ġnepar eiz
ĠatsÄģk a
ĠRodr ig
G re
S er
k las
Ġ evolÅ«
Äģ Å¡anÄģ
Ġs uns
Äĵj uÅ¡ies
el o
ĠR S
ĠpÄģr us
ac as
ens ens
te inis
Ð° Ð»ÑĮ
if u
Ġmaz ais
ĠizcÄ«n Ä«t
Ġieguv uÅ¡i
Ġorganiz ÄģcijÄģm
ĠDr Äĵzd
ĠMaz Äģs
Ġpasl ikt
ĠAut oc
ĠVilj ama
ĠviÄ¼ ÅĨa
Ġadres e
ĠMold ovas
ĠPÄģrdauga vas
ĠVesel Ä«bas
G az
Z ur
h ron
Ġv eda
Äģs a
il ija
Ġno dzÄ«v
ĠP ab
dz in
ĠV jaÄįes
iek ot
ĠH oh
Ġdzim tu
Ð° Ñħ
Ġ11 3
Ġnod ots
Ġliet oÅ¡ana
ĠLai m
ĠGal il
Ġklas ifikÄģcijas
ĠAb sol
ĠUzvar ÄĵtÄģji
ĠÄģrzem Äĵs
ĠSvÄĵt ku
Ġneil gi
Ġpalai Å¡anas
ĠTelev Ä«zijas
K am
l in
Ġ embr
Äĵ Ä¼a
is mi
il us
Å« ms
ĠA SK
ĠV entas
Å«r ija
ĠZ b
Ġ18 58
ma ÅĨiem
oc is
Ġvad Ä«tÄģ
vÄģr di
Ġlab Äģs
Ġnoteik ti
Ġiedal Ä«tas
ĠrÄ«k oja
qu es
Ġapt aujÄģ
ĠvÄĵ Å¾
Ġkukai ÅĨus
ĠkonstitÅ« cijas
ĠVarÅ¡ avÄģ
ĠLigzd oÅ¡ana
ĠEdm ont
ĠneizÅ¡Ä·ir ti
Light ning
M avericks
g la
Äģr os
ĠÅ¡ odien
ĠKat rs
Ġpret enz
ĠbrÄ«v ais
ang ard
ĠLab Äģkie
Ġmeln as
ÄĵjoÅ¡ ais
Ġtulk ojumÄģ
tec es
ĠBrazÄ«l ija
Ġaktiv itÄģte
Ġbumb u
Ġfig Å«ras
Ġkampa ÅĨas
ĠÅłar ls
ĠboÄ¼Å¡ev iku
Sparta k
ĠKlai p
ĠArhit ekt
id ge
Ġ18 20
ib a
Ġaug Ä¼u
ĠIz dots
Ġorgan isma
vald is
Ġsabiedr iskÄģs
Ġtehn isko
Ġsadal Ä«ti
An t
ĠX IV
ĠSas tÄģv
Ġmeist ares
Ġpriv at
ĠLin da
Ġvok Äģls
Ġrezid ence
ĠÅ¡Ä·Äĵp iem
ĠKristof ers
Sab res
F orm
Ä ĥ
Ġv ajÄģ
al Ä«jums
en ds
ĠL Äģcis
ek Å¡
ĠR ap
Ġc enas
ĠG ard
ĠF Äĵl
ĠlÄ« ci
Ġ18 19
Ġgal v
Ġ12 7
ĠmÄģc Ä«ties
ĠOr d
ĠapdzÄ«v oto
ĠiekÅ¡ lietu
ĠizvÄĵl Äĵties
Ġbals is
ĠPav asar
ĠAnd Å¾
ĠleÄ£ end
ÅĤ aw
ĠOÄ¼ Ä£
ĠPj otr
ĠplÅ«s ma
Ġsilt um
ĠavÄģr ijas
ĠSyst em
Ġmiljard iem
Char les
ĠHÄģbs burgu
ĠBuenos air
C entr
b Äģ
f ul
f abr
Ġt iev
ĠL eg
ti ÅĨas
ec o
Ġgal apunk
Ġbal eta
iÅ¾ as
Ġpal aista
Ġan atom
ĠÄ«paÅ¡ nieki
ĠLai kr
ĠpÄĵt niec
ĠEn ton
ĠatÅ¡Ä·ir Ä«gi
ĠLe Ä£
Ġekonom ika
Ġpiemin ekÄ¼u
Ġtitu lus
Ġizte ica
Ġatdal Ä«jÄģs
Ġapj oma
Ġtrij os
Rob erts
Ġekspluat ÄģcijÄģ
G ada
h ar
ar ova
Ġap bÅ«ves
ub s
Ġdzim uma
ĠÐ ¯
Ġ16 00
Ġlab a
ekt us
ĠpÄģrstÄģv Äĵjusi
fr ikas
ĠmeÅ¾ s
ĠX I
ĠapkÄģrt ni
Ġkreis o
istÄģ na
ĠÄ¼auj ot
Ġiebruk uma
ĠAir lines
Ġrezid enci
Ġdatub Äģzes
plan Äĵtu
G ust
H C
M ask
Ġ aÄ¼
ij e
Ġb is
ĠI N
ĠH osÄĵ
Ġnov ed
oc Äĵna
Ġpl auk
Ġpadom nieks
ĠnovÄĵr stu
ĠSa Å«da
Ġpublic Äĵta
ĠMat i
ĠziÅĨ oja
Ġizv ird
Ġatte ik
ĠPiedal Ä«jusies
ĠSpr ints
ĠMÄģt e
Ġnac istu
I s
d ams
Äģ Ä£
ga in
Ġt ilt
Ġd ubl
ĠP eri
ul ts
ĠpÄģr celts
Ġvien ojÄģs
ĠÅł ajÄģs
Ġliel ciems
ent Äĵja
iec as
ĠturnÄ«r i
ĠreliÄ£ iju
Ġiec er
ĠDÅ¾ord Å¾
Ġinteres i
Ġsepti ÅĨi
Ġapgalv oja
Ġuzl iesm
ĠNorm unds
ĠRoss o
ĠJÅ«n ijs
ĠTrad icionÄģl
l iem
n Äģs
Ġk uÅĨ
ĠL ot
ĠL ih
Ġpie pild
Ġsp uras
ag us
ĠÅł uma
Ġvis augst
Ġkon tein
Ġmaz d
Ġsta cijÄģs
ild e
Ġgais ma
ĠbrÄ«v ajÄģ
ĠSavien otajÄģs
Ġparedz Äĵti
ĠpanÄģk umi
ĠaktÄ«v a
ĠproblÄĵm ists
Ġnem az
ĠSport istu
Ġban kr
ĠdzÄ«voj amÄģ
Ġkukai ÅĨi
ĠbÄĵrn Ä«bÄģ
Ġton nu
ĠDur bes
ĠViest ura
Ġprefekt Å«ra
ĠpirmsÄģk umi
ĠSankt mor
_ _
Ġ agl
Ġs ird
ĠP SKP
Ġr angÄģ
Ġf e
ĠN Ä«c
ĠJ uh
Äĵm ija
ĠH old
Ġsk uj
Ġst imul
var Äģ
Ġvid ienÄĵ
ĠvÄĵr sta
ĠSta f
ĠatÅ¡Ä·ir Ä«gs
Ġsvar Ä«gi
ĠpieÅĨem ta
ĠuzÅĨem t
ĠvÄĵst ules
Ġlikvid Äĵta
ĠPÄĵd Äĵjos
ĠÐľ Ð¾ÑģÐº
Ġiep irk
Jaun ais
Ġtelef ona
ĠKandid Äģtu
ĠLeik ples
P A
Ø Ń
Ġp p
Ġs ena
Ġno j
ĠP en
Ä«g uma
Ġpie Ä¼auj
ĠJ ud
19 00
Ġ18 51
Ġliel umu
mas as
ĠBr es
Ġ14 5
og Äģm
Ġnod er
Ġsa gaid
ĠsistÄĵm ai
ou is
ĠreliÄ£ iskÄģs
Ã³ w
Val sts
ĠIzmant ojot
ĠEsp a
ĠgÅ«t o
Ġsadurs mes
ĠVjetn amas
Ġdiagn ost
Flam es
on ga
Ġl et
Ġl od
Ġr all
ĠM st
Ġj on
ĠÄĢr pus
Ġpag atav
ber gÄģ
Ġapm ÄĵrÄģ
Ġizdev umu
An na
ĠÄĴr gÄ¼u
ĠbrÅ«n a
Ġpakalp ojumi
ĠFor ce
ĠTai v
Ġpasniedz Äĵjs
ĠValst Ä«s
ĠdaiÄ¼ slid
ĠIns bruk
ĠJul ajev
ĠÅ¾ud ecs
S a
T er
gr up
Ġz iedu
ers a
ĠC oun
Ġsk ar
Ġliel l
Ġne ier
ven tus
nÄ«c Äģs
Ġizveid otu
ĠLiel ajÄģ
Ġnep astÄģv
ĠÄģr sta
Ġdeb ess
ĠiekÅ¡ ienÄĵ
ĠLielbritÄģn iju
Ġuztur ÄĵjÄģs
Ġzar iem
ĠkaravÄ«r iem
ĠKomun istiskÄģs
ĠBulgÄģr ija
Ġkriet ni
D ep
Ġs eni
Ġl Å«dz
Ġgad Ä«jumi
sk ara
ĠÅł ir
ig er
ain es
Ġol u
Ġpil nu
Ġvec Äģku
Ġzv Ä«ÅĨ
ĠApr Ä«lis
ĠStrÄģd nieku
ĠpÄĵr ti
ĠmÄģksliniec e
Ġprodukt us
Ġtras Äĵ
grÄģm ata
ĠSalÄ«dz inot
B ucks
T re
Ġn Äģtrija
Ġuz spr
Äĵr iji
ĠpÄģr dev
ĠZ iv
ĠO ber
Ġgr amat
Ġgr Äĵda
Ġsav dab
Ġprofes ionÄģÄ¼a
ĠdÄģrz Äģ
ĠÅ¡Å«n Äģm
ĠBau skÄģ
ĠierobeÅ¾ ota
ĠÐĽ Ð°ÑĤÐ²
ĠkonstitÅ« cija
Ġapciet inÄģja
ĠPÄ¼av iÅĨu
Geor ge
Ġasist ents
valific ÄĵjÄģs
Bill board
ĠÎ¼ m
E X
T ube
r isti
Ġv ii
ist as
Ġsas k
gl e
ĠDÅ¾ ozefs
Ġgalven ajÄģm
ĠspÄĵk os
Ġilg Äģk
ĠatÅ¡Ä·ir t
ĠapdzÄ«v otas
Ġierakst i
ĠSÄģk as
Ġiest Äģjas
Ġmeln ais
ĠuzstÄģd Ä«ti
ĠTor ÅĨak
Ġtelev Ä«zijÄģ
ĠPek inÄģ
Ġsavstarp ÄĵjÄģs
ĠBat ons
Ġdeklar Äģciju
ĠIÄ¼ ja
ĠIzpild Ä«tÄģjs
B ur
c ens
n ev
Ġt ums
ĠA M
ĠT Äĵr
ĠR aunas
Ġsp alv
ĠG und
ĠJ or
ĠH anzas
ĠC al
ĠO j
Ġgr uz
ĠU SD
Ġh an
Ġ13 2
Ðµ Ðº
Ġkosm odroma
ĠÄª s
Åł ahs
pas uga
emokr Äģti
Ġsub j
ĠVik ip
Ġgad ad
Ġno las
ĠS ai
ap strÄģd
av or
ais tes
ĠpÄģr ÄĵjÄģ
ĠKr eis
ĠKr ebs
Ð¾ Ñĩ
eb a
ka ÅĨu
ĠNe tÄģlu
Ġnop elniem
ĠgÄģj ums
Ġkilometr i
ĠRein hol
ĠMas u
Ġjum tu
ĠSept embris
ĠSebasti Äģns
ĠEndr Å«
ĠInteres anti
D an
Z v
Ä« Å¾u
Ġk Äģlija
Ġd isku
ĠK im
Ġat celts
ĠB irm
it orija
ĠI nese
Ġdz eju
Äĵm Äģ
Ġveid ojÄģs
ĠGr od
Ġlik umus
ĠEn ter
Bal tic
Ġner edz
ĠOktobr is
ĠÄĢgenskaln a
ĠHelsink os
Äģ ÅĨiem
en iem
Ġb arb
ĠB ens
ĠR eim
ĠD ru
et l
ĠF M
ĠH om
ĠÅł koda
ĠdzÄ«v Ä«bu
ĠIn f
Ġvec umam
Ġsac elÅ¡anos
Ġatkl Äģti
ĠSl av
Ġparedz Äĵtas
ĠMÄģr tiÅĨa
ĠSen Äģta
St ars
ĠmateriÄģl iem
Ġtip i
ĠBur g
ĠprofesionÄģl o
Ġstun dÄģm
Ġproduc entiem
ĠÄ£int is
ĠPers ijas
ĠFre im
Ġton nas
inter es
Ġstingr i
ĠDroÅ¡ Ä«bas
Isl anders
Ġvistic amÄģk
i Äģnas
n ozÄ«m
s me
Å¡ tÄģ
es as
ĠL TV
im irs
ĠM ant
ĠE lis
ĠH ugo
ĠC elt
ĠBr auc
Ð¸ Ð³Ð°
ĠAr ag
Ġatt Ä«r
Ġan ekt
Ġdzies mai
Ġbez maksas
ĠmÄģc Ä«tÄģja
ĠOtr o
ĠfinÄģl a
Ġkval itÄģti
Ġsasnieg umiem
Ġuzdev umi
muiÅ¾ u
ĠpÄģrtrauk t
ĠPek inas
ĠSkr Ä«v
ĠHenr iks
Ġraib um
O ne
R I
ĠS ik
ol iem
ol ves
ĠÅł ah
bal tu
Ġ17 5
Ġzem nieki
Ġjaun ajÄģ
ĠKar oga
Ġvec ticÄ«b
ĠÄ¶ Ä«nu
ĠAk mens
Ġprovinc Äĵm
ĠVien Ä«bas
Ġatbalst Ä«t
Ġsatiks mi
ĠdivÄ«z iju
Ġpilskaln a
ĠPan amas
Ġpo Ä¼i
ĠÄĵrÄ£ el
Ġklav ier
U p
Ġs ulf
Ġd ia
Å« Å¾a
Ġr em
Ä«r Äģ
akst a
of f
Ġpal ikt
Äģz u
Ġpil otu
ĠEl ectr
ĠInd ija
ĠCentr Äģle
ojoÅ¡ Äģs
ĠproblÄĵm a
Ġeks istÄĵ
Ġklim at
ĠTÄĵv s
ĠÅ¾an ra
kÄģj Äģm
fran c
ĠUzskait Ä«jums
W ild
p ag
em onijas
Ġf aÅ¡
ĠI M
ĠG ork
ĠH at
Ġ18 32
Ġtr ium
ens ijas
aÅ¾ i
Ä«d Äĵja
ĠAu gs
Ġsa ÅĨemot
Ðº Ð¾
Ġlid ot
ĠbrÄ«v mÅ«r
ĠKÄģr kl
okr iÅ¡
isc over
ĠÄ£e ostacion
Ġseg as
ĠslÄĵp otÄģji
Joh ann
Ġgod al
ĠPut n
out h
Ġpilson Ä«ba
Ġapg Å«t
ĠEdm unds
ĠbagÄģtÄģ k
Ġdeta Ä¼as
ĠKaÄ¼ iÅĨ
ĠLaiz Äģns
F ord
S w
z bruk
ar c
Ġl am
Ġiz vÄĵrs
ĠB erm
Ġf eld
ĠpÄģr u
ĠO des
Ġsk atu
ob e
ĠÐ £
Ġpl az
ĠÄ«p ats
ĠKÄģr li
ĠzÄ«m Äĵjums
oÄ£ ijas
Ġcetur t
Ġsapul ce
ĠIzra Äĵla
ĠLub Äģnas
ĠgrÄģv is
knÄģb ja
ĠjÄģv eic
y b
Ġl ip
ot ajos
ĠP Äģrt
ĠP ump
ĠK aujas
Ġie ÅĨemot
ĠB ig
Ġap guva
Ġdz ir
ĠJ uk
ez onas
Ġre tr
Ġ12 4
ĠBr Äĵm
Ġaug Ä¼iem
Ġiek ais
Ġpa gaidÄģm
Ġpievien o
Ġloc Ä«ta
ĠDaudz u
Ġpaliel inÄģjÄģs
Ġatte ikties
Ġprincip a
ĠPrÄģ gÄģ
ĠValent Ä«ns
ĠZol it
Ġnobals oja
ĠDzirn avu
ĠEspa Ã±a
C or
L ove
M ars
k ers
oj amÄģ
Ä· Ä«tis
Ġ18 21
ĠAl ans
Ġ17 93
Ġtik Å¡anÄģs
ud Å¾
Ð» Ð¾Ð²
ĠpÄĵt Ä«ja
ĠMask av
Al fr
Ġelektr iskÄģ
Ñı ÑĤ
ĠNov embris
ĠDaÅ¾ kÄģrt
ĠÅ¡t atu
ĠtÅ«r istu
oth er
ĠizcÄ« ÅĨa
ĠplÅ«s mu
ovi Äįu
Ġvulk Äģn
Ġpussal u
G O
m ena
n ai
ep e
Ġ18 37
ĠÅł Äģdi
ĠvÄĵl ÄĵtÄģju
Ġier a
Ġlab o
ĠpriekÅ¡ galÄģ
Ġpaz ud
Ġsak Äģvi
Ġdienvid daÄ¼Äģ
Ġplat forma
ĠnodroÅ¡ inÄģÅ¡anai
ĠizstrÄģd Äģts
Ġbrauc a
Ġmeist are
viel Äģm
Ġtop os
Ġautob uss
ĠUr ugv
tÄģk ais
Ġain avas
Ġur b
Ġkul ta
Ġkoled Å¾Äģ
ĠKlas ifikÄģcija
ĠtradÄ«c ijÄģm
ĠKons erv
J ames
p usi
Ġr anga
sp alv
ut is
val b
ent Äģs
Ġek sk
Ġpart ijai
Ġcaur spÄ«d
ĠmÄĵneÅ¡ os
Ġatst ar
Ġkandid Äģts
Ġzil Äģ
ĠskÄģb ekli
Ġser tif
ĠGre at
zinÄģt ÅĨu
Ġt ub
er to
ÅĨ evs
Ġl ekcijas
Ġsp ortu
Ä«v ie
ic t
ier o
18 93
Ġpal e
ĠdaÅ¾ os
Ġas ambl
Ġkosm opl
ĠlÄ«n ijÄģm
Ġzaud Äĵjot
Ġpel Äĵc
Ġbi Å¡u
ĠBrÄ«v Äģ
ĠpiedÄģv Äģjumu
ĠnÄģkam ais
Ġbiez s
ĠpÄģrsp Äĵjot
Ġare Äģla
ĠizmÄĵr u
ĠknÄģb i
Sal avat
ĠRit eÅĨ
Ġprogramm ÄĵÅ¡anas
ĠÄ¢ertr Å«des
l ies
Ġ Ä«ru
er ijs
Ġd edz
ĠP uÅ¡
ĠK iv
ĠL omÄģs
ĠD eju
Ġc itr
gu v
ĠlÄ«dz eklis
ei tu
ĠpaÅ¡ iem
man es
ĠpÄģrstÄģv i
Äĵjo Å¡u
Ġbez gal
sm i
Ġeksp res
Ġmet al
Ġmaks Äģt
ĠVair ums
ĠpÄģrviet oties
ism am
ĠPÄĵd Äĵjo
ĠpÄģrveid oja
ĠBol Ä«v
ĠsastÄģd Ä«ja
Ġpadar ot
d era
au stÄģ
iz as
im ik
ĠB aÅ¡
ab l
ĠlÄ«dz tekus
Ġdzim st
Ġkon dens
Ġnot iks
Ġdien ests
ĠSp ir
ikÄģ Å¾u
Ġpam iera
ĠAb u
ĠMih aila
tec i
ĠAustrum eiropas
Ġjos lu
ĠrÄģd Ä«tÄģjs
ĠPortug Äģle
Ġvarian ti
ĠcÄ«kst oÅĨi
ĠÄ·eiz ar
E k
I v
V it
at ans
ĠL Äģ
ĠR eb
ain ens
Ġstr auts
Ġjaun iem
Ġuzvar Äĵt
Ġbar os
ĠkuÄ£ us
Ġvirz Ä«jÄģs
Ġpublic ists
Ġkontrol e
ĠKor n
Ġatp az
ĠMih ail
Ġkurs us
ĠMark o
ĠIsl and
Ġpadz Ä«ti
ĠJak obs
ĠIndr iÄ·a
ĠMadon nas
Ġlejup iel
ĠReik enens
K A
Ġ ×
Ġk odu
Ġv aj
at ern
ga z
Ġd opinga
am Äģm
Ġar g
ĠT ark
Ġz aÄ¼Äģ
Ġne ie
zÄ«m e
Ġcentr Äģlais
Ġdr augiem
ekt iem
Ġma Äįu
ĠvÄĵr s
Ġnel ab
ĠOtr a
Ġamat us
ĠbÅ«v Äĵ
ĠVec um
ĠstÄģ d
ĠatÄ¼ auts
Ġpur vu
ĠlÄ«der iem
Ġdiscipl Ä«nas
Ġzar nu
Ġdokt ors
Ġelektron iskÄģs
ĠPazÄ«st ams
ĠSvar celÅ¡ana
ĠmÄģr ket
ĠVels as
Atl ant
B el
D i
s n
an nas
ĠK embr
Ġie jauk
Ġiz brauk
ti fic
et te
ĠG ars
ĠE glÄ«t
ion e
ĠZ Ä«v
Ġmed ikam
Ġkat egorija
ĠattÄĵl oti
Ġsaglab ÄģjÄģs
Ġaizvad Ä«tas
Ġvil k
Ð³ Ð¾ÑĢ
ĠuzbÅ«v es
Ġliterat Å«ru
ĠVien laikus
Ġpasl Äĵp
Ġstar ojuma
ĠizlÅ«k oÅ¡anas
ĠVolf gan
ĠAtbrÄ«v oÅ¡anas
D arb
m en
st ar
ai ts
Ġb io
ĠB obs
Ġc ena
Ä«n us
Ġbal vÄģm
Ġlik umiem
Ġizd od
ĠraÅ¾ oÅ¡anai
ow ski
Ġdzelz ceÄ¼
Ġkaln Äģ
ĠY o
Ġdzimta jÄģ
Ġtran sl
Ġjebk ura
ĠMÄĵn eÅ¡a
ĠSaul e
Ġsma ga
Ġdiz ain
ĠDec embris
ĠpÄ¼ avas
ĠCes vain
T U
g un
Ä Ł
st iem
ik tu
ĠA ija
ĠS Äģr
ak tr
ĠJ oz
Ġpas ts
Ġor ientÄģ
ing en
Ġaugst Äģ
ĠpriekÅ¡ lik
Ġpamat us
Ġvirz ienos
ĠOr deÅĨa
ĠattÄĵl us
Ġierakst Ä«ja
land o
ĠStud ijas
Ġfestiv Äģls
ĠJÄĵkab pilÄ«
Ġminim ÄģlÄģ
ĠportÄģl s
ĠStamb ulas
daÅ¾ Äģd
Rad io
G P
r en
Ä ħ
á ¸
Äģs u
dz Äĵs
ĠH ark
ĠZ g
Ġre ta
Ġ18 52
inÄģ tais
ib u
Ġkl ej
Ġaugst Äģka
Ġveik tas
Ġnop eln
Ġtran z
Ġkomis ijÄģ
Ġbiez a
Ġant Ä«k
Ġizteik ta
ĠTreÅ¡ ais
ĠÄªpaÅ¡ Ä«bas
Ġtat Äģru
H einr
Ð ¤
Ġl oj
Ġl Äģp
Ġb il
ĠP K
ĠL ig
Ġat oma
Ġz os
Ġkr Ä«t
ĠO g
Ġ18 46
Ġdzim uÅ¡as
ĠKar ogs
Ġnep Äģrs
ĠSv Äĵtais
ĠkÄģrt Ä«bÄģ
Ġfak tu
Å¡te ina
Ġvas aÄ¼
ĠÄ·Äĵn iÅĨa
ĠÄ£enerÄģl maj
ĠFebruÄģr a
ĠzemestrÄ«c e
Ġkinostud ijas
ĠTram v
ĠÄ¶em eru
ĠP ens
Ġr ÄĵÄ·
ĠÅ¡ aus
niek Äģ
ĠÅł Äģdu
Ġdzim tÄģs
pr oduk
18 97
Ġ13 6
ĠW est
est am
Ġieg Å«ti
Ġez eriem
Ġizd oÅ¡anas
ĠteÄģtr i
ĠmÄĵn ess
Ġpiemin ekli
Ġdes m
ĠpozÄ«c ijÄģs
ĠpaÅ¡vald Ä«bÄģm
spÄĵl Äĵs
ĠdroÅ¡ Ä«bu
Ġpaslud inÄģta
Ġlielmeist are
ĠvÄĵd ers
Ġvok Äģl
ĠHim al
Ġland tÄģ
K an
il o
ĠP edag
ĠV erl
Ġc Å«k
Ġpie Ä¼
ĠC ita
Ġsav ulaik
Äĵn ijÄģ
mu g
Ðº Ð¸
13 0
Ġeksp l
Ġspr intÄģ
ĠzinÄģtn iskÄģ
ĠAtl antas
Ġzvaigz ni
oy otes
Ġsagatav oÅ¡anas
ĠSim ons
ĠIman ta
ĠpÄĵr kona
Ġdebes Ä«s
ĠNom et
V ikt
ĠV eic
ĠV imb
ul Äĵ
Ġpie tuv
ĠF u
ov ai
19 03
Ä«n iju
ĠÅł Äģd
Ġne Å¾Äĵl
ĠtÄģ tad
Ġnot ikt
Ġpl Äĵtums
Ġgar o
Ġlab as
gal ven
Ġmon goÄ¼u
Ġform Äģm
ÄģtÄģj i
abei g
ĠAd am
Ġmeist aru
Ġparakst Ä«ts
ĠvÄĵst uli
ock ey
Ġpieej amas
ĠDiev n
Ġminer Äģlu
Ġizkl aides
ĠSaul kr
Ġizdar Ä«ja
Geor g
ĠTik mÄĵr
Ġkonfeder Äģcijas
ĠZiemeÄ¼Äģfr ikÄģ
ĠSkandin Äģvijas
ĠdisertÄģ ciju
V ir
j ur
st al
Äĵj ama
Ġ''' -
Äģj umiem
ĠN okriÅ¡
sk s
ĠE R
ĠZ iep
Ġdarb Ä«bai
Ġkop plat
Ä«s s
eik t
Ġ13 8
ĠIn ga
Ġpol ig
skat es
dev uma
ĠDzim ums
ĠLe opol
ĠnepiecieÅ¡ amÄ«bu
ÄĮ empion
ĠkopvÄĵrt Äĵjums
ĠkonstitÅ« ciju
ĠarhipelÄģ ga
ĠTib etas
ĠSyst ems
ĠOla ines
Ġgvar des
B ez
D C
W IM
n ed
v os
ot Ä«bu
ik uma
ĠL ag
ĠV Äĵj
Å¾ os
gr a
Ġpr at
br eh
Ä£ uciem
sk im
ĠH and
ens ija
Ġsl Äĵdza
ing ers
Ġmaz i
Ġrad usies
ĠziemeÄ¼ daÄ¼Äģ
ĠatÅ¡Ä·ir Ä«gas
Ġuzbruk umÄģ
vil as
ĠDaÅ¾ reiz
ĠGl Äģz
ĠdÄĵv Äĵta
ĠAst af
Ġsec Ä«bÄģ
Ġim igr
Ġklost eri
Ġreak ciju
Ma x
ĠIec avas
Ġmen edÅ¾
Ġlielh erc
an es
Ġsk ats
Ġatr ait
Ġmaz Äģki
Ġnek o
Ġnek av
ĠFr idr
Ġpolit iski
aja dzÄ«bas
ĠfinÄģl u
Ġiepr et
Ġbrauc Äĵji
ĠsalÄ«dz inÄģjumÄģ
Ġlaikrakst u
ĠHe art
ĠbÄĵrn udÄģrz
Ġdraud Å¾u
Ġsakr Ä«t
Ð¸Ð¼ Ð¸ÑĢ
Ġkolek cija
Ġsudrab u
Ġkoal Ä«cijas
Ġnoma inot
ĠVat ik
Ġprogn oz
ĠTeh er
K as
V ald
b ijs
at al
Ġga mb
Ġb eis
Ġ'' *
ĠA vi
ol Äĵ
Ġr up
ĠT ims
ĠN ac
Ġsp iesti
ec e
ist o
ac t
auc e
Ġin c
Ġkop ÄĵjÄģs
Ä«d am
ĠSt op
ing er
ĠzinÄģt nÄĵ
Ġkaral isti
ĠKur ts
und am
ĠBi Ä·er
Ġizplat Ä«tas
Ġneatkar Ä«gÄģs
Ġarhit ekti
enk ovs
Ġbalst Ä«ts
ĠHel Äĵna
Ġrot Äģcijas
Ġpaties Ä«bÄģ
ĠKen ed
ĠÄ£itÄģr ists
E st
H F
L es
V S
h ans
k ult
Ã ī
Ġp Å«l
en it
um as
ĠS eg
ĠT ul
Äģl isma
Ġatr asta
Ġzem Äģka
ĠPar eiz
Ġmaz ulis
Ġup Äĵm
Ġsak arus
Ġveik ali
ĠnovÄĵr ojumi
Ġdep res
ĠiespÄĵj Äģm
ĠUniversitÄģ ti
ĠX III
Ġnotik ums
ĠbÄ«skap am
ÐµÐ½ Ð¸Ñı
Ġpremjerministr u
ĠatspoguÄ¼ o
ĠfinÄģlturnÄ«r Äģ
ĠHist ory
H al
l eru
Ġs Äģd
Å¡ Äį
ik op
ĠM ix
ĠB okss
ĠD v
Ġap bÅ«v
Ġdz es
Äģn ikas
19 01
Ġ18 31
ĠÅł os
Ġaiz kav
ĠÐ ¥
ĠAl t
Ġor de
Ġizveid e
Ġviet Äĵjiem
ĠAp ple
ch ester
ĠÄ¶ eg
Ġpavad Ä«jis
Ġpan ts
rakst s
Ġiev ies
ĠEz er
ĠTall ina
Ġkonst itucionÄģl
ĠIsl andes
Ġjosl Äģm
Ġizgudr otÄģjs
Ġkaim iÅĨ
ĠJaroslav Ä¼as
c aur
k Å¡
m m
m str
z Äĵ
ĠR eit
ĠÐ ķ
nes i
Ġizveid ojies
est Ä«bas
Ġpamat izglÄ«tÄ«bas
Ġkan oe
Ġelektr isko
ĠpieÅ¡Ä·ir t
Ġbronz u
Ġmaks as
ĠpiemÄĵr i
Ġint eliÄ£
ĠÄ«sten ot
Ġmis ijÄģ
Ġplan Äĵtu
Ġtrauc Äĵjumi
Av angard
Ġeirop ieÅ¡u
Ġsing la
1 12
P C
p edo
t il
on ika
il ova
em oÅ¡anas
Ġ20 21
Äģj os
Ġpar ki
Ġpr epar
ĠE iz
19 02
Ġ18 26
Ġh indu
Ð¸ Ð´
Ġvid Äĵja
aud i
Ġcentr aliz
ĠstrÄģd Äģjusi
Ġgl ud
ein e
ĠnÄģk otnes
ĠstÄģv Äģ
Ġdraudz Ä«bas
ĠSen lu
Ġizs ek
Ġbals i
Ġglezn otÄģja
ĠpÄģrr audz
ĠMai ami
ĠRietum v
valst Ä«s
Ġaizlieg ts
Ġmikr oraj
ĠdÅ¾ eza
ĠKrim uldas
ĠAbd ul
Ġpiespr ieda
ĠMatÄ«s a
ĠKipr as
S L
T u
t ml
Ġt eica
in ai
in ks
Ġ( ?
am ajÄģ
Å« j
Äĵj ams
ol et
Ġiz kÄģrt
ĠB ord
ab ase
ĠJ ac
Ġ18 35
Ġ18 42
Ġtr auk
Ġlaik ap
itÄģ na
Ġnot eic
gal s
af t
Ġnes as
Ġgl ik
Ġ28 0
Ġattiec Ä«bÄģm
ĠmeÅ¾ iem
Ġfiz iÄ·i
ĠIv ana
Ġkarav Ä«rs
ĠseÅ¡ us
ĠInter neta
ĠpasÄģk umus
Ġpamatskol as
Ġuzt vÄĵr
ĠKos ovas
ĠfiliÄģl e
ĠStju arts
Ġarod biedr
ĠKlÄģr ks
S il
V an
j Äĵrs
o ol
Ġp ingv
Ġd o
ot ball
ik iem
ĠB BC
ab u
ĠG Äĵt
ĠZ alc
Ġatr ieb
ĠpaÅ¡ am
ĠcilvÄĵk tiesÄ«bu
15 0
Ġliet ojot
Ġpiln Äģ
ĠvadÄ«tÄģj iem
Ġatz Ä«t
ĠZiemeÄ¼ os
ĠatÅ¡Ä·ir Ä«ga
ĠbÅ«v e
ĠatseviÅ¡Ä· Äģ
ĠDÅ¾ons s
ĠplÄģn oÅ¡anas
ĠuzstÄģd Ä«ta
ĠSarkan ajÄģ
Ġstand arts
fil m
ĠSkr undas
ĠDob elÄĵ
Ġpir c
Andr ejs
enÅ¡te ins
ĠLaur is
tip end
? "
e ir
t Äĵvs
at ni
ik um
ĠP ier
em ber
ĠM obil
id is
ĠB oj
Ġkr asti
Ġkop valsts
Ġ12 2
Ġ12 3
Ġ12 9
Ġtik uÅ¡i
ĠIn fl
Ġuzskat u
Ġez eros
ĠbrÄ«v o
ĠbrÄ«v Äģs
Ġsim tiem
Ġpam atv
ĠSan antonio
Ġdar Ä«t
ĠPetr ovs
Fr iedrich
Ġnoviet ojums
Ġizdar Ä«t
lap u
ĠkaÅ¾ oks
ĠnokÄ¼ Å«st
d am
l auk
t d
x f
ĠP Ä¼
ĠM os
ĠB irk
Ġf er
ov ski
ĠC j
val sti
eh amm
ĠLiel Äģkie
ĠW ill
de dz
Ġup ur
ĠVis b
ĠÅ½ er
ĠAm ats
Ġplat Ä«bÄģ
ĠatÅ¡Ä·ir Ä«ba
ĠdeputÄģ ta
ĠuzsÄģk t
Ġpiec Äģs
Ã¼ l
ĠÅ¡Äģd Äģ
Ġzviedr i
enÅ¡ oties
ĠViljams a
ĠFiz i
ĠMeks ikÄģ
aukÄģz Äģ
Austr umu
Ġtau tÄģm
Ġpartn eri
ĠKalp aka
Pant hers
% '''
Ġp Ä«l
ĠA ur
oj amo
Ġz onu
ic Äģ
ĠF abr
Äį us
ĠZ agr
ĠlÄ«dz strÄģd
ĠÅł Äģdas
ant us
sp orta
Ðµ ÑģÑĤ
Ġrakst Ä«ts
ĠâĢ Ŀ
ef t
Ġmir Å¡anas
Ġsab oj
Ġakt ier
stÄģ Å¡anos
ĠPl Äģn
Ġstarptaut isku
Ġnoteik umus
Ġkor aÄ¼
Ġsvar Ä«gs
Ġizl aista
Ġ36 5
ĠjÄģ uz
ĠDarb Ä«bas
Ġcetur tdaÄ¼
ĠdÄĵv Äĵt
Ġizteik ts
ĠGulb is
Ġprosp ektu
ĠaizsÄģk Äģs
ĠgrÅ«t Ä«bas
Ġgliem eÅ¾
ugg ets
Ġpiest Äģt
I tÄģl
J an
ĠV eb
id er
ĠB it
ĠB iÅ¡
ĠpÄģr p
Ġvis ur
Ġ17 83
Ġizm Äĵrs
ĠDÅ¾ an
Ġrakst urs
Ġpav ed
Ġapst eidzot
Ġneatkar Ä«ga
ĠStarptaut iskais
kriev ijas
Ġdzin Äĵja
Ġzvaigz nÄĵm
Ġtramv aja
ĠÄ£int Ä«m
ĠSlovÄģk ijÄģ
ĠraÄ· eÅ¡
ĠkrÅ« mu
Ġpusl odÄĵ
Ġlatgal ieÅ¡u
s abiedr
Ã ½
Ï ħ
ĠK amb
ĠL ombard
Ġr enesanses
ĠB ik
iek u
Ġpar ast
Ġj onu
Ġpr etu
ah ti
ĠAt Äĵnu
Ġ14 2
ĠÄ¶ Ä«p
ĠSv jat
ĠpanÄģk ums
ĠiekÅ¡ zemes
ĠizvÄĵl e
Ġbrauc Äĵjs
ÄĵjoÅ¡ Äģs
ĠTim es
Ġuzlab ot
ĠatkÄģp Å¡anÄģs
ĠdzÄ«voj amÄģs
Ph il
ĠsÄģkotn Äĵjo
Gal ven
) )
O z
S I
ij us
ĠK ort
ak ot
ek Äģ
Ġat lases
ĠR iv
Ġj Å«dz
Ġkur ienes
ĠH ad
Ġre iÅ¾u
ac i
Ġh orv
Ġveid oÅ¡anas
inÄģt os
ĠÅ¡ah u
ĠDÅ¾ ou
aln u
ogrÄģf iju
ves ti
ĠizglÄ«t Ä«ba
Ġredz amas
ĠAiz k
ĠKol kÄģ
ĠapkÄģrt ne
ĠDom es
ĠOp er
ĠVikt orijas
Ġapj omu
ĠatklÄģta jÄģ
ĠBu falo
ĠiegÄģd Äģties
ĠsekretÄģ ru
ĠDraudz es
ue en
Ġievain oti
ĠPrezid enta
ĠgrÄģmat Äģm
ĠBavÄģr ija
PÄĵt er
ĠFiÅ¡ ers
ĠKonf eder
ĠRop aÅ¾u
1 000
N ets
Ġ ib
in ovs
st itu
en Äĵs
iz Äĵtas
ĠP FSR
Äģk us
Ġr os
ĠB az
ĠD amb
ĠD oÅĨ
Ġf antÄģ
ĠN iedr
Ð° Ð±
Ġak umul
Ġsl Äģn
ĠVal miera
Ġof ens
ĠvÄģc ieÅ¡iem
Ġsak ar
Ġpers onÄģ
ĠÄĮeh ija
Ġsmag u
cÄ« ÅĨÄģ
ĠPak istÄģnas
Ġfrekven ces
Ġprodukt iem
Ġdig itÄģl
mÅ«sdien Äģs
ĠKval ifikÄģcija
L iv
Ġt apa
an ks
Ġn iedr
Ġb iz
Ġb ungas
us iem
ĠV Äģcijai
Ġpie augu
ĠpÄģr vÄĵrt
ĠH omÄĵr
Ġtr akt
oc Äĵnu
Ġh er
Äĵn iju
ĠBr ÄģÄ¼u
Ġizveid oÅ¡anas
Ġvec s
Ġnep il
Ġpak l
Ġbeig usi
Ġbez krÄģs
ĠpÄĵt nieki
Ġiev iesta
Ġtautas dzies
Ġsimbol iskajÄģ
ĠzinÄģtn iskais
Ġkod olu
ĠKij evÄģ
ĠArgent Ä«nÄģ
Ġhidr oks
iÅ¡Ä· u
ĠDemokrÄģt iskÄģs
Ġarest Äĵja
pÄĵt er
Ġvelosip Äĵdu
M ark
U CI
Ø ³
ap u
ĠG ur
ĠJ Å«d
ĠF ab
Ġ18 45
ip pers
embr i
Ġ17 00
dal a
Ġ16 5
Ġsl ap
ĠIz lases
iniek am
Ġpav Äĵles
Ġveik alu
gÄģr ija
Ġsen Äģ
Ġprovinc Äĵs
Ġizviet ots
fic ial
ĠRe al
ĠorÄ· estra
Ġkonstr u
Ġkeram ikas
ĠEdmont onas
ĠAstaf jevs
D o
E A
P an
V er
w in
Ġp ort
Ġv Ä«n
on j
on ova
ĠS Ä«m
ĠP ulk
Ġr otu
ic um
dr a
ĠZ aÄ¼Äģ
Ġkr Ä«ze
Ġ18 44
auk ta
Ġmed Ä«jumu
Ġlab Äģkie
ĠÄ«paÅ¡ as
Ġapvien ot
Ġapvien otas
Al b
Ġnogal ina
ĠÄ«st ajÄģ
ĠattÄģl umu
Ġfl or
ĠViÄ¼ Äģnu
Ġmal Äģm
Ġskaidr s
ĠdzÄ«vojoÅ¡ as
ĠKuld Ä«gÄģ
put ni
ĠlÄ«dzen umu
Ġaf r
Ġpilsdr upas
ĠVjaÄįes lavs
ĠRiteÅĨ brauk
M ot
v ab
w ards
Ġ Äģda
Ĩ ĳ
ĠK Äģrt
ĠK astr
Ġr Äģts
ĠM am
ĠM ier
ĠD inamo
br ah
ĠC iet
Ġvien otu
Ġ18 47
Ġh om
Ġdiv iz
end Äģ
ĠFran ks
Ġdev ies
ari us
ĠOr das
ĠEd vÄ«ns
Ġslim Ä«bÄģm
ĠdeputÄģ tiem
ich te
ĠgrÄģf iste
Ġcilt Ä«m
ĠTurnÄ«r s
Ġasfal t
ĠMadrid es
ĠâĢł ''
o is
o brauc
Ġp j
ar ka
Ġs tipend
Ġt Äĵmu
au tr
ĠS andra
ĠM icrosoft
Ġf lu
Ġdz er
ĠO ver
Ġsas kaÅĨ
Ġveid oÅ¡anu
kr ip
Å«n Äģm
ĠPas aÅ¾ieru
Ġ23 0
17 90
ĠBal tÄģ
Äĵz ijÄģ
Ġab us
Ġsabiedr Ä«bai
ein en
Ġtehn ika
ĠievÄĵl Äĵti
ĠEn gl
ĠkÄģrt Ä«bas
Ġekonom iku
ĠÄĢfr ika
ĠEz ers
Ġsev is
Ġvelt Ä«ts
Ġmonarh i
ĠÐĺ Ð²Ð°Ð½
ĠJevg ÄĵÅĨ
Ġvisliel Äģkais
Ġizslud inÄģja
ĠEnton ijs
ĠZiep niek
K or
w ood
Ġ eÅĨÄ£
ĠA ud
ĠK ord
ĠL ang
Ġz ur
ic ka
gu Ä¼
Ġkr auk
ac le
Ġsk un
Ġ5 50
Ġ17 96
Ġ15 5
ĠIn kubÄģcijas
ĠVil l
ĠpÄĵt Ä«jumos
Ġelektr Ä«bas
Ġciet ums
Ġatl Äĵk
Ġpaliek as
ĠizbÅ«v Äĵta
ĠsÄĵn Äĵm
Ġnolai dÄģs
ĠkaragÄģj ienÄģ
Ġmusku Ä¼u
Ġaizmugur Äĵ
ĠDibinÄģ ta
ĠCeturtdaÄ¼ finÄģls
ĠÅłuma hers
ĠKembr id
R a
R o
e tÄģr
n Ä«st
Ġl ep
Ġm es
or ovs
ĠS valb
el p
ĠR un
ĠpÄģr celt
Ġkr ok
Ġpas kaidr
te ÅĨu
ĠÄĢr mstr
nes s
ĠDÅ¾ im
Ġmed us
ĠDz ied
Ä«ta jÄģm
Ġnod ot
Ġskol Äĵni
Ġnek as
Ġizdev is
Ġbrauc Äĵju
ĠvÄĵst a
ĠStud Äĵjis
ĠcÄ«n Ä«ties
ĠÅ¡Ä·idr ums
ĠKasp ijas
ĠPir en
ĠsÄģ Ä¼
ĠOb j
Ġkvadr Äģt
Ġsark ana
ĠIndon Äĵzijas
Ġpludmal es
C oyotes
s im
Ġv Ä«t
ik lu
os of
tu ve
ĠB uÄ¼Ä¼u
Ġf ok
Ġkar oja
Ġre akt
eÄ¼ ab
Ġpas arg
ĠÐ ®
ĠAn al
ĠvairÄģk ums
he ima
Ġzem ÄģkÄģ
ĠPr ok
Ġpal Ä«gu
Ġaugst o
Ġek ip
iÅ¡ i
Ġatkl ÄģÅ¡anu
Ġmod es
ĠkÄ¼ Å«das
ĠtÄĵv iÅĨu
ian o
Ġsvar u
ĠparÄģd Ä«bas
ĠDaÅ¾ Äģd
ĠEir ol
ĠDiv i
ĠdzÄ«voj amo
ĠpieauguÅ¡ ajiem
ĠCar nik
ĠDalÄ«b nieks
Ġbater iju
Ġbakt Äĵrijas
ĠTren era
ĠnospÄĵl Äĵja
ĠVern ers
Ġpretu zbruk
d im
Ï ī
Ġv ajadzÄ«bas
Ġt auku
ÅĨ it
ĠS ard
ĠV aiÅĨ
ĠM ein
ĠB ird
ĠD ik
Ġf Äģzes
Ġtr aj
Ġzem a
Ġolimp iskais
Ġjau da
ĠMed aÄ¼
Ä«kl es
kriev iski
ĠEk vad
Ġizcels mi
ĠSarkan o
ĠAv ots
Ġvak ara
Ġdistanc Äĵs
Ġkosmon auti
Ġievain ots
ĠAstr onom
Ġapgr Å«t
Ġrub Ä¼u
ĠRal fs
ĠOÄ¼Ä£ erts
d ub
p adomju
ar ag
at ons
Ġt Äĵmas
on k
Ġl oks
ik umu
ĠV eis
Ġiz sp
ĠM i
ĠM erc
iek stes
ĠG ood
ion al
ĠZ e
eÅ¾ as
Ġzem u
Ġdr augi
ĠpriekÅ¡ st
ĠvÄĵstur iskÄģs
ĠmuiÅ¾ nieku
ĠtÄģd Äģm
ĠUz vÄģrds
Ġef ekts
Ġzob u
Ġtras es
Ġnozar Äĵ
Ġkrustne Å¡u
ĠFrans uÄģ
Pac ers
ĠkÅ«dr as
Ġagl omer
J ap
J Äĵk
M ic
M ih
V ents
ĠP ant
ĠP DB
Ġiz laÅ¡u
ĠB AF
ĠG ad
un de
Ġtr i
ĠÄ£ ermÄģÅĨu
ĠGr af
Ġmaz Äģku
Ġviet ai
Ġek os
atÄ«v ie
ĠÄĴ d
Ġpers ieÅ¡u
ĠizstrÄģd i
Ġproces i
Ġteor Äĵti
Ġpac eÄ¼
ĠbÄģz Äĵts
Ġindividu ÄģlÄģ
Ġapj om
Ġprincip iem
Ġakme ÅĨiem
Ġvik ingu
ĠRefer ence
ĠSmiÄ¼ Ä£is
ĠLill ehamm
I gaun
M ana
U rs
v els
ĠB Äģd
ti ÅĨi
Ġ" '''
Ġap sol
ĠI KP
ĠÅ¡ ajos
ĠF ot
ob u
Ġ18 41
oc a
Ġvis b
Ġaiz iet
Ð° ÑĨ
Ġ13 3
Ġup Äĵs
ĠTur k
Ġes kad
ĠbÄĵr na
ĠtÄĵv iÅĨam
Ġind o
ĠSal d
Ġneliel Äģs
Ġskait Ä¼i
Ġizpild Ä«t
ÄĵjoÅ¡ a
ĠUl r
Ġkonflik ts
ĠÄģrkÄģrt Ä«gi
ĠnokÄ¼ Å«t
atern itas
ĠVimb ld
1 18
A I
n d
Ġt ul
Ġt auts
Ġm Äĵb
ur p
Äģr am
Å¾ us
ĠM Å«r
ĠJ es
sk anis
iel as
Äģn ai
Ġ18 24
Ġ18 34
Ġ18 53
ĠBr uk
ĠAustr iju
ĠAtt iec
Ġpievien ot
Ġpolit iskais
Ġmilj ons
ĠzinÄģtn iski
Ġhercog iste
Ġnociet inÄģjumu
ĠTuv ajos
ĠIns c
Ġpretest Ä«bas
Nik ol
ĠIedz Ä«Å¡ana
ĠSentlu isas
ĠJaunj elgavas
ĠLeikples ida
F re
i Äģns
j eva
k oks
Ġz oss
ĠH Äģ
ĠÅł tein
Ġaiz gÄģja
Ġbal l
Ġ14 4
iks a
ĠÄ«paÅ¡ nieka
ĠÅ¾ em
Ġiel eja
ĠmÄģksl iniekiem
Ġproj ektÄģ
ĠEd ijs
An gl
Ġrok Äģm
ĠNik ola
Ġsamaz inÄģtu
Ġdzej niece
Ġizte ikt
Ġpras a
Ġkapte ini
Th under
Ġautonom iju
ĠFel ipe
Ġkinof il
Ġinfrastrukt Å«ras
sav ien
n os
Ġ $
ar te
Ġgad Ä«jums
us krip
Ġpar augu
Ġpr av
Ġst aru
str ukt
18 99
ber ta
ĠÄģr polit
Ġsavien Ä«bÄģ
ĠÅ½ ir
Ġorganiz Äĵt
ĠmÄģksl Ä«gi
Ġpers pektÄ«v
ĠizstrÄģd Äģt
ĠY e
ĠNov os
Ġapar Äģti
Ġvajadz Äĵtu
Ġra ga
Ġpieaug umu
Ġslep en
ĠcÄ«n Äģs
ĠÄªr ijÄģ
Ġpremjerministr a
Ġprotok olu
Ġrec ept
ĠIzdev Äĵjs
ĠPasaul Äĵ
ĠBAF TA
D P
D iev
K o
g vin
Ġs atv
at ive
ai ga
en ad
id th
ĠB es
ĠB od
ĠR evol
and auga
eg i
ut o
ib as
Ġkon d
pr Å«s
ĠPr oc
uc is
Ġatrad usies
Ġdab u
ĠapakÅ¡ kÄģrta
Ġposm iem
umb as
ĠParÄ«z i
Ġkandid Äģtiem
enh auz
Ġpamatskol u
Ġaizlieg ta
ĠMinh enÄĵ
ĠKu Äį
Ġsekund Äĵ
ĠDalÄ«b nieki
Ġuzaic inÄģja
ĠDok um
Ġkri Å¡anas
Ġs o
on iskÄģ
ĠS ultÄģ
Äģk Äģm
ĠBr est
Ġsl odz
ent er
Ġgar Ä«gÄģs
Ġal p
Ġrakst nieku
ubl ic
Ġmar ks
ĠuzÅĨÄĵm Äĵji
Ġzaud Äĵjumu
Ġtehn iku
ĠdzÄ«ves veid
ĠpÄģrviet oÅ¡anÄģs
ĠplaÅ¡ Äģ
oÅĨ mant
Ġtulk ojums
ĠGun t
Ġapkop otas
ĠsacÄ«kst Äĵ
ĠRum ÄģnijÄģ
Ġsnieg t
ĠarhibÄ«skap ijas
Ġpiete ica
Ġlikum doÅ¡anas
ĠkrÅ«t Ä«m
G old
e ina
m ars
in Äģr
Ġr umÄģÅĨu
ak cijas
ĠB Ä«l
Äģj uma
ĠpÄģr eja
Ġpirm ajos
ĠBr ed
ĠBr ig
Ġ14 6
Ġaugst uma
Ð¾Ð ¶
Ġpart ijÄģm
asti ÅĨÅ¡
Ġput nus
Ġeksp orta
ĠÄĴ kas
ĠOr gan
Ġbl oka
Ġkval it
ĠMat emÄģt
Ġzir giem
ĠVien kÄģr
eld orf
ĠmÄĵÄ£ inÄģjumi
meist ars
ĠTh at
ĠPiem Äĵrs
ĠmÄģs u
ĠnoslÄĵdz ot
Ġkonstat Äĵts
Ġdiametr Äģ
stÅ«r is
Ġprim it
pret Ä«
Ġpilnvar as
Ġnega iss
vÄĵstur e
ĠminÅ«t Äĵm
ĠAtm odas
Ġemoc ionÄģl
ĠMetr opol
ĠKriÅ¡j Äģnis
T Äĵv
d ibinÄģ
f eld
k avas
v ieÅ¡u
Ġ Äģp
Äģ Ä·
Ġd omas
Ġr inda
Ġc enz
Ä«g Äģks
ĠJ ons
Ġ18 27
up Äĵ
Äģv e
ĠAustr umÄģ
Ġties lietu
Ġveik tu
ĠBalt Äģs
ĠstrÄģd Äģj
Ġmilj ardi
Ġsaglab Äģ
Ġsadal Äģs
ĠzinÄģm Äģ
ĠMaz o
ĠLat Ä«ÅĨ
ĠnepiecieÅ¡ amas
Ġietekm Äĵt
Ġsitu Äģcijas
ĠVas ilijs
Ġuzs Äģcis
ĠBan ka
ĠVÄ«t ols
ĠFo und
ĠLigz da
Ġfe od
j s
Ã ¦
Ä Ľ
Ġs ik
Ġs ektor
Ġl Ä«gu
or da
am ajiem
ĠP az
ĠV ul
oj oÅ¡u
Äģl Äģm
ĠG ark
ĠH onda
ĠC uk
ĠÐ ¨
gl ad
Ġdiv padsmit
18 95
ĠDÅ¾ ims
Ġorganiz ÄģcijÄģ
Ġkol ekcijas
uld Äģ
Ar m
ĠpÄģrs Å«t
Ġbur ts
ĠGar ums
Ġkorpus u
Ġpasnieg Å¡anas
ĠriÅĨ Ä·
Ġpriest eri
Tor pedo
ĠÅ¡auj am
G B
r im
Ä« ÅĨa
ij ers
an Å¾
Ġb undz
ot daÄ¼
ik ls
ĠS irds
ĠV aid
im ovs
om oÅ¾
ĠM andÅ¾
ĠB Å«t
ĠB Å«v
ĠD own
ĠE ks
Äĵk i
aul s
eb er
ĠAt bal
ĠGr Ä«ns
Ġ13 7
ilv oki
Ġizc eÄ¼as
aur us
Ġviet Äĵjas
ĠW ith
Ġsta cijai
Ġkat ol
Ġotr am
Ġsak op
Ġes mu
ĠnovÄĵr ojama
Ġdep ort
ĠDienvid os
Ġinter j
Ġsim t
ĠrÅ«p niecÄ«ba
ÑģÑĤ Ð¾ÑĢ
Ġpaliel ina
Ġpilskaln u
ĠbrÄ«d im
Ġizskat a
ĠÐł Ð¸Ð³Ð°
ĠviÄ¼ ÅĨ
ĠlÅ«g Å¡anu
ĠleÅĨ Ä·i
Ġsaul e
Ġprok lam
ĠMongol ijas
ĠFed erat
ĠpÄ¼av Äģs
ĠÐľÐ¾ÑģÐº Ð²Ð°
G ar
h l
ai li
Ġr Äģda
ĠV ic
Ġf ailu
ul li
ĠG ints
Äģt ijas
18 91
18 81
Ġaug Ä¼
ĠKop vÄĵrt
ĠTÄģ tad
Ġup Äĵ
eÅĨ iem
ĠsistÄĵm Äģs
Ġsak ari
ĠmÄģc Ä«tÄģju
ĠLÄ«dz tekus
Äģks la
ĠAmer ican
Ġzir n
Ġkompl ekti
SK S
Ġmel nu
ĠpelÄĵk s
ĠscenÄģr iju
ĠMart ina
ĠIevÄĵroj ami
Ġglob usa
ĠsultÄģ na
ĠmehÄģnis ms
ĠNer etas
Daugav pils
Riet umu
ĠSanktmor ica
ĠCesvain es
ĠBiÄ·er nieku
. '')
L B
P e
T o
c al
p lay
ol Ä«ni
el k
ĠT ra
Ġj Äģd
Ġj audu
ĠH us
ĠZ ak
Ġsk aist
Ġ18 10
Ġ18 54
ĠÅł er
ĠÅł auÅ¡ana
Ġvirs otnes
ĠAm az
ĠkÄģd am
Ġpiek tÄģ
Ġstud entiem
ĠKÄģr ta
tiv e
zem ju
ĠLe o
ĠVec piebalgas
Ġiedal Ä«juma
Ġiev iests
Gr izz
ĠpieÅĨem Å¡anu
ĠMal ta
ĠÄ·Ä«m iskÄģs
Ġtip u
Ġtic Ä«bu
Ġfl ote
Ġziv s
ĠbÄģz Äĵta
Ġarhe oloÄ£ijas
Ġenciklop Äĵdija
N uggets
d l
m ora
Ġs iÅ¾ets
Å¡ e
Ġl ÄģÄį
ĠK P
ĠL ibr
ĠV ed
ĠT ih
ĠG adu
ĠE f
ĠO v
Ġsk ais
Ġ18 49
ĠpÄĵc pusdienÄģ
var as
Ġsai k
Ġnot icis
18 96
ĠDz ir
Ġpav ilj
ĠÄ¶ el
Ġkust Ä«bÄģ
Ġsin ag
Ġaprakst Ä«ta
ĠmarÅ¡ru ti
Ġhron ika
Liel Äģ
ĠTad Å¾
ĠLatgal e
ĠrÄ«c Ä«bas
Ġsaz vÄĵr
ĠViet as
Ġobjekt us
Ġdet aliz
ĠRakstur ojums
D R
D ien
J a
R ichard
d y
k ovskis
z aÄ¼
z viedru
st ons
ĠS A
ĠK av
Ġiz ÅĨÄĵm
ĠT au
ĠT ip
Ġ7 50
ĠDÅ¾ eisons
ĠSp Äģniju
Ġkat oÄ¼i
Ġkap ela
ĠceÄ¼ am
Pr ed
ĠMÄģr Å¡
ĠesoÅ¡ ais
ĠÄĵr glis
Ġatrod amas
Ġpabeig Å¡anas
áĥ ĺ
ĠRa iens
Ġinvest Ä«ciju
ĠAfgan istÄģnÄģ
Ġparametr i
ĠevaÅĨÄ£Äĵl iski
metr ÄģÅ¾as
ĠBranden burgas
ĠpaÅ¡nÄģv Ä«bu
ĠPauk oÅ¡ana
Ġlabdar Ä«bas
S ig
É Ļ
in os
iem Å¾Äĵl
ĠB ell
ĠR uss
ĠD ainis
Ġap aug
Ġpr ior
ĠN ur
ĠF RA
ĠE C
Ġg ov
Ä«r i
ug e
Ġatt ur
ĠGr if
ĠAp s
Ġpus Äĵs
Ġdal Ä«ja
Ġiel eju
aim niecÄ«ba
ĠÅħ Å«t
Äĵdz Äģs
Ġsadal a
Ġizplat Ä«bu
Ġkontrol Äĵt
ĠVar akÄ¼
ĠEm Ä«lija
Ġlikvid ÄĵÅ¡anas
ĠlÄĵm umus
ĠSan h
skr Äĵj
ĠTer min
Ġmaksim Äģlais
CA A
ĠierÄ«k ots
ĠPortug ÄģlÄĵ
Ġdod ot
Ġresurs i
ĠknÄģb ja
ĠsÄģkotn Äĵjais
Sh arks
ĠMer Ä·
ĠSun ta
ĠSicÄ«l ijas
ĠSark andauga
( ''
A us
Ġga Ä¼u
ak aru
''' -
ĠB oÄ¼es
Ġz Ä«r
ĠJ on
Äĵt isko
ĠpÄģr dzÄ«v
Äį Å«
Ġg um
ĠAl un
Ġ17 89
18 90
ast ins
Ġvec ais
ĠMar io
Ġveik Å¡anai
Ġdom u
ĠPl Äģt
Ġproj ekti
Ġposm i
Ġneliel iem
Ġagr Äģ
ieviet e
Sp orts
Ġsaim niecÄ«ba
ĠpÄģrvald Ä«bas
Ġdokum entos
Ġdiev s
Ġpras Ä«bu
Ġnomet ne
Ġpor trets
Ġstand artu
ĠpÄģrsvar u
Ġsepti ÅĨu
Ġkonflik tu
ĠorÄ·estr i
Ġizvair Ä«tos
Amer ican
ĠSep tiÅĨ
Ġdiskus ijas
Ġsien Äģm
ĠkinoreÅ¾is ori
A str
E M
M icrosoft
O C
m il
Ġl ejas
or nis
Ä¼ it
ol Äĵm
Ġie Å¾u
Ġie interes
Äį Å«s
18 89
Ġaug Å¡anas
Å«d e
Ġklub iem
ĠÄģr Äģ
ÄĵÄ£ ipt
ĠStr Äĵl
ĠEn gur
Ġproc entu
Ġglez niecÄ«bas
Br Ä«v
ĠiekÅ¡ pusÄĵ
ĠapkÄģrt Äĵjo
kaln Äģ
Ġregul Äĵ
Ġbur tiem
Ġlau v
ĠOk lah
ĠgrÄģf a
ĠÅłÄ· ir
Un ivers
Ġprincip u
Ġpopular iz
ĠieÅĨÄĵm usi
ĠmÄ«lest Ä«ba
ĠslÄģp ekÄ¼a
ĠKontin entÄģlÄģs
ĠieroÄį us
B ad
R iga
j Äĵns
p ul
in iem
Ġm ac
ĠP os
dz irn
ĠL KP
Ġiz aic
Ġc un
ĠE Å¡
Ġkar ak
Ġaiz spr
Ġkl ints
ĠBr ai
ĠAr iz
ĠPar is
Ġsabiedr isks
ĠÄ¢ erbonis
Ġizviet ota
Ġatrod ams
áĥ Ĳ
Ġatlik uÅ¡as
ĠLeon ardo
Ġapbed Ä«ts
ĠapgÄģd s
Ġcivil izÄģcijas
ĠstÅ«r Ä«
ĠIeg Å«Å¡ana
ĠmÄģr c
Ġbater ijas
ĠnominÄģl pasuga
Ġkinofestiv ÄģlÄģ
Ð»Ð°Ð´ Ð¸Ð¼Ð¸ÑĢ
ĠTrolejb usu
Ġuzspr idz
C om
M ai
Z il
v eri
v ila
Ġ Äĵz
ot ÅĨu
iz ma
ĠK irg
ĠL ep
it an
Ä«j uÅ¡Äģs
ĠH au
ĠH ek
vid u
Ġlab prÄģt
Ġapm aiÅĨas
Å«st ek
Ġstud ija
ĠKur b
ĠvÄ«r i
Ġskait li
ĠÄ«s Äģ
ĠbruÅĨ inieku
Ġspr ints
Ġuztur Äĵt
Ġrun Äģt
Ġkomit eju
ĠdÄĵv Äĵts
Ġapmekl Äĵ
Ġiebruk umu
ĠpÄģrtrauk uma
Ġzob i
ĠRietum eiropas
ĠPlat Ä«ns
ĠHit lers
Ġzon des
Ġizvair Ä«ties
ĠlÄĵn Äģm
Ġadvok Äģts
ĠSankt pÄĵter
ĠBÄ«b eles
franc isko
S aul
b Äģr
p end
w agen
z en
Ġv aÄ¼u
ir l
Ġb ebr
ĠP Äģrs
ĠV eik
ĠD ubl
ĠD obr
et ons
uÅ¡ ajÄģ
Ġpils oÅĨi
Ġnov ec
Ġ14 8
ain d
ĠIn dustr
Ġier Ä«Äįu
Ġizp Äĵti
Ġizd odas
Ġbiedr Ä«bÄģ
ved i
Kr ust
ĠattÄģl uma
Ġfl ot
Ġlikvid Äĵts
Ġtop a
ĠiegÅ«t o
ĠVikt orija
Ġvesel Ä«bu
ĠiznÄ«c inÄģt
At las
Ġizdal Äģs
ĠDe uts
ĠLap as
ĠAntarkt ikas
ĠorÄ·estr is
Ġiete ica
ĠKurs as
ĠCH N
ĠEva ÅĨÄ£Äĵl
Ġspecial itÄģtÄĵ
ÄįÅ«s ets
e ins
i Äģna
l ak
n en
Ġb it
Ġm aiÅĨ
il c
ĠK j
Ġr u
ap or
ad y
ĠM id
od inam
gr af
Ġdz en
Ġpie eju
Ġvien Ä«bai
ĠÅł au
Ġdzim tÄĵ
Ġin v
Ġvis daÅ¾Äģd
Ð½ Ð¾Ð¹
Ġuzvar Äģm
ĠÄ«paÅ¡ Ä«bu
Ġkap ul
Ġkomp et
Ġ- -
Ġattiec Ä«bÄģs
ves ts
ĠrÄ«k ot
ĠuzÅĨem Å¡anas
Ġska ÅĨa
ĠpÄģrvald i
Ġnomet ni
ĠRietum eiropÄģ
ĠCentrÄģl t
ĠsÄĵd Äĵ
Ġintens Ä«vi
ĠMuz ik
Ġpilson Ä«bu
Ġtuks ne
Ġbiatl on
ĠKlim ats
ÅĨit ogor
Î ´
Ġp e
ĠK ak
ĠL ZA
Ġr ektors
it t
ies as
ĠG i
ĠG ail
Ä«m s
ĠAu z
Ġapm at
ĠPirm ajam
aug oties
Ġpiek to
Ġmod ulis
ĠMa x
Ġkod ola
Ġkomis Äģrs
ĠpiemÄĵr ots
Ġeksped Ä«ciju
ĠSh ut
ĠmaÅ¡ Ä«na
ĠvÄĵ tras
ĠDat abase
Cl ippers
Ġvirsp us
ĠBruÅĨ oto
ĠViest urs
ĠOrganiz Äģcijas
ĠEt n
ĠÄĢtr slidoÅ¡ana
Ġkaf ej
ĠPriv ÄģtÄģ
Ġneiek Ä¼uva
ĠatslÄĵg as
ĠAsp az
ĠEkstral Ä«gas
ĠJack ets
' ).
H ol
S kr
n ovs
t ors
y ch
Äģ h
ga Ä¼i
ĠL auku
ĠM orf
Ä· es
ĠG atis
ĠF on
Äĵt iskÄģs
ĠH ed
Ġne gad
eb or
Ġvid u
ĠmÅ« ku
Ġmaz ciemi
Ġkap a
ĠJaun s
Ġprezid entam
ĠvÄ«r a
Ð¾Ð² Ð°
ĠAb avas
ĠÄ«s a
Ġsasnieg ts
Ġietilp Ä«ba
Ġapl enca
Ġizviet ojusies
Ġpaliel inÄģja
Ġeks Äģm
Ġdistanc es
ĠKlus ajÄģ
ĠrÄ«c Ä«bu
ĠLik e
Ġhum anitÄģr
Ġdievn ams
ĠÅ¡Ä·Äĵr Å¡
ĠInform Äģcijas
ycl op
Ġkontek stÄģ
Ġpadev Äģs
S ap
T autas
k eviÄįs
t ol
Î ³
ĠP in
Ġr Äģm
ĠD ace
ok e
ic ion
az ar
ĠZ as
ĠAl la
Äĵd ams
pr ot
Ġmed Ä«bas
ĠdalÄ«b valstis
Ġstarptaut iska
zem nieku
ĠMaz uÄ¼i
Ġrom Äģni
Ġguber ÅĨu
ĠkÄģp Äĵc
ĠArm ands
Ġfakt oru
Ġpolic ija
ĠRa dz
ĠMagn uss
Ġlidl auks
VÄ«r ieÅ¡i
ĠSmoÄ¼ enskas
Prov inc
ĠSenlu isa
S pr
g art
in ess
ĠP ah
Ġar ÄĵnÄģ
Ġiz iet
om ys
ĠR au
ĠlÄ« meÅĨu
uÅ¡ iem
Ġgal mÄģ
ĠIz Å¡Ä·ir
Ġnosauk umiem
ĠÄ«paÅ¡ Ä«ba
ĠÅ«d eÅĨu
Ġuzskat Äģms
Ġaizsar gu
Ġad apt
Ġzaud Äĵjumi
Ġprov inÄįu
ĠEn r
ĠAmer ikÄģÅĨu
Ġatm iÅĨu
ĠRez erv
ĠspeciÄģl isti
Ġapbalv ojumus
ung en
ĠPap ildu
ĠizstÄģd Äĵ
Un ited
Ġpild Ä«t
ĠlÄ«dzen umÄģ
Ġadres es
Ð½Ñĭ Ñħ
Ġprogrammat Å«ra
Ġapciet inÄģts
ĠpriekÅ¡me ti
Ġnenot ika
Ġnodedz inÄģja
ĠEbr eju
s ala
à ¥
on na
Ġl Äģc
Ġl Å«z
ot on
ĠS oci
ĠK ip
ĠB uh
ĠR ab
ĠpÄģr celta
Ġsk Äģr
Ġgr audu
Ġ18 3
Ġliel ie
Ġ17 80
Ġkl einen
Ġsta cijÄģm
Ġma Ä£
Ġiesp aidu
Ġizr aid
Ġstud ijÄģm
ĠnovÄĵr st
int ers
Ġdev iÅĨ
erm ans
Ġmas veida
ĠMed aÄ¼as
ĠJoh annes
ĠAngl iju
Ġfilozof iju
ĠVien otÄ«ba
Ġkolon ija
oy al
ĠRein is
ĠapmÄģc Ä«bu
ican es
ĠLuksem burgas
Ġprok ur
urr icanes
E du
S e
d eb
i Äįu
k in
Ġs un
at iv
Ġd ota
Ġm g
ĠL ine
Ġat dzim
iek ur
Ä«g ÄģkajÄģm
ĠH ell
ĠC il
ĠÅł anh
Ġh r
Ġh osp
Å¡Ä· u
Ġkl Äģ
ĠdzÄ«v ei
Ġrad Ä«ts
Ġ25 00
ĠjÅ«ras brauc
Ġdev iÅĨas
Ġpiln varu
ĠEl v
Ġtehn oloÄ£ija
Ġnol aup
ĠÄ·Ä«m ijÄģ
Ġstad ijÄģ
Ġcer emonijas
Ġindividu Äģli
Ġatrast ies
iznes a
Le on
ĠÄ»eÅĨ ingr
Ġparal Äĵl
alc on
ĠreaÄ£ Äĵ
Ġalg ebr
Ġplau Å¡u
u Ä¼iem
z er
Ġl Äģz
ĠS F
ĠK imi
ĠL Äĵ
ĠL ob
ĠB ack
Ġdz int
ĠN i
ĠG ib
ĠG vin
ĠG agar
Äĵt iski
Ġveid oÅ¡ana
etr a
pr es
Ġvad oÅ¡o
ing o
ĠvÄĵstur iskais
Ġizp eln
Ġpieder Ä«ba
ĠMaz sal
gul b
Äģlis ms
Ġpriv ÄģtÄģ
ĠseriÄģl i
sal u
Ġner egul
Ġvies nÄ«cas
ĠEdu arda
ĠÄģrst niecÄ«bas
ĠJaunzÄĵl andÄĵ
Ġastron auti
Ġrelj efa
Ġiesk auj
Ġpieveic a
ĠBrest Ä¼it
B o
h m
Ġp od
ĠM P
oj i
Ġap vain
od on
ĠI A
Ġvien spÄĵÄ¼u
Ġ13 4
ĠIn Äįuk
Ġal t
Ġnev eid
ĠJaun gvin
Ġlauk os
Ġnoteik umu
Ġkam eru
ĠZiemeÄ¼ kor
Ġcaur ceÄ¼
ĠEr ev
ĠkÄģrt ai
ĠstÄģv u
ĠSpÄĵl Äĵjis
ĠÄª sl
ĠzÄ«m olu
ĠFl andr
Ġrun Äģja
ĠkÄģp uriem
Ġizskat u
odr oÅ¡
ĠvÄĵ tr
ĠSlovÄģk ija
Ġpasniedz Äĵju
Ġkomerc iÄģl
ĠNapole ons
ĠVÄĵst nesis
1 17
L iver
R os
Ġ ÄĵÄ£ipt
is Äģ
ĠS V
ĠS Äĵr
ĠP on
em o
ĠT TT
Äĵl ijas
Äģl ajÄģm
Ġap ust
isk uma
ĠpÄģr n
Ġ17 75
Ä«ga m
Ġkl Äģja
18 92
eik i
Ġ14 3
og Ä¼u
Äģtr is
Ð» Ð¸
ĠKl aud
Ġled Äģjs
ĠnoslÄĵg umÄģ
ĠMeln Äģ
ĠLiterat Å«ras
Ġris inÄģjumu
ĠCilvÄĵk a
ĠpÄģrveid ota
eniek i
ĠvÄĵ Å¾a
ĠMÄģt Ä«te
ĠJar oslavs
ĠmatemÄģti Ä·i
Ġviedok li
Ġligz da
ĠÅłr il
Ġcuk ura
Ġkristiet Ä«bas
yg nus
rof ona
Ġul tr
ĠSatiks mes
ĠdÄ«zeÄ¼ vilc
L ud
Äģ Å¾
Ġno pl
Å¾ o
ĠM ov
ĠM AL
Ġc om
gr u
ĠN orth
ĠG el
ĠG auj
Å«r es
ĠlÄ«dz aut
Ġkr Äģtu
Ġ18 36
ĠÄį ig
Ġzem Å«d
Ġgar en
Ġlab ÄģkajÄģm
ieÅ¾ a
ĠÄ«paÅ¡ umus
Ġsv ilp
ĠparÄģd Ä«bu
ĠinstitÅ« cijas
ace ae
Ġmekl Äĵjot
ĠtÄĵl nieks
Ġstun dÄģs
Ġinstrum ents
ĠIzra ÄĵlÄģ
Ġlas Ä«t
ĠierÄ«c Äĵm
ĠÅ¡au Å¡anÄģ
ĠNar vas
Ġemigr Äĵja
ĠmÄ«lest Ä«bu
Ġjubil ejas
Ġmaiz es
ĠvÄĵrs Äģs
Ġnekav Äĵjoties
D F
P at
P ot
å ħ
ĠV eÄ¼
Ġie slÄĵg
Äģl ieÅ¡u
ĠG ames
ĠJ em
ĠÅ¡ ovÄģ
ĠLatv ian
akst u
ĠU fas
Ġliel Äģm
Ġveid us
ĠBr eÅ¾
Ġnos od
ug Äģm
aud Å¾u
Ġnosauk umus
ĠspÄĵlÄĵtÄģj am
Ġnek Äģdas
ĠFr Ä«d
Ġdraudz Äĵ
Ð¼ ÐµÐ½
Ġfiz iskÄģs
Ġkval ifikÄģcija
Ġpabei dzis
Dz elz
ĠSan francisko
ĠdÄģrz u
ĠBaltkriev ija
Ġautoc eÄ¼i
Ġcel tas
ĠTrÄ«s vienÄ«bas
ĠSaks ija
ĠLigzd oÅ¡anas
Ġnozar Äĵs
Eur ope
Ġrekonstruk cija
pag asta
B ol
N et
n ep
x c
on o
Ġl ija
Ġb aid
ĠS amu
ĠL td
ĠR edz
ĠD S
Ġf akts
Ġpie eja
Ġkr ab
ĠAl breh
Ġ15 2
Ġpag od
Ä«k as
ĠSk al
11 1
ogrÄģf ijÄģ
Ġsad edz
Ġatkl ÄģÅ¡ana
Ġmat ojums
ĠiespÄĵj ami
Ġveic is
ĠkÄ¼ Å«
ĠPils oÅĨu
Ġatjaun oÅ¡ana
Ġmon ogÄģm
Ġuzbruk t
ĠAk nÄ«st
Ġbag Äģta
Ġmekl Äĵjami
ĠMeln kalnes
Ġpsih iat
ĠSac Ä«kst
Ġtenis isti
ĠÅ¡Ä·idr umu
ĠÄªr ija
Ġkaz aku
ĠbÄĵrn Ä«bas
ĠZv ej
Ġklien tiem
Ġapkai me
Ġtuks neÅ¡a
Ġserv era
ĠFilm ogrÄģfija
Ġpraks Äĵ
ĠÄ«r es
Pred ators
. '',
P eter
W e
h or
Å Ļ
Ï Į
ga iÄ¼a
Ġpr oti
ĠI ed
ĠH un
Äį ovs
Ġsk atÄ«t
Ġ18 38
Ġh all
veid Äģ
pr ogram
Ġpil da
ĠÄ· irz
ĠFran ko
ĠKon kurs
oÅ¾ i
Ġklas iskÄģs
ĠparÄģd Ä«ja
ĠsvÄĵt o
mal es
Ġsaim niek
Ġuzlab otu
ĠziemeÄ¼riet umiem
Ġorg Äģni
ĠZil upes
Ġkoks nes
ĠSigism unds
ĠBasketbol a
ĠÅħem ot
P ir
d ers
Ġl ieti
ĠP ower
ĠV ietu
ĠM iss
Ġat entÄģ
ĠR ah
Äģj usies
Ġz inÄģÅ¡anu
ĠJ uli
ĠF ur
Ġ18 14
Ġ18 01
ĠÄį aul
ĠVal oda
ĠizcÄ«n Ä«juÅ¡i
ĠÅ¾ Å«rijas
Ġizdev umi
Ġkauj Äģm
Ã© e
Ġebr ejiem
ĠseÅ¡ Äģm
Ġkab ine
ĠÐ¡ ÑĤ
ĠTar as
ym pi
ĠSpr ing
Ġmeit ene
Ġizcil Äģkajiem
Ġkonkur encÄĵ
Ġsup erk
ĠVÄĵr mah
ĠFo x
ĠZemgal e
ĠizmÄĵÄ£ inÄģjumu
ĠâĻ Ķ
zin Ä«bas
ĠdÄĵl am
ĠManu els
ĠMazov ijas
ĠStaf ete
iscover y
Ġpj edes
Vents pils
C in
J ur
L R
h is
v ina
v era
Äģ ÅĨ
Ġl Äĵk
ĠS omu
dz Ä«ba
ĠV irg
ĠB est
it ter
od ija
Ġval Å«tas
Äĵn ess
Ġka Ä·is
Ġter ora
eÅ¡ i
Ġas iÅĨ
Ġup ei
ĠTur km
Ġizdev usi
Ġpavad oÅĨiem
Ġkosm iskie
Ġattiec Ä«ba
Ġskait Ä¼a
Ġatm at
land s
estr as
Ġpilskaln Äģ
Ġmug urk
Ġpagar inÄģts
Ġnoskaidr ots
ĠKov aÄ¼
ĠneÄ¼ Äģva
ĠTeil ors
Ġpseid onÄ«mu
Ġbrem z
ĠBaik on
F in
M or
ĠV ienÄģ
os i
Ġiz Ä«r
Ġiz spÄĵl
ĠR is
atv ed
Ġgr enad
ÄĵtÄģj am
Ġ17 97
Äĵd era
Ġ13 1
Ġpal aist
ĠSp arta
Ġrakst Äģ
10 1
aug us
Ġdom Äģt
ĠOtr s
ĠInd iju
Ġvil nis
ĠDarb Ä«ba
ĠBer gs
Ġapstipr inÄģta
Ġadministr Äģcijas
Ġnez inÄģms
Ġkosmon autu
put nu
ĠSingl i
ĠGir l
ĠMot or
ĠSchw erd
Provinc ia
B ern
C osworth
R em
Ġp igm
en ia
Ġno sp
Ġno strÄģd
ĠR ug
et d
ist iski
ac o
ac is
Ġ18 17
ĠÅł ev
Ġaiz bild
Ġaug us
Ġjaun Äģm
ĠAp es
Ġsu ÅĨi
ĠVis sv
ĠAm atas
ĠstrÄģd Äģjot
ĠmÄĵr Ä·
ĠOtr Äģs
Ġneb Å«s
ĠpÄģrd oti
ÑģÐº Ð¾Ð³Ð¾
Ñı Ð½
Ġierakst Ä«ts
Ġvil ks
ĠizvÄĵl Äĵta
Ã¡ r
Ġfakt oriem
Ġatrod oties
ĠGre iem
Ġpieredz e
ĠPret inieks
Ġvingr oÅ¡anas
obsl ejs
Ġenciklop Äĵd
Ġekstr em
ĠÅłÄį ec
Dav id
ĠEngur es
l ovs
Ġv Äģka
Ġm ult
Ġno Å¡Ä·ir
ĠL od
Ġiz dz
Ġc elts
ĠN eim
ĠF ir
ĠH jÅ«
18 85
Ġtik ko
ks a
Ġpret st
Ġvec ums
Ġnek Äģdu
ĠizcÄ«n Ä«ta
Ġbar o
Ġpiek tais
Ġpubl ikÄģcijas
Ġklas icisma
ĠAnt antes
ĠRakst nieku
ĠSig uldÄģ
Ġnom ed
Ġkoncert z
ĠLud m
Ġnepie Ä¼
Ol imp
ĠRos bergs
PÄĵt eris
ĠLad y
Ġrekonstruk cijas
mÅ«z ika
ĠÄĮakst e
Ġjezu Ä«tu
E ver
I R
L ev
Ġ eti
'' -
Ġt ec
ÅĨ iks
ĠL ett
em enta
ĠB ay
ĠN ag
Ġ18 33
Ġtr iju
Ġtr oÅĨmant
Ġpirm at
Ġh ektÄģ
val de
eh s
ĠKar ab
Ġlatv ieÅ¡iem
ĠÄ«paÅ¡ ums
Ġuzskat Ä«tas
Ġakt iera
ĠkÄģrt Äģs
ĠVid ÄĵjÄģ
Ġuzbruk umiem
ĠÅ¡Ä·ir u
ĠAngl ija
Ġzv anu
Ġkalp ot
Ġjur is
Ġmug ura
SO K
mÄģk sl
Ġmonarh ijas
Ġkarag Å«stek
Ġkonflik ta
Ġpirk sti
ĠVispÄģr ÄĵjÄģs
Ġtrau mas
ĠacÄ«m redz
ÅĦ ski
ĠZiemeÄ¼amer iku
Grizz lies
N at
N ord
å ®
Ġ enk
ar ti
Ġd ara
Äģr es
br a
uk cijas
Ġ17 90
Ð¸ Ð»ÑĮ
Ġzem Å«dens
zÄ«m Äĵ
ĠW al
ĠPirm os
ĠPol ijai
Ġcit plan
Ġup uru
art h
ĠraÅ¾ otÄģju
Ġop eru
Ġnoteik Å¡anai
ĠpastÄģv Ä«gu
ĠVid Äĵji
ĠapkÄģrt ÄĵjÄģs
ĠÄ«st i
iÄ£ ents
Ġdzin Äĵjiem
Ġlielmeist ares
ĠPrÅ«s ijÄģ
Ġprojekt iem
Ġpieliet ojums
ĠbrÄ«vprÄģt Ä«gi
ĠEkonom ika
skai tes
Ġlieg ums
Liver pool
J ean
K ir
R Äĵzek
f akt
ie stu
Ġd ievu
ĠD ons
Äĵl Äĵs
ies mu
ĠN O
ĠN CAA
ic ola
ĠO tavas
ac s
Ġgr emoÅ¡anas
Ġ18 18
Äģrt Äĵ
eh ijas
Ġ13 9
Ġol Äģm
Ġpret oÅ¡anÄģs
ĠÄĮ eÄ¼ab
Ġmaz iem
ĠsastÄģv daÄ¼u
ĠSk ola
ĠuzÅĨÄĵm Äģs
Ġnes ekmÄ«gi
Ġizr unÄģ
all y
Ġvidus laikos
Ġamat s
Ġsaist Ä«bu
ĠreÅ¾is oru
Ġform ulu
Ġman uskrip
Ã¤ l
entÄģl ajÄģ
Ġbiez i
ĠSil Äĵzijas
Ġrezerv Äģts
ĠpelÄĵk a
ÃŃ n
ĠWh ite
Ġiepl Å«st
itÄģt ei
Ġpretr un
ĠkrÄģÅ¡ ÅĨ
H urricanes
J uris
j els
Ġt Äĵma
Ġn Äĵ
ÅĨ ec
ĠS okol
ĠV ester
ĠD onas
ĠG ut
ĠÅ¡ ifr
ĠZ A
Ġ18 55
oÅ¡ us
ens e
pr ess
18 88
ent Äĵ
iÅ¾ a
Äģz ija
ĠOl iv
ĠnovÄĵr ojams
ĠStr at
Ġizplat Ä«ti
Ġizpild komit
Ġsasnieg usi
Ġdzelt ens
ĠÄ«pat ÅĨiem
ĠQ F
ĠtrÅ«k st
ĠSad arb
Ġienaid nieku
ĠRÅ«d olfa
Ġkaval Äĵrijas
Ġiero Äįi
Ġoperat ors
Ġatg Å«Å¡anas
Ġrekon stru
mÅ«sdien u
ĠPaÅ¡vald Ä«ba
ĠFjod ors
Ġslal oms
Ġtele grÄģf
ĠInsbruk a
D as
N or
P av
g n
r it
Ġm ala
ĠA er
Ġr iesta
ĠT ajÄģs
Ġj Å«s
op le
ĠH ann
ĠH ouse
ĠU guns
ĠÅł ul
ĠPr ied
iec e
ĠSp e
Ġpil na
ikÄģ tu
Ġpav Äĵd
Ġdal Ä«ba
Ġliet Äģs
Ġsasnie gu
uv e
ĠSv Äĵto
Ġ27 0
ĠoficiÄģl ajÄģ
Ġmon Äĵtu
ties Ä«bas
ĠatseviÅ¡Ä· Äģm
Ġiedal Ä«jumu
Ġsamaz inÄģja
Ġnotik usi
Ð³ Ð¾
Ġw idth
Ġadministr Äģcija
Ġfot ograf
Ġraid Ä«juma
Ġsarun Äģs
ĠTÄģl avas
ĠsÅ«t nis
Ġizpl et
Ġrepres iju
Ġaplenk uma
Ġpusl odes
Ġdamb is
ĠBundesl Ä«gas
Ġpres Äĵ
ĠÅ½emait ijas
ĠPareiz tic
G E
P Äģr
k es
p ir
Ġp and
Ġl ak
Ġl itr
Å« dzÄ«bas
ĠL Äģs
ak ins
Ġat vair
ĠT on
od oties
ĠN Ä«
ĠpÄģr iem
Ġgr Ä«das
Ġ18 09
Ġne brÄ«v
gl ezn
Äĵd Äģji
18 82
18 79
Ġapr ind
Ġnovad iem
Ġvirz ieni
ĠIr ina
Ġattiec Ä«gajÄģ
Ġatz ars
''''' )
aliz Äģcija
Ġelektr o
ole uc
ĠplÄģn oja
err y
Ġpapild inÄģja
Ġkino aktr
Ġnum ur
Ġmot oc
Ġkoncentr Äģcija
ĠizstÄģd Äĵs
osk Äģb
ĠAg ena
ĠsvÄģrst Äģs
ĠÄ·Äĵd es
Vien otÄ«ba
ĠLis ab
Ġsuver en
ĠNeil gi
ĠÅħik ita
Ġpiev ÄģrtÄĵ
ĠKamb od
L ive
W GM
f ir
Ġm estra
us am
ĠL ight
Ġiz Å¡
Ġc enÅ¡oties
Äģm o
ĠJ Å«
Ä«t am
Ġ18 22
Ġst Äĵr
Ġ6 39
Ä«d Å¾
Ä«tÄģj am
Ġiet vÄĵra
Ġpart ner
Ġprofes ijas
ĠtÄĵv iÅĨa
ĠrÅ«p niecÄ«bÄģ
ometr a
Ġdzied Äģja
di os
Ġvasar a
ĠplÄģn o
ĠMil an
Ġizviet ojums
ĠdziedÄģtÄģj u
Ġper if
Ġaps vÄĵr
eirop ieÅ¡u
Ġnoviet ots
ĠIzglÄ«t Ä«bu
Ġpurv i
Ġeksperim entu
Ġgredz ens
ĠKrista pa
ĠMaur Ä«cijas
deg una
Ġfirm as
risti an
' m
K S
U SA
l Äĵc
Ġs i
Ġs ed
Ġl ugu
ik ot
iz r
ĠA ward
ĠS ver
ĠL auks
ĠV FR
ĠM itr
Ä«g Äģka
ĠF unk
ĠlÄ«dz Å¡in
Ġ18 04
ĠÅł ajos
ig e
Ġpus finÄģls
Ġsak aus
Ġizr Äģde
Ġkonc erti
Ġsaglab Äģjas
Ġsap Äģr
ĠnacionÄģl ie
umb ia
ometr s
ojoÅ¡ ie
ĠpieÅĨem Å¡anas
Ġprec Äĵjusies
Ġorb Ä«ta
ĠiestÄģd Äĵs
ĠTh is
ĠVladim ir
ĠjautÄģj umus
Ġper Äĵ
Ġindividu Äģlo
ĠpiedzÄ«v ojumu
ĠdzÄ«voj uÅ¡i
ĠMag ÅĨitogor
Ġkorpor Äģciju
ĠJug la
Ġdeleg Äģcijas
ĠÄįÅ« skas
ĠStep anovs
Ġslov Äģku
Ġkaravad onis
ĠIetilp Ä«ba
Ġhel ikop
ĠvecticÄ«b nieku
ĠmonogÄģm us
N a
O P
j Å«n
n oz
Ġn auda
au Å¡anÄģs
Ġl eitnants
ĠA wards
ĠK es
ĠJ ag
ĠJ eb
dr as
Äį en
eid a
ĠU Å¡
Ġaiz g
ĠAn ita
Äĵs la
18 98
ks wagen
Ġstarp Ä«ba
pl or
Ġier un
Ġmaz Äģkais
Ġmir uÅ¡o
Ġslim nÄ«cu
Ġsvar Ä«gu
Ã© n
ĠSom iju
ĠBar ik
Ġform Äģts
Ġspr inta
Ġbur ti
ĠtÅ«r e
Ġuzbruc Äĵji
Ġtelp Äģm
Ġnostipr inÄģjÄģs
ĠkopvÄĵrt Äĵjuma
Ġkron Äĵts
ĠStamb ulÄģ
ĠBudapeÅ¡ tÄģ
Ġmikro aut
ĠSuperl Ä«gas
Ġalum Ä«nija
ĠÄ«pats vars
G i
d ec
m eÅ¾
Ġk ost
Ġr oz
im ta
ĠR Äĵv
ĠG aÄ¼
ĠE mir
ec ht
ĠÅł ÄģdÄģ
Ġ17 98
ĠBr os
ĠDÅ¾ es
ĠIn stitÅ«
ber w
og ot
ĠÄ¶ en
Ġsavien oja
Ġplat form
Ġneat bilst
ĠÄª st
Ġpied Äĵv
Ġkonkurs u
ĠEm b
Ġaktr ises
Ġatbild Äĵja
ĠVidus laikos
ĠDan ce
ĠBij usi
ĠPriekÅ¡ s
ĠÅ¡Ä·Äĵr sl
ĠopozÄ«c ijas
ĠapÄ£Äĵrb u
âĨ ĵ
ĠuniversitÄģt Äĵs
J elgavas
m Äģjas
n ic
t w
t um
Ä« Ä·e
Ġt ev
ĠA D
ĠL ak
av Äģm
ĠD atu
Ġc ol
ag v
ĠH op
ĠZ c
ĠC lass
Ġgr Å«
str Äģvas
Ġbr iti
Ġbr iesm
ĠAn sis
18 94
ĠSp ilv
Ġier audz
Äģp ju
Ġmaz Äģs
aur i
ĠLiel polijas
ĠraÅ¾ otne
ĠKan oe
ĠizstrÄģd Äģjumu
ĠAk adÄĵmijas
Ġiem Ä«t
ĠRad i
Ġdek r
Ġdef orm
Ġneap dzÄ«v
ĠpakÄ¼aut Ä«bas
Ġmeit enes
Ġarhe oloÄ£
ĠKonstant in
ĠGer hards
Ġaugstskol Äģ
ĠValent Ä«na
ĠBill board
ĠieroÄį iem
Ġrat ific
ĠVerl ag
ĠBrestÄ¼it ovskas
H a
S U
r agÄģ
Ġd ez
ĠS us
ĠP omer
em u
ĠM iÄįi
ĠT onijs
Ġz alk
Äį iks
veid Ä«gajiem
18 77
Ġnos auc
ain ie
Ġdaudz umÄģ
ĠBal vas
Ġcit am
Ġpamat i
Ġlid sabiedr
Ġbar ons
Ġbez vadu
Ġgu vusi
Ġmod ific
Ġattiec Ä«gÄģs
idz emes
Ġkan Äģli
ĠzinÄģm ais
St ation
ĠziÅĨ Äģm
ĠÅ¡t ats
ĠapstÄģk Ä¼us
ĠAut om
ĠMor iss
Ġam in
Ġcik lu
bu ch
Ġprincip i
Ġizkl aid
Ġbiznes s
ĠsareÅ¾Ä£ Ä«tÄģ
Ġkonserv atorijas
spÄģr nu
ĠpatstÄģv Ä«gi
andin Äģvu
Ġatdz ej
Ġkarb on
ĠsiÅ¾ eta
ĠBM W
ĠpÄĵkÅ¡ ÅĨi
Ġnejau Å¡i
Galven ais
K ad
au sks
al ia
am ajÄģm
ĠL BL
ĠT iesa
Ġj Äģr
ĠN u
ĠZ ag
Ġkar s
Ġtr ig
ĠAn ah
Äĵs is
ĠBr o
Ġzem ienes
Ġjaun ÄģkÄģ
ĠSt al
Ġpiem iÅĨai
ĠÅ¡Ä· aut
Ġpiek ri
Ġplat formu
erm o
Ġsim f
Ġstart Äĵjis
ĠbÄ«skap ija
ĠspeciÄģl u
Ġtrolejb uss
Ġtenis ists
Ġsezon Äģm
Ġkampa ÅĨu
ĠsvÄģrst Ä«bas
ĠOm skas
ĠdÅ« ÅĨa
ĠJÄģz eps
Ġhal le
Ġgalam Äĵr
Go ogle
ĠSanh osÄĵ
B er
B et
J ust
m iem
Å Ĺ
Ġv ibr
al o
st ant
Ġl ietÄģm
ĠV era
ĠV iÅĨiem
ĠB ils
ĠG ub
ĠÅ¡ Ä¼
ed us
Ġ18 43
Ġkop u
otÄģj as
ĠVal da
ilv Äģnijas
ÑĤ Ð°
ĠÄģr Äĵji
ĠFr iedrich
ĠÅ¾ Äĵl
Ġbar us
Ġizdev Äĵjs
ell ite
ĠKal v
Ġsamaz inot
Ġnotik umus
ĠpozÄ«c ijÄģm
ĠAd el
ĠreliÄ£ isko
Sk y
Ġkak ls
ĠDraudz Ä«bas
Ġkul tiv
Kriev ijas
Ġgrenad ieru
B ab
K at
n ijas
as tes
Äĵ ÅĨi
ĠL om
ĠL amb
ĠN um
ĠpÄģr ta
Ġkr ava
Äģv ijÄģ
ĠÐ §
ĠKriev zemes
og en
gad am
eÅĨ Å«n
Ġorganiz Äĵta
Ġkras i
ĠDienvid s
An ton
ĠÅ¡Ä·ir ne
ĠDarb s
ĠreÄ£istr Äĵti
ĠprofesionÄģl i
Ġpras Ä«ja
Ġdzin Äĵji
ĠAustrum prÅ«s
ĠVan ags
Ġnolai Å¡anÄģs
ĠFiz ik
spÄģr ÅĨu
ĠleÅĨ Ä·is
ĠaprÄ«k ots
Ġdzirn avas
ĠPed ro
Ju ventus
ĠsÄģp es
ĠAndre ass
ĠMÄģrt ins
omoÅ¾ es
ĠShut tle
C N
R C
V u
Z enit
Ġp ik
st Ä«ja
Ġl oku
ĠL f
ĠL Äĵd
ĠV r
ĠV ana
tr e
ĠT ÄģdÄģ
Äĵl ijs
Äģl iju
ĠF al
ĠE c
Ġkr Äĵsl
nie ga
Ġh em
nes Ä«
18 80
Ġstarp planÄĵtu
Äģz iju
ĠVis pirms
Ġstud Äĵt
Ġturp at
ĠOr lando
Ġcaur uÄ¼
Äĵp es
ĠCentr ÄģlajÄģ
ĠparÄģd Ä«ba
ĠIl gu
In t
ĠbruÅĨ otie
Ġsasnieg umi
Ġsauk ti
ĠÅ¡Äģd iem
Ġparlam entu
odr oms
ĠRoz e
ĠRub ins
Ġvel obrauc
TV L
Ġkoncert os
Ġkonkr Äĵtu
ĠKosm on
ĠplÄĵs Äĵjs
Ð¾Ñģ Ñģ
ĠzÄ«d Ä«tÄģju
Ø§Ù Ĩ
Ġuzved Ä«bu
Ġatvas inÄģts
ĠKet lers
ĠSeriÄģl s
Ġestr Äģdes
ĠÅ½or Å¾s
Ġtub erk
ĠTadÅ¾ ik
M C
T L
T all
V Äģcija
s er
Ġk um
at um
Ġb au
ĠP ots
ĠK um
Ġat c
ĠR ainis
op ole
iet y
ĠZ ah
Ġ16 6
Ġstarp niecÄ«bu
ing ton
ĠmÄģk oÅĨi
gad Ä«gs
ĠRob ert
ĠCh ess
Ġtirg otÄģju
âĢĻ .
ĠRom ieÅ¡u
ĠnoslÄĵg t
Ġpac elt
ĠpelÄĵk br
pers on
Ġdisk valific
Ġsepti ÅĨiem
yr r
Äĵb ers
ĠHok eja
ĠOt to
ĠdÄĵl iem
ĠmuÅ¡ Ä·Äĵr
amil y
ĠKlÄ«v lendas
ĠBaikon uras
M ichael
b ir
Ġ Ñį
al nes
Ġl ogu
iz Äĵti
it ch
ies kaitot
ĠN in
Ġtr ener
Ġvar des
Ġne gr
aut o
me ta
Ġal Äģ
ĠPar ka
ĠlielÄģk ajai
12 1
end e
akt or
vad a
oh a
ĠÅ½ ag
Ġlid ostÄģ
iens is
Ġplat o
Ġpirms skolas
Ġinter p
ĠstÄģv i
ĠizstrÄģd Äģ
ÄģtÄģj a
ĠAugst ÄģkajÄģ
ĠspeciÄģl istu
ign or
ÐµÑĢ Ð³
ĠbrÅ«n i
Ġtulk otÄģjs
Ġlok auta
ĠIev Äĵl
Ġuzman Ä«ba
ĠOzol iÅĨa
Ġlej tecÄĵ
ĠÅ¡au Å¡anas
ĠMasa ÄįÅ«sets
ĠBlu e
ĠaltÄģr is
ĠJupit era
ĠsaslÄĵg Å¡anÄģs
M Äĵs
n it
p Äģ
Äģ Ä¼iem
as i
'' ".
Ġs ul
Ġno br
Ġr acionÄģl
tu be
Ġat vÄĵrt
ĠR AF
Ġuz stÄģÅ¡anÄģs
Ġf Äģze
ĠN ora
Ġlai d
Ġdzim umi
Ġdzim tÄģm
me ts
ĠGr in
Ġvad oÅ¡ais
ter us
Ġdaudz kÄģrt
Ġkara Ä¼u
Ġsac entÄģs
Ġieguv Äĵjas
Ġlik umÄģ
Ġkok Äģ
onz as
ĠLiv er
Ġtehn iskÄģs
lav Äģ
Ġid ent
darb Ä«ba
Ñĭ Ð¹
Ġspr ied
Ġkod ols
ĠÄĢz ija
ĠpiemÄĵr ota
Ġapmekl Äĵt
Ġatrod ama
inÄģtÄģj i
Ġsagr Äģva
ĠarhibÄ«skap u
Ġbrauk t
Ġuzved Ä«bas
Ġnorit Äĵja
ĠDÅ¾eks ons
Ġpiesp Äĵles
ĠÄĵrÄ£ eles
Ġekr Äģna
Ġpaveid s
ĠJevgÄĵÅĨ ijs
ĠBarik ello
J ac
b iju
Ġ {
Ġ Äĵst
Å¡ Å«nas
in burgas
Ä¼ oÅ¡anas
ĠS tipr
av Ä«ks
it m
ev iÄį
ĠÅł ahu
re am
18 78
Ġ14 7
Ġrad inieki
Ġnek valificÄĵjÄģs
kÄģrt as
Ġalb ÄģÅĨu
ĠkÄģd ai
ĠbrÄ«v u
ino Å¡u
Ġpies Äģt
ĠceÄ¼ ojumu
ĠAb h
Ġrom ieÅ¡i
Ġstat istikas
ĠSen na
ĠOf ficial
Ġterm iÅĨu
ĠÄĢd olfa
ĠpÄģrt iku
ĠIg o
Ġvilc iena
ĠpriekÅ¡pils Äĵtas
ĠArgent Ä«na
Ġkaul i
Ġpazem inÄģjÄģs
ĠMuz eja
ĠMuz ejs
Ġaizviet oja
ĠIÄ¼ Ä£uciem
Ġpussar ga
ĠÄ¶eg uma
berw olves
A ir
p Äĵja
Ġk laÅ¡u
ot am
Ġ2 16
ĠL iter
Ġr otÄģ
Ġc an
Ġap ÅĨÄĵm
ok omp
Ġgal os
Ġ16 8
Ġizc ir
ort ies
iÅ¡ ki
ĠUz bruc
ĠnozÄ«m Ä«gas
ener al
Ġav ota
Ġned ÄĵÄ¼a
ĠÄ¢ edim
ĠBl akus
ĠBar ons
ĠJelga vu
ĠpÄģrs nieg
Ġproces us
ĠcitÄģ di
Ġapbalv ojumu
Ġspie sta
ĠUr Äģlu
ĠSer ver
ĠâĢĺ âĢĻ
Ġienaid niekiem
Ġorg Äģns
ĠLÄ«v Äģnu
ĠmehÄģnis mu
ĠkaÅ¾ ok
ĠDuk urs
ĠBolder Äģjas
ĠNK VD
I man
O gre
j ona
j anas
Äģ Å¾a
Ġn aid
um in
Äĵj amo
ĠK nÄģb
dz iesma
Ġr asties
Ġiz stÄģÅ¾u
ĠD anc
Ġap ÅĨem
ab ejas
Ġsp ura
ĠÅ¡ ova
ĠC ib
uk as
Ä«m u
ĠKr em
Ġne guva
ĠAts auce
Ġveid otu
Äĵd es
ĠvÄĵl ÄĵtÄģji
Ġ15 3
ĠBr end
Ġrakst Ä«jis
ĠsastÄģv daÄ¼as
ĠTr ip
Ġizlas ei
Ġuzskat i
ĠFr om
Ġdom Äĵnu
Ġdev is
Ġpievien oties
Ġpap Ä«r
Ġagr ÄģkÄģs
ĠSavien Ä«bu
Ġiev ieÅ¡
ĠpakÄ¼ auti
ĠievÄĵroj ama
ÄĵjoÅ¡ s
Ġpriv Äģta
ĠEz eri
ĠSil iÅĨÅ¡
ĠTer itorija
ĠadministratÄ«v Äģs
ĠpasÄģk umos
Ġvilc ieni
Ġkaps Äĵtas
Ġuzs ver
ĠtrÅ«k umu
Ġaugs nÄĵ
isch es
Ġadres i
Ġbase ins
Ġkoled Å¾as
ĠVirsl Ä«gÄģ
Ġspal vu
ĠProv inc
ĠCentrÄģlt irgus
D u
n ica
Ġ Ñħ
Ġs cen
au sta
Ġl uga
ĠP iel
ĠB ark
ĠD R
Ġz aru
ic er
ĠE b
ĠE gl
ov kas
ei gas
Ġtr il
Äĵn Äģm
Ġkop iena
ĠAt tÄģl
Ġ13 00
Ġ14 9
Ġrad Ä«tu
Ġapvien oti
Ġministr ijÄģ
Ġkonc ertÄģ
isc o
Ġciet uma
ĠÄ·Ä«m iskÄģ
Ġred iÄ£
Ġsarkan u
ĠUzvar ÄĵtÄģjs
ici us
Er n
ĠSudr aba
Ġaizsarg Äģtu
ĠmÄĵnes is
Ġnolikta vas
ĠÅ¡Ä·iedr as
ĠpriekÅ¡met us
ĠTeks asas
ĠBeidz is
Ġgruz Ä«nu
Ġtraj ektor
L Ä«dz
M Å«su
S QL
k oka
ĠM aÅ¡
av ai
Ä«g Äģki
Ġau sis
Ġkar tup
Ġ18 13
eg e
ig ers
Ġ17 10
Ġtur b
Ġzem s
ks nis
Ġdr oÅ¡i
Ġcit ai
ĠZiemeÄ¼ j
ĠbijuÅ¡ ajÄģ
skait lis
irz as
ĠVec Äģs
Ġizs aka
Ġkandid Äģta
Ġlau vas
ĠkÅĨaz i
ĠkÅĨaz istes
Ġproduk ts
Ġug uni
Ġasto ÅĨi
Ġresurs iem
Ġver gu
Ġizt vai
Pie zÄ«mes
Ġdatub Äģze
Ġtank ku
Ġlielgabal u
ĠDes mit
ĠZh eng
Ġintr oduc
esch ichte
ĠlÄĵ sts
A lex
O PS
b us
c z
d Äģrz
f i
g ov
i uss
Ġp ion
Ġk vÄĵl
ai o
Ġ2 14
ĠL uka
ĠV aÄ¼
el ektr
Ġiz sm
Ġap Ä¼a
Ġf avor
ul Äģcijas
ĠN elsons
Ġsp Äĵtu
sk unga
re y
me ÅĨ
Ġpiedal Ä«juÅ¡ies
Ġrez on
ĠÄ«paÅ¡ niekiem
ĠuzÅĨÄĵm umus
ĠiekÄ¼ aujas
ĠOl ivers
ĠAnt on
Ġobj ektÄ«v
ĠMeÅ¾ otnes
Ġapstipr ina
Ġdokum enti
Ġbir oju
Ġdebit Äĵjis
Ġbalt ie
ĠizbÅ«v Äĵts
Ġminim ums
ĠOsk ara
Ġdob umÄģ
ĠiesÄģk a
ĠGrÄģm atas
ĠBulgÄģr ijÄģ
ĠpÄģrstrÄģd es
ĠkÄ¼uv uÅ¡i
ĠNosl Äĵg
P adomju
S ievietes
r ow
t iec
Ð ¯
Äĵ Å¾u
on ieÅ¡u
Ġl Å«p
Ġm l
Ġ2 15
ĠS ong
Äĵj uÅ¡Äģs
ĠK h
ĠR h
ĠR ur
ĠR az
Ġap pl
et Äĵm
Ġj omas
ev ics
ec om
Ġsk austÄģ
ip es
oc Ä«ti
Ġvar en
ÅĨÄĵm is
Ġ12 53
Ġzem niekiem
Ġgadsim tus
Ġdat oriem
ĠVis stipr
Ġlid ojumi
Ġpan or
Ġfor Å¡t
An g
Ġizpild dir
ĠStu dios
Ġcer Ä«bas
ĠZinÄģt nieki
Ġdzelt enÄģ
Ġbul gÄģru
Ġresurs us
Ġmolek ulu
ĠÅ¾an ru
ĠSof ijas
ĠIevÄĵroj am
Ġnopost Ä«ta
Ġhol andieÅ¡u
ĠMatÄ«s s
ĠFÄĵl ikss
ĠReinhol ds
Ġlaikap stÄģk
T Äģ
V el
c Äĵ
v ils
Â ·
Ġ ãĥ
is on
ai ti
or p
iz Äĵjot
ĠA pl
ĠS iet
ĠS af
ĠL ast
ĠL SP
em an
ĠR ing
dr u
ov ice
ĠpÄģr eju
ĠkÄģ pa
Ġsk aÄ¼
Ġ18 03
oc ents
Ä«z iju
Ġgar Ä«go
Ġviet nes
ĠMar iju
ĠUn der
Ġkaral ienes
ĠizstrÄģd e
Ġuzbruk umus
ĠIm antas
Ġdinast iju
Ġkurs a
ĠBen g
rad i
Ġluter iskÄģ
ĠiekÄģrt oja
ĠSib Ä«rijÄģ
ĠForm Äģts
Ġlietus gÄģzes
ĠKazahst ÄģnÄģ
Ġizrak umi
Ġslik ti
Ġmiljard us
ĠSalac grÄ«vas
ĠSW H
ĠVeb ers
Urs us
F ac
M od
V en
j er
j eb
k lase
z vaigz
× Ļ
Ġp apa
ar io
om et
oj uÅ¡as
Ä«v us
ĠH ill
Ġkar aÄ¼i
Ġg at
Ġsk Äģra
ĠÐ ¶
ĠAn dal
Ġsl avu
ĠDÅ¾ ul
ĠDÅ¾ onijs
ing ene
Ð½ Ðµ
Ġolimp iskie
iÅ¡ k
ĠZiem Äģ
Ġieguv e
Ġiel Å«g
Ġmat u
ĠSv etl
ĠnovÄĵr oti
Ġstarptaut iskos
Ġtir gu
ĠkÄ¼ Å«tu
Ġinter pret
ĠrÅ«p Ä«gi
ĠSpÄĵl Äĵ
Ġmas Ä«vs
for da
Ã¤ t
ĠÅ¾urnÄģl istu
ĠStud iju
inÄģtÄģj a
ĠpaplaÅ¡ inÄģja
Ġprojekt os
ĠÄ£int Ä«s
ĠpÄģrsp Äĵti
ĠHit lera
ĠpiegÄģd es
ĠTies lietu
ĠProj ect
Ġzib ens
ĠBai ba
8 00
D ub
M P
S T
U EFA
j ons
á ¹
Ä« tra
Ġ'' ''.
ĠA gain
ĠS z
Ġr ent
ad r
Ġiz ejas
ĠR ons
ĠD aÄ¼
od or
iet as
ĠE sk
ĠH abs
Ġvar oÅĨi
Ġ15 9
pils ÄĵtÄģ
Ġte ologs
ĠFil ozof
ĠdalÄ«b valstu
ĠmÄĵr Ä·a
ell es
Ġpan kr
Ġpieder Ä«bu
ĠpÄĵd Äĵjie
Ġies aukts
irk st
ĠX IX
Ġnomin Äģcijas
Ġdiev i
ĠreliÄ£ ija
ĠÄ£erb oÅĨa
Ġetn isko
ĠFiz ikas
ĠVasar Äģ
Em my
Ġlabor atorijÄģ
ĠjÄģt nieku
Ġautomobi Ä¼u
ĠLillehamm ere
E p
M o
S in
S acÄ«kstes
Ġs aind
Ġl ie
Ġ2 17
ĠP un
Ġr Å«g
ĠV ud
ak Äģm
ĠG amb
ĠE y
ĠH ak
ĠlÄ«dz ekli
Ġ18 07
Ġ18 29
auk t
Ġliel ajiem
Ġ17 91
ĠvÄĵl mi
18 76
18 70
Ä«k i
ĠDz Äĵrb
aln Äģ
ĠSk olÄģ
Ġnes kai
eln s
onis tu
Ġdom Äģjams
ĠOl ymp
Ġats auksmes
ĠPl ot
Ġad mir
Ġkor up
Ġneatkar Ä«gas
Ġizl aup
ator us
Ġskait l
Ġskait am
Ġman if
St arp
ĠbÄ«skap i
Ġuzdev a
ĠpiemÄĵr oti
ĠkrÄģj uma
ĠrevolÅ« ciju
ĠbibliotÄĵk Äģ
ĠArt is
Ġkompleks u
ĠsÄĵn e
ĠMus olÄ«ni
Ġbiznes u
kap itu
Ġkatedr Äģles
ĠjÅ«r ai
ĠGo ogle
ĠgrÄģmat Äģs
Ġaizs Äģc
ĠPriek ules
Ġstumbr a
Ġbazil ika
ĠMuham eds
ĠTamp abejas
ĠDienvidslÄģv ija
Ġarg um
Ġ ..
Ġn akt
al ai
en Å¡u
Ġb ailes
ĠB asket
ĠR P
ĠI ga
ej eva
Ġkom Äĵtas
Ġlaik met
ĠKr u
ven t
ĠAl ex
Ġ14 1
Ġstr uktur
Ġpav air
Ġfutbol istu
ĠUz skata
ĠÄ£im enei
Ġprezid ent
Ġpievien ojas
ĠStr azd
Ġpubl isk
Ġpieder Ä«bas
ĠkaraspÄĵk am
darb i
ĠzÄ«m ju
Ġautom obil
ĠÄĴr ika
Ġapar atÅ«ras
Ġizskat s
Ġkaul s
Ġmikr of
ĠKn ow
Ġaugstskol u
ĠDor ot
Ġdziedz eri
Ġnepat Ä«k
Ġatvien ojÄģs
ĠkuÅĨ Ä£a
ĠVaiÅĨ odes
A ns
S av
S aules
k od
z ig
Ä ĩ
Ġv isk
Ġb or
Ġb ara
tÄģ na
ĠS ut
ak ciju
ed e
az iÅĨas
Äģn es
Ġ18 28
Ġpas ar
Ġpils oÅĨiem
veid Ä«gi
Ġ6 000
ĠAn nu
ĠAl pu
Ġ17 76
Ġ17 88
Ġol Ä«v
Ġmar Ä·
Ġnev ajadz
Ġiel Äģs
ĠPie jÅ«ras
Ġamat ieru
ĠSal vad
elga va
ĠzinÄģm u
Gr ammy
Ä«kl u
Ġuztur Äģ
ĠRez ultatÄ«v
ĠRom ans
Ġanal Ä«zi
ĠKatr ai
Ġnostipr inÄģja
ĠÅ«deÅĨ iem
Ġrot aÄ¼
ĠaprÄĵÄ· ina
ĠnozÄ«mÄ«g Äģkajiem
ĠlÅ«g umu
ĠpaÅ¡reiz Äĵjo
Ġbrig Äģde
ĠnoÅ¡ Äģva
ĠRas els
ĠarhipelÄģ gÄģ
ĠsaÅ¡ aur
Ġsapulc Äĵ
ĠGund ars
A E
i as
Ã ľ
Ġt evi
in Äģcija
Ġb ars
iz ards
ĠK ings
ĠT osk
ĠN ak
ĠG Äĵr
ĠpÄģr klÄģj
ĠH ov
ec i
ĠC in
Ġ17 77
Ġ17 94
18 86
ĠAr nis
inÄģt ie
ĠGr os
ing enes
Ġapm aks
Ġsak a
Ġarh Ä«vs
Ġpubl isko
ĠlÄ«g umus
Ġsaist Äģs
ĠVid e
Ġ**** **
ĠIl mÄģrs
ĠSas kaÅĨas
Ġizs nieg
Ġsadarb ojÄģs
ÄĵjoÅ¡ ie
mat i
Ġkrit izÄĵja
ĠÅ¡aur umu
ĠnedÄĵÄ¼ Äģm
Ġplan Äĵta
ĠpopulÄģr Äģko
Ph yll
ĠGruz ija
ĠLib Äģnas
ĠvieglatlÄĵt e
Ð½Ñĭ Ðµ
ĠpazÄ«m e
Ġnosac Ä«jumiem
Ġtank i
Ġindi ÄģÅĨi
Ġpriest eris
Ġprefekt Å«ras
ĠdiÅ¾kuniga itijas
Ġmikros kop
teh n
Ġkarog nes
Ġ'''- '''
Ġhorv Äģtu
D ig
D ucks
I L
v ol
Ġb ek
Ġb Äĵga
ik Äģn
Ġno spr
ĠK Äģdu
ak ta
ĠR ain
ĠD au
ĠD ank
ĠN ept
ĠJ al
ion aliz
ĠH ome
ĠÅł ep
Ä«ga jam
Ġ15 8
Ġsl Äģni
ĠÅ«d eÅĨi
Ġciem us
ĠÅ½ enÄĵ
ĠKaral ienes
ĠjÄģ ap
kaln i
Ġpiel Ä«dz
ĠgÄģj iens
ĠIsl Äģma
ĠienÄģk umu
ĠFilip a
Ġdaudzveid Ä«ba
Ġsmar Å¾u
osc opus
Ġkomponis ta
Ġdurv Ä«m
ĠKlaip Äĵdas
Å¡tÄģ ba
ĠFizi oloÄ£ija
ĠGunt ars
Ġinterp retÄģ
C ygnus
e ing
v s
y t
as b
Ġs Äģnos
au x
en ov
Ġm ag
Ġm ulti
iz st
ĠK oÄ¼
ĠK aÅĨ
us h
Ġr Ä«s
oj e
et ton
Ġpr Äģm
Ġpie rad
Ġau du
Ġ18 5
Ġbet ona
da ÅĨ
ĠAt jaun
Ġfil osof
ĠPr ogress
gan i
Ġnovad am
Ð½ Ð¾ÑģÑĤ
ĠÄ· Ä«l
Ġnor Ä«k
Ġciem ata
Ġdep ortÄģ
Ġpievien ojoties
ĠcÄ« ÅĨai
ian e
ĠÅħ iÅ¾
ĠbÅ«v Äĵts
Ġagr i
ĠesoÅ¡ ajiem
Ġfilozof ija
ĠreÄ£istr Äģ
Ġkomis iju
ĠlÄĵm umiem
Ġdokum entÄģ
ĠAut onom
ĠatkÄģp Å¡anos
ĠnodibinÄģ ts
Ġatlik uÅ¡o
ĠKv eb
Ġidenti f
Ġmonarh ija
Ġizlai d
Ġansamb Ä¼a
Kur zemes
Ġjebkur Å¡
Ġstrau mes
Ġhim na
ĠPaÅ¡reiz Äĵjais
ĠEtiop ijas
ĠnolaiÅ¾ amais
6 00
r aid
Ã £
is p
Ġv Ä«na
on ens
ĠS Äĵd
ĠS OK
ĠP uss
ĠL Äģc
el Ä«
ek o
ĠB ibliotÄĵk
ĠT i
ĠT Äĵl
et iem
Äį e
Ġaiz mir
ĠAl k
Ä«l ijs
Ġizveid Äĵ
Ġizveid ojis
12 5
Å«s nÄ«bas
Ġnek r
ĠVis Äģ
Ġapvien Ä«bu
Ġzaud Äĵts
ĠLu ija
Ġarhit ektu
Ġiev ieÅ¡anu
In ter
ĠDaÅ¾ Äģm
Ġtek sti
Ġrun a
Ġimperat ori
Ġdokum entus
ĠieÅĨem Å¡anas
ĠStud entu
Ġmilz Ä«gu
ĠVÄ«t ol
Ġprotok ola
Ġelektron ikas
Ġnotur Äĵt
Ġviedok lis
ĠprivÄģt o
Ġkriti Ä·i
ĠÄĮetr as
Ġatnes a
Ġasin Ä«s
Ġviceprezid ents
Ġnul les
ĠHoliv udas
c ip
j av
z ar
Ġs Å«dz
at ras
Ġn Äģr
en ga
Ġ2 18
iv i
Ġh ore
Ġkop Ä«gu
Ð° Ð¿
Ġ15 6
Ġkomand Äģs
ĠDÅ¾ ensons
Ġvalod nieks
Ġaugst ienÄĵ
man im
end st
Ġma Äįs
Ġliet oÅ¡anai
Ġcit viet
Ġuzskat iem
ĠÅ¾ ok
Ġalb umam
Ġav Ä«zes
ĠlÄ«n ijai
Ġnol emj
ĠsvÄĵt ceÄ¼
ĠatseviÅ¡Ä· iem
ĠrÄ«k o
Ġoper ÄĵtÄģjs
Ġoper dzied
Ch ang
Ġkod i
ĠseriÄģl os
Ġpietur a
mar Ä«no
ĠMet jÅ«
ĠFiz ika
ĠMÄģksl inieku
ĠLÄ«g atnes
ĠMind auga
ĠDin ab
Ġslepkav Ä«bas
ĠMiÄ· elis
ĠHon kon
sudr aba
ĠKrit Äĵriji
ĠSatur na
ĠtieÅ¡s aistes
ĠArag onas
M ans
S IA
T B
Z viedr
t Äĵja
in ie
au ers
Ġm Äĵles
or mu
ik Äģnis
tÄģ cijas
ĠA ta
ĠK ars
id Äģ
ĠT w
ĠG Ä¼
br Å«k
ĠE le
ĠZ ane
oÅ¡ Äģm
ant am
Ġ17 84
18 83
Ġ16 2
Ġ16 3
ĠDÅ¾ ovanni
ĠâĢ Ļ
Ġmil imetr
ĠuzÅĨÄĵm umos
Ġez eram
ĠkÄģd i
Ġ26 0
ĠEl Ä«na
Ġpolit isku
Ġneb Å«t
ĠstÄģv s
Ġdeb ija
ĠstÄģ r
ĠpozÄ«c ija
Ġmant oja
Ġapar atÅ«ra
Ġlat gaÄ¼u
Ġres n
ĠtradicionÄģl o
ĠÄĴÄ£ip te
ĠAir ÄĵÅ¡ana
ĠDzelz avas
ĠHeinr iha
ĠAin Äģrs
ĠapvÄĵrs umu
ĠdÄ« Ä·is
ĠÅ¡Ä·Äĵp a
ĠPiet ur
ĠGord ons
Ġpian ists
Ġgrie Ä·i
Stu d
ĠPjotr s
ĠÅ¡aus mu
galven okÄģrt
ĠGagar ina
J ÄģÅĨu
L ep
f ield
Õ ¡
Ġ ignor
Ġs em
in ti
iz Äĵtu
ĠV ot
im u
ic Äĵ
ĠÅł tu
ĠÐ ¦
Ġak ust
ĠBr Å«n
Ġfil oloÄ£ijas
ĠAp spalv
ĠzinÄģt niekiem
Ġnel ai
Ġsm ail
ĠStr auj
Ġpieder oÅ¡Äģs
Ġkal cija
Ġklas i
Ġekonom iski
ĠRob ertu
ĠCh ar
ĠSm ilt
Ã¡ ng
Ġlikvid Äĵto
ibliot ek
Ġpras mes
ĠUl br
Ġam onj
ĠnorÄģd ot
ĠKo ord
Fran cija
Ġied om
Ġch ess
Ġtilp uma
ĠdzÄĵr ienu
ĠPur va
Ġkrup is
ĠAnastas ija
Ġdia gram
F e
H u
K ari
T E
Ġs eja
Å¡ Å«nu
ĠP eter
ĠK ang
ĠR ejs
ti g
Ġz elts
ĠN Ä«ls
Ġpie audzis
ĠG Äģr
ĠC ivil
Ġnov Äģj
Ġaiz vÄĵstur
Ġ15 1
Ġ16 7
Ä«d ams
olo ga
Ġizveid otÄģ
est ies
ef u
ĠpriekÅ¡ roku
Å«k st
Ġsek ot
ĠIr ÄģnÄģ
ĠvÄģrd os
ĠkÄģrt Ä«ba
ĠnacionÄģl istu
Ġid ejÄģm
ĠRiet umos
Ġfunk cijÄģm
ÐµÐ½ Ð¸Ðµ
ĠAut obusu
ĠÄ«sten o
ĠGust av
Ġpiepras Ä«juma
Ġmeit enÄĵm
ĠgÅ«st ek
ĠLor enss
Ġviss ezonas
Ġuztic Ä«bu
Ġsum mu
ĠPus finÄģls
Ġkriti Ä·is
ĠplÄģks n
Ġaltern atÄ«vÄģ
ĠnolÅ«k os
ĠÄ¢im ene
ĠtrÄ«sk Äģrt
ĠZos Äĵnos
Gaz prom
ĠVolfgan gs
Ġkopplat Ä«bÄģ
ĠRiteÅĨbrauk Å¡ana
ĠatlÄĵk uÅ¡Äģs
ĠMagÅĨitogor skas
- ).
G e
Ġ ÑĢÐµ
Ġv erg
Ġd ifer
st ers
Ġun gÄģr
ĠM uc
ĠB umb
ĠR enÄĵ
Ġc iv
Ġdz egu
eg le
Ġ17 99
ud Äģ
ih am
ĠSk aist
ch i
Ġskol Äĵniem
gad es
amer ika
Ġsak nÄĵm
ĠZiemeÄ¼ v
ĠmÄģt Ä«ti
Ġnogal inot
Ġbals ojuma
ĠIv o
ĠslÄĵp oÅ¡anas
ĠMel lu
Ġkomun ikÄģcijas
ĠrÄģd Ä«tÄģji
Ġizkl ied
ĠlÄ«d era
Ġizgudr oja
ĠoriÄ£inÄģl valodÄģ
ĠrezultatÄ«v Äģko
Ġtilp ums
ĠProj ekta
ĠminÅ«t Äĵ
Ġangl iski
Ġaizb Äĵga
ĠkrÅ«t is
ĠCÄ«rih es
ĠInfl antijas
f en
Ġp on
Ġd Ä«g
Ġ( âĢł
el ls
ĠM ord
ĠT aut
ĠD aug
iek s
Ġj ah
ĠI eri
ĠÅ¡ veic
ej o
ac Ä«kÅ¡u
18 74
Ġsl aid
ĠSk an
kar u
ra ft
Äĵg t
Ġsavien ojumus
ĠOtr ajam
ozÄ«c ijas
Å«z ijas
otn Äĵm
Ġmon um
ĠMed ved
ĠÄ£ener Äģli
Å«g endst
Ġmot iv
ĠHam burgas
Ġlietuv ieÅ¡i
Fran k
ĠSabiedr oto
ĠLV U
ĠaizsÄģk a
ĠSaim ons
Dauga va
Ġvab oles
ĠTirg otÄģjs
F S
H am
c ers
s aks
Ġv Äĵju
Ġt ot
ĠA C
ĠS ob
ĠL aun
Ġr ab
Ġr onis
ap e
ĠpÄģr sl
Ġkr oÅĨa
aun es
inÄģ Å¡anÄģm
Ġkop skai
Ġ17 2
Ġ17 74
Ġ15 4
Ġzem as
Ġpus vad
Ġskol Äģm
Ġliet otas
ĠÅ½ u
Ġizd otas
ĠDr ag
Ġ: ''
ĠÄĴ ka
Ġad ap
Ġsap lac
eat h
ĠÅ¡Äģd us
Ġjaunie Å¡iem
Ġkrit Äĵr
Ġdek Äģns
ĠGrieÄ· iju
Ġvies u
ĠDal Ä«ba
Ġsarun Äģm
aup es
Ġapprec Äĵja
ĠMag dal
ĠpaÅ¡reiz ÄĵjÄģ
lap as
Ġvi ol
ĠSeriÄģl a
Ġzvej nieku
Fl ock
ĠAdministr atÄ«vi
Ġuzd Äģv
ĠlabklÄģj Ä«bas
vÄģc iski
ĠnepÄģrs niedz
Ġekspl oz
B oe
k Äģja
p azÄ«st
z iem
ĠS ams
dz enes
ĠL odz
Ġr udz
ĠV ain
ĠM ach
ĠM useum
Ġc r
ĠF ire
Ä£ erbonis
ĠO gr
Ġ18 23
ig Äģ
Ġatr ib
oz o
Ġor nam
ĠBr jan
ĠAt is
ĠÄĮ iekur
Ġlatv iete
Ġgadsim tiem
Ġab on
ĠVis s
Ġorgan ism
ĠsvÄĵt dienÄģ
Ġskait Ä¼iem
Ġsuga i
ĠMan Äį
Ġmant ojums
Ġproduk ta
Ġant arkt
Ġkontin entÄģlÄģs
Val mier
ĠsekretÄģ ra
Ġaizsarg Äģt
ĠÄ£en erat
ĠavÄģr iju
Ġvag onu
ĠRon alds
ĠiesvÄĵt Ä«ja
Ġizpost Ä«ja
ĠDienvidkor ejas
ĠpierobeÅ¾ Äģ
ĠÅ«n ijas
ĠJÄģn im
ĠGlÄģz g
ĠKembrid Å¾as
T as
n akts
s oÄ¼
w ig
Äĵ Å¡
Ġs iena
Ġk air
ur o
ĠS amo
ĠT it
Ġz eb
ĠE im
ĠZ in
of Äģ
Ġvar ai
eÅ¾ u
Ġ17 6
Ð° ÑĢÐ°
18 73
ug en
ent al
ĠÄ«paÅ¡ s
sar dzes
Ġsat el
ĠKan nu
Ġinform Äĵja
ĠOf f
Ġtrad Ä«cija
ĠziÅĨ ojums
Ġaudz Äĵ
ĠkrÄģj umÄģ
ĠRakst s
Ġapt iek
Ġmis iju
ĠVer pak
Ġsnieg umu
Ġsapr ast
Ġare ÄģlÄģ
ĠHav aju
Ġpilnvar otais
Ġkaim iÅĨu
ĠStaÅĨ islava
kv ists
ĠMog iÄ¼
yclop edia
Ġlieti Å¡Ä·
! '''
A st
T om
ie priekÅ¡
es Äģ
an im
ai ÅĨiem
ÅĨ ik
ĠS mir
ĠS Äģra
om an
ĠM Å«su
ab le
ais s
ĠO ran
Ġ18 16
Ġpl ais
Ġaug Ä¼us
ĠvairÄģk umu
Ġal a
if i
ĠÄ· Äĵrp
ĠW TA
ĠmuiÅ¾ nieks
ĠbÅ«t Ä«bÄģ
ĠKon r
ĠkuÄ£ im
ĠZem Ä¼
Ġkam b
ĠpÄģrd ota
Ġprot ot
ĠAustrÄģl iju
ĠlÄĵm uma
Ġkompleks Äģ
Ġant enas
Ġkun iga
Ġiedz Ä«Å¡ana
ÐĲ Ð»ÐµÐºÑģÐ°Ð½Ð´ÑĢ
Ġain ava
ĠseptiÅĨ us
Ġgredz enu
ĠzemestrÄ«c es
Ġpiespie du
mÄģc Ä«bas
Ġskel et
ĠnevÄĵl ÄĵjÄģs
Ġigau ÅĨi
D M
I ev
P lay
V P
Ã ¹
Ġs Äĵjums
Ġga itu
ol da
ĠL odes
im il
ĠT anz
ĠD ib
et ov
ul da
ĠJ uz
Äĵt am
ez ultÄģ
iel u
Ġ3 20
ĠZ o
Ġg Å«ta
ĠC V
ĠÅł aur
Ġ17 8
Ðµ Ð±
ĠDÅ¾ udo
ost er
Ġmu itas
Ġuzvar ÄĵtÄģjiem
Ġteritor ijai
ĠpriekÅ¡ ÄĵjÄģ
Ġnep iek
Ġnel ikum
ĠdibinÄģ Å¡anu
ĠcÄ« ÅĨÄģm
Ġrakstur u
Ġizl oks
Ġlap puses
Ġskraj ciemi
Ġstat usa
ÑģÑĤ ÑĮ
ĠmÄĵneÅ¡ i
Ġstad ioni
ĠEir ÄģzijÄģ
Ġterm inÄģl
ĠspÄģr na
Ġarhitekt Å«ru
Ġasto ÅĨu
ĠAs oci
Ġpabeig t
ĠTÄĵv iÅĨÅ¡
ĠdzÄ«vojoÅ¡ ie
ĠpopulÄģr Äģkajiem
ĠErnes ta
ĠjÄģp Äģr
ese arch
Ġdob uma
Ġpozit Ä«vas
ĠMedic Ä«na
ĠdÄģr ga
Ġaizst Äģja
ĠIP A
ĠMaksim ili
Ġmig l
ĠNeap oles
ĠFeld manis
ĠTechn ology
ĠFreim anis
ĠPiren eju
Ġindo eiropieÅ¡u
H A
W al
l ings
st ad
ĠL inux
ĠD il
ĠN az
ĠN ereti
Ä«j uÅ¡as
iet es
dr i
ĠÅł ons
ib o
Ġ17 63
18 87
ĠPr aul
ĠIn tel
ĠIz tek
iÄį as
Ġsac en
Ġsarakst iem
Ġsabiedr otajiem
Ġind ieÅ¡u
ĠKal end
Ġfran ku
ties as
ĠmilitÄģr ajÄģ
ĠAk v
Ġaprakst Ä«ts
ĠÅ¡Äģd Äģs
Ġmekl Äĵjumos
isl avas
ĠpÄģrt iek
Ġpareiz i
Ġaud itor
Ġuguns dzÄĵs
Ġieslodz Ä«jumÄģ
Ġpadz ina
Ġ::: :
ĠFilip Ä«nu
Ġkonstruk ciju
Ġdeleg Äģcija
ĠDis eldorf
Ġskulpt Å«ras
ĠEng el
Tim berwolves
Im p
Bay ern
Henr y
ĠuzÅĨÄĵmÄĵj darbÄ«bas
Ġpund ur
Ġimpuls u
Boe ing
B ob
I F
J ok
L P
L it
P u
h aus
Ġn akti
au skas
Ġr agu
ad arb
ad Å¾u
ĠM iÄį
Ġat ÅĨÄĵma
ĠB ond
ĠD ievu
Ġf ail
ĠC ur
Ġ17 4
kl u
18 72
ĠSt one
ĠSt ory
inÄģj usies
ĠÄ· eng
ĠSk v
ĠMar g
Ġko operat
ĠnovÄĵr oÅ¡anas
Ġâ Ĩĳ
ĠnepiecieÅ¡ amÄ«ba
ĠrÄ«k otas
Ġkin opr
Ġbalst Ä«jÄģs
ĠnokriÅ¡ ÅĨi
ortÄģ la
ĠBo y
Ġmazu Ä¼u
imb ab
ĠgÄģz i
ĠtradicionÄģl Äģs
ĠpierÄģd Ä«ja
ĠSaul i
Ġkonserv atorijÄģ
Ġle uc
ĠpazÄ«m Äĵm
ĠReÄ£ ionu
Ġtrans form
Dauga vas
ĠplÄģks ne
ĠRaf aels
ĠÅ½urn Äģls
ÑģÑĤÐ² Ð¾
Ġklint is
ĠBuld uru
ĠBurg und
ĠFound ation
ĠKoord inÄģtas
C C
P od
P Äĵc
R E
S un
f unk
r iem
v o
Ġk W
Äģk umÄģ
ĠV ita
el Ä«na
ien ai
ĠM ens
ĠD J
Ġf anu
ĠN as
ĠF og
ĠpÄģr oÅ¡anÄģs
Äį uka
Ġsav Äģca
ĠAn du
aln avas
ĠTr in
kÄģrt Äĵjs
ĠÄģr sti
ver es
ĠTur ciju
ĠVil ks
ĠAndr ea
ĠBi atlons
ĠbÅ«v niecÄ«bu
ĠoficiÄģl Äģs
ĠAmer ica
ĠsvÄĵt kiem
ĠÄ«s filma
ĠKrist Ä«na
ĠapzÄ«m Äĵtu
ĠMeln ais
ĠÅłveic i
ĠGeor ga
Ġiekar ot
ĠÄ£erb oni
ĠPer ess
ĠpÄģrraid Ä«ts
ĠDer Ä«bas
ĠpievÄĵrs ies
Ġiecirk nÄ«
ĠpiekÄģp joties
ĠizslÄĵg ts
Ġstandart iem
ĠDombr ovska
ĠsanÄģk sm
ĠprivilÄĵÄ£ ijas
ĠVimbld onas
P ut
k ura
l ans
Ġl ag
or os
ĠM ilvoki
ĠT Äģm
Äģl ajÄģs
ĠN aktÄ«
ĠH ron
Ġg eto
ĠC eÄ¼a
ei gs
ĠsÄģk oties
Ġpl os
Ġzem kop
Ðµ Ð¿
Ġal tÄģ
Ġotr Äģdi
Ġizlas Äĵm
Ġnev alst
ĠOl d
vald i
Ġmilj ardu
ĠvÄĵrt Ä«bÄģm
Ġind ekss
Ġbl oks
anc i
Ġprot ektor
Ġbag Äģtais
Ġbals ojumÄģ
Ġizrais ot
ĠuzbÅ«v i
ĠÅ¡t atiem
ĠiznÄ«c inÄģta
Ġdzelt enas
sal Äģ
Ġslav ens
Ġiedarb Ä«ba
ĠatklÄģt ÅĨu
Ġdiz ains
ĠÄ«patn Ä«bas
ĠDre il
ĠSem ju
Ġatsl Äĵgu
Ã¤n d
grÄģv is
Ġlim f
Ġatkrit umu
ĠPC TVL
ĠKÄģrs avas
ĠâĨĳ âĨĵ
O sk
Z um
j anu
t au
ĠA uÅ¡
ĠS ems
ĠL ion
ĠL ac
tr s
ĠT en
ĠR U
Ġc o
Ġdz il
ĠH ils
ep es
Ġaiz jÅ«ras
ĠAl o
Ġzem nieka
eh r
ĠIz stÄģd
ĠDz ej
ĠW ild
ĠW all
Ġpus ei
iÅ¡ Äĵja
Ġnev ienÄģ
ĠattÄ«st Ä«ja
inÄģm a
Ġturp inot
ĠkÄ¼ Å«du
ĠpalÄ«dz Äĵtu
darb a
Ġierakst us
Ġierakst Ä«ta
Sp ort
ĠrÄ«k ojuma
ĠVol ters
Ġmant ojumu
ĠatbrÄ«v ot
Ġkrit iku
ĠZinÄģt nes
ĠÅ¡Å«n Äģs
Ġatbild Ä«bu
Ġatbild Ä«gs
Ġnomet nÄĵs
ĠpelÄĵk Äģ
ĠQ ueen
ĠAustrum eiropÄģ
CA D
Ġplak nÄĵ
Ġpagast us
hof a
Ġizcil u
ĠPel Äĵk
opl az
ĠSacens Ä«bÄģs
ĠIndiv id
ĠpatstÄģv Ä«gu
Ġnogul umi
ĠDÅ¾en if
Ġugunsgr Äĵks
Ġista bas
ĠAuto osta
Sar aksts
ĠSatiks me
N ep
P atr
V ic
b le
Ð §
Ġ Äĵ
es is
Äģr e
ĠS ov
Ġr isks
Ġr ags
ĠV Ä«ks
Ġie skaÅĨ
ak tu
Ġat lÄ«dz
Ġc ek
ĠF irst
un o
ep l
Ġka Ä·i
Ä«z s
Ġ15 82
ĠIn strum
Ġmin iat
ĠW eb
Ġrad Ä«jis
ind i
uÄģr a
ĠÅ½ uk
Ġdom kapitu
ĠbrÄ«v dabas
Ġkor im
Ð¼ Ð°
ĠGalven okÄģrt
Ġkun gs
Ġpedag ogi
Ġpiepras Ä«jumu
Ġradi Äģcijas
Ġkonkr ÄĵtÄģ
Ġlabor atorija
Ġteik ts
Ġatd ot
Pirm Äģ
Ġklaus Ä«tÄģju
ĠJord an
Sarkan ais
ĠMust afa
Ġelp oÅ¡anas
ĠEiÅ¾ ens
Ġiera Å¡anÄģs
G ulb
M Ä«l
d ib
v ija
ar n
Ġs ch
Ġd isks
on c
en erat
Ġb e
Ġm Ä«ti
Ġ2 12
ĠS end
el im
ĠM Äĵm
ek am
ĠB iznesa
ĠG and
ĠF A
ei h
Ġka Ä·u
eik u
ast ers
ĠVal gas
ogrÄģf isko
uz es
ĠnozÄ«m Ä«gi
Ġlauk umi
ĠraÅ¾ as
ell us
Å«z ija
urn al
hol m
ÄĵjoÅ¡ as
Ġkolon ijÄģs
Ġgatav s
ĠSte in
Ġnoviet otas
ĠBan glad
ĠNav ar
Ġkvalific Äĵties
Ġievad Ä«ts
Ġuzl id
Ġapdraud Äĵta
Ġrec enz
ĠÐĿ Ð¸ÐºÐ¾Ð»
ĠAdr ians
ĠStad ions
ĠZaud Äĵjums
Ġfosil ijas
ĠHjÅ«st onas
ĠKongres a
ĠPÄģrt ikas
savien Ä«bas
ĠPots d
F L
h Äģf
Ġp ed
at am
on n
Ġm eli
ĠK Äģd
ĠM ort
ĠM aik
ĠJ onas
Äĵt iskajÄģ
ĠpÄģr Äĵjos
Ġlai m
ob uss
ĠAn Å¾
Ġ15 7
inÄģj umam
ĠLiel ie
ĠAp glab
ĠLiep iÅĨa
Ġtehn ikÄģ
Ġsaglab Äģtu
Ġizplat Ä«tÄģk
ĠPÄģr ÄĵjÄģs
Ġlap s
ometr u
darb s
gÄģd es
Ġsport iste
Ġnotik uÅ¡as
ĠVair Äģku
ĠÄ·Ä«m iskais
auz e
Ġstipr a
Ġdokum entÄģlÄģs
ĠBo eing
ĠÄĢd aÅ¾u
Ġdienn aktis
Ġzar nas
Ġuzs vÄĵr
ĠDon avas
ĠDon alds
ĠMeh meds
ĠWh o
astÄģv s
Ġvirtu ve
ĠProv ince
ĠpÄģrst eig
Ġskulpt Å«ra
Ġmezgl s
Ġizaugs mi
ĠmÅ«ziÄ· e
ĠRund Äģles
Ġfac to
ĠLih t
Ġnelab vÄĵl
A tr
O c
P etr
P art
W indows
z ob
Ġ Ùħ
Ġp ip
ga mes
er nu
al du
ĠS oÄį
ĠP ies
ĠP laÅ¡
ĠL oz
Ġie krÄģs
Ġat vÄĵl
ĠR ieb
Äģj Äĵ
Ġz in
ĠÅ¡ Å«p
ĠH y
oc e
oc eph
Ġ6 50
ÄĵtÄģj as
ĠBr iedis
Ġlab Ä«bas
ĠKar t
eic h
Ġfutbol u
Ġbar Äģ
Ġizdev umos
ĠIr Äģna
ĠbÅ«v i
Ġagr Ä«n
Ã© s
Ġdzied ÄģÅ¡anas
Ġperson Äģls
Ð¸Ð¹ ÑģÐºÐ¾Ð¹
Ġaktr isi
Ġper pend
ĠPav isam
gar icus
ĠvÄĵ tra
ĠgÄģz e
oph y
ĠMark uss
ĠMeks ika
ĠNeatkar Ä«gais
Ġgald iÅĨÅ¡
ĠkaragÄģj iens
ĠparlamentÄģ r
punk tu
ĠpÄģrbÅ«v Äĵta
Ġpresti Å¾
ĠVerpak ovskis
2 50
A z
N ot
S o
c m
ie Å¡anos
ĠL iz
os f
ĠT omÄģ
iek Äģrt
Ġap Äĵd
ĠN Äģves
ic ins
ĠJ Äģk
ĠpÄģr ved
ĠC F
Ġdzim umbriedumu
Ġh ibr
Ġaiz ÅĨÄĵma
ib le
ĠAl ojas
pr at
Ġ16 9
ĠPar agv
ĠBal ta
Ġlid ojumus
Ġplat as
Ġplat Ä«na
Ġtehn iskÄģ
mit h
ĠpazÄ«st amas
ĠMÄģr upes
Ġierakst a
Ġizg Äģz
ĠSan p
Ġmal Äģs
Ġluter iskÄģs
ĠÄ«pat ÅĨu
Ġvelt Ä«ja
ĠRein as
ĠIzra Äĵlu
Ġmodern Äģs
spÄģr ÅĨi
ĠpatÄĵr iÅĨa
ĠStaÄ¼ ins
Ġoz ols
ĠMoz us
ĠSah Äģras
ĠKast Ä«lijas
ĠKuz ÅĨec
ĠproporcionÄģl i
ĠnebrÄ«v Äĵ
k olÄģ
r iek
as tais
st ona
am an
ĠP ied
ĠK ors
ĠK Å«p
Ġ19 1
Ġr Ä«dz
Ġat stÄģd
ĠD ÅĨep
ĠF at
Ġau di
ĠC Äĵl
18 75
Ä«l Ä«
ĠIn vest
ĠLiel u
Ġliet otÄģji
uz s
ĠVis iem
ĠJaun pils
ĠzinÄģt ni
ĠAndr a
ĠTo y
ĠmÄģj dzÄ«v
Ġprot e
Ġtitu li
ĠNov Äĵr
Ġproces iem
Ġindiv Ä«da
ĠprofesionÄģl a
Ġdirekt ore
ĠpasÄģk umiem
Ġzied iem
ĠApr iÅĨ
Ġpagast os
ĠRo ad
Ġneg atÄ«vi
Ġglab Äģjas
ĠmaÄį os
ĠkristÄģl i
ĠizsÅ«t Ä«ts
Ġiespaid Äģ
Ġrak tuv
Ġautosport isti
ĠcilvÄĵc es
ĠZiemeÄ¼amer ika
Ġolbaltum vielu
materiÄģl u
ĠbasÄ£ itÄģra
ĠMedaÄ¼ nieki
H ans
V ai
h Äģr
k ons
t od
v Äģs
Ġ ainas
ie Å¡anÄģ
au ds
ÅĨ s
Ġl ir
Ġb en
ĠP Äģl
ĠL Å«k
em Äģ
ĠM uk
Ġat stÄģ
ĠR ut
ĠN G
ĠH igh
Ġ3 10
ep iz
ĠZ al
ĠlÄ«dz vÄĵrt
Ġgr ez
âĢĶ ).
of a
Ġ17 81
re e
Å¡Ä· er
kl ub
Ð¸ ÑģÑĤ
ĠÄĮ aka
Ġmaz uli
Ġsta Ä¼
ĠMar c
Ġnod aÄ¼
uz ÅĨÄĵmums
Ġab str
ĠVis savienÄ«bas
ĠmÄĵr Ä·us
ĠKom isijas
ĠVil k
Ġatrad ies
ond i
ĠgrÄģm atved
Ġpla c
ĠVÄĵl ÄĵÅ¡anu
ri x
olf u
ator e
mal Äģs
Ġpiec os
ĠOlimp i
Ġhercog isti
tÄģr io
ĠGre en
ĠSad alÄ«jums
isch er
ĠVaÅ¡ingt onÄģ
Ġkoled Å¾a
Ġaugstskol a
Ġfragm enti
Ġplank uma
ĠKin ostud
Ġtrak tÄģ
Ġku Å¡anas
ĠjÅ«d ais
Ġspalv Äģm
ĠLudm ila
ĠSpilv es
Vu elta
" ''.
C eÄ¼
P ad
T un
U guns
h id
p Ä«te
ĠS olo
ĠK Äģjas
Äģk ajos
ĠL s
ap ul
ĠB Å«dams
Ġj ak
ĠpÄģr mÄĵr
Ġ3 30
Ġh eter
ĠBr auna
Ġdaudz dienu
Ġsal ik
Ġaugst ais
Ġaugst iene
ch ess
ef in
ult an
Ġ* -
ĠAleks s
Ġapvien oÅ¡anÄģs
ĠrobeÅ¾ ai
ĠDaugav Äģ
Ġredz am
ĠAk ur
Ġtirg otÄģjs
Ġuzdev umiem
ĠÄĵr z
ĠpÄģrviet ots
Ġcetur tajÄģ
ĠBau manis
ĠSh ow
Ġplak an
Ġienaid nieki
Ġvertik Äģli
Ġneil gu
ĠklÄģtbÅ«t ni
ĠcentrÄģl ajos
ĠEnerg ija
Ġlamp as
ĠMadagask aras
Heinr ich
ĠNomet ÅĨu
P s
d os
Ð ¨
Û Į
Ġl uks
ĠA cis
ĠT B
ĠR umb
br o
ev en
Ä£ im
ĠH l
Ġvien ota
ĠO bs
Ġ18 05
akst i
Ġvair oga
me ÅĨus
Ġgar Äģks
Ġal gas
ĠÄĮ Ä«l
og ul
ĠKop ÄĵjÄģ
sar dzÄ«bas
ĠÄ¶ erm
Ġsavien ojuma
ĠÅ¾ Äģv
ĠiekÄ¼ Å«t
ĠKur zemi
tic o
Ġpavad onim
ĠÄģtr slid
Ġbasketbol iste
ĠIl d
ĠDzÄ«v e
Ġmeist ar
Ġapbalv ojumi
ĠPaul u
Ġmaksim Äģlo
ĠTreÅ¡ Äģs
osk osmos
Ġgraf ikas
Ġpurv os
Ġsasl ÄĵdzÄģs
ĠreÄ£ionÄģl Äģ
ĠzÄ«d Ä«tÄģji
Ġliek ot
Pl at
Ġnega isa
Ġsemin ÄģrÄģ
Ġsark ans
ĠNol ai
ĠTemp erat
Ġpatri arh
Ġamatpers onas
ĠtÅ«kst oÅ¡u
Ġbot Äģn
ĠVecr Ä«gÄģ
Ġskuj koku
ĠmÄģrket inga
ĠDoÅĨ eckas
Europe an
D en
S am
× ķ
Ġp ump
Ġk oda
Ġ2 11
ĠL eb
tr o
ist iku
Ġsav iet
Ġkom entÄģ
ĠU gan
itÄģ lo
Äĵd ers
ĠGr am
ĠIn Å¾en
ĠIn stitu
ĠKar ag
eÅĨ us
Ġme Å¡anÄģ
Ġsavien oti
ĠVil nis
Ġpiek Å«ns
Ġorganiz ÄģcijÄģs
Ġneat r
ĠLiep Äģju
ĠapriÅĨ Ä·
Ġkonf es
ĠpaziÅĨ o
ĠievÄĵr Ä«bu
ĠizvÄĵl i
ĠAtl ant
Ġtor ÅĨi
ĠinÅ¾en ieru
Ġanal Ä«t
Ġarhitekt Å«rÄģ
Ġiemes liem
ĠnosÅ«t Ä«t
ĠpÄģrliec inoÅ¡i
Ġlikum d
ĠDienvidÄģfr ikÄģ
Ġatver as
ĠPriek uÄ¼u
ĠJauk tÄģ
uzvar Äĵjis
ĠVs evol
ĠZagr eb
áĥĲ áĥ
V ilj
l Äĵ
Ġs Äĵjumos
Ġs eÅĨÅ«n
Ġk oÅ¡
Ġn az
ai gÄģ
ot is
ĠS ÄģkÄģs
Äĵj umam
dz iÅĨu
Ġie tr
ĠT ail
ĠD Ä«tr
ĠF all
ĠE ast
ĠZ S
ĠLatv ju
ist ikÄģ
Ġin fl
Ġdarb aspÄĵk
ÄĵtÄģj us
Ġ17 7
Ġ17 82
Ġ17 87
Ġjaun os
ĠSk y
Ġrez olÅ«
ĠÄ¶ eiz
ĠmÄģc Ä«ba
asp is
Ġapvien ojoties
Ġsadal Ä«jÄģs
ĠMeÅ¾ apar
ĠViÄ¼ ÅĨa
ĠIe gu
ÑĢÐ° Ð²
ĠBo ys
Ġrep ertu
Ġapt ums
enÅ¡ s
Ġser tific
Ġiedarb Ä«bas
ĠDav ids
ĠJu gl
ĠHok ejs
Ġoblig Äģta
ĠGen Äģdijs
Liep Äģja
Ġturpm Äģko
ĠYo ung
Ġkarak uÄ£
ĠMazsal acas
Cin ara
C ir
g eÅĨ
ar j
is iju
Ġd if
Ġm ask
dz elt
Ġuz pild
Ġap Ä¼i
Ġap ceÄ¼
ĠI T
ĠN ails
ĠH ard
ĠZ imbab
Ġin val
ĠÄį ip
Ġdarb nÄ«cas
Ġkop Ä«ga
Ġak meÅĨa
ĠVal kÄģ
Ġstr up
ĠIz l
ĠPar ad
og g
Ġviet Äĵjos
ĠW ilhelm
Ġnosauk umÄģ
ĠAp ollo
Ġpak etes
Ġieg ar
io us
Ġdom Äĵns
ĠZiemeÄ¼ k
Ġneliel us
Ġneliel Äģm
Ġsadal Ä«t
Ä«skap s
pil da
ĠSan marÄ«no
ĠjautÄģj umi
Ġveiksm Ä«ga
ĠMÄĵn esi
Ġmel nie
Ġmis ion
Ġdzimt b
Ġtenis iste
Ġart ikul
Ġminim ÄģlÄģs
Ġkorpor Äģcija
ĠFo otball
ĠVad ims
ĠÄ·eiz ars
Ġkonstrukt oru
Ġnopirk ts
ĠPalest Ä«nas
ĠPetrogr adas
Mask avas
? )
L uc
W izards
Â «
Ð Ń
Ù ĩ
'' ",
Ġn a
Ġr ender
Ġie z
ap tuveni
om y
ĠM Äĵs
ĠR iks
Ä«g Äģku
ic ol
ĠJ Å«tas
ĠF err
Ġg Ä¼ot
Ġkop s
Ġbal tais
Ġ16 1
ĠGr egor
Ġizveid oÅ¡ana
els ea
ĠvÄģr p
ĠvÄĵstur nieku
ogrÄģf iskÄģ
ĠpÄģrstÄģv jus
Ġizp irk
inc s
Ġneat bal
Ġmod eÄ¼u
Ġats akÄģs
ĠZem ei
und i
Å«z s
Ġbi oloÄ£
Ġizpild Ä«jumÄģ
Ġabsol Å«t
Ġsaim niecÄ«bu
ĠÄ«st o
ĠDarb ojies
ĠvÄĵst ule
ĠOficiÄģl i
iÄ· e
Ġiemes li
Ġzied i
Ġprojekt us
ĠatklÄģt nes
Ġdib inÄģjis
Ġkriev iski
ĠcÄ«kst onis
Ġiecirk ÅĨa
ĠHil ls
Ġfragm ents
fran Äįu
Ġizteiks mes
ĠViÅ¡ ÅĨ
ogo Ä¼a
Ġmer idi
L id
M c
W est
Z aÄ¼
f ot
f iz
Å ¼
an tr
Å« Å¡
ĠK ah
ĠL Ä«m
ĠL PP
ĠR in
ĠR iekst
ĠR esearch
ĠD M
ĠD et
Ġpie ejas
ĠG Å«t
un gs
ĠH ob
Ġkr Ä«zi
ĠÅł ef
Ġpas akas
Ġbr uÄ£
gl am
ĠSk ats
ra y
Ġnep iem
Ġliet otÄģjam
ĠÄ£im enÄĵm
ĠJaun ciema
ĠAm Å«ras
itÄģn ijas
Ġiev Äģk
ĠMil Äģnas
Ġizg Äģja
Ġdist ance
ĠEirov Ä«zijÄģ
padsm ita
Ġkak lu
Dr agon
Ġkomerc iÄģli
ĠReÄ£ ionÄģl
Ġizzud uÅ¡i
Ġatom iem
Ä«Å¡ us
ĠpÄģrz iem
Ġmetropol ijas
tain ment
Ġkoord inÄģtu
Ġkomponis tu
ĠSmil Å¡u
ĠSoc iety
ĠReliÄ£ ija
Ġmazd Äĵls
ÄĮempion i
h io
l ich
Î Ń
Ġp uÅ¡
at z
at em
en kl
Ġl iv
Ġm em
ĠP Ä«r
ĠP oÄ¼
im o
el am
ĠM ass
ĠB ild
ĠI K
ĠN ova
ĠG vi
ĠE th
Ġpas ugÄģm
Ġvar ietÄģ
Ġ17 70
Ġgar Å¡u
lu str
ild as
Ġek ran
ort tr
ied Äĵm
Ġdal Ä«ta
Ġ* #
Ġveik al
ĠÅ½ an
Ġbi oloÄ£ijas
ĠiekÅ¡ tel
ĠiekÅ¡ puses
entÄģl i
Ġproces os
Ġsauk tas
pas ta
Ġgatav ojÄģs
Ġkorpus Äģ
Ġmitr uma
ĠAin aÅ¾os
ĠBiz ant
ĠÄ·au Ä·Ä«tis
Ġvizu Äģli
Ġpraks e
ĠLit tle
ĠGoth ards
Otr Äģ
Hor nets
ĠDÅ¾on atans
ĠfantÄģ zijas
ĠVarakÄ¼ Äģnu
ĠMerÄ· eÄ¼a
Ġpagod inÄģjumi
ĠAknÄ«st es
ĠPietur vietas
Ġkinopr oduc
3 10
L ond
r ov
Ø ª
an al
Ġ( âĢŀ
ĠS cenÄģr
Äĵj oÅ¡i
Ġr isku
Ġap bruÅĨ
it ta
Ġz ils
ĠN ort
ĠN af
ĠZ atl
ĠlÄ«dz inÄģs
eÄ¼ os
da y
Ä«z ei
Ġtik uÅ¡as
ĠVal tera
ter miÅĨa
Ġcentr am
gal u
ĠBal oÅ¾u
Ġ22 5
Ġsad ega
ern et
ow a
ĠvÄ«r ietis
ĠOr iÄ£inÄģl
Ġelektr iskÄģs
ĠEr iks
ĠizstrÄģd Äĵ
ĠDaugav gr
mal Äģ
Ġsport ista
Ġkval itÄģte
ĠRiet umÄģ
Sp Äĵl
Ġspr Äģg
Ġdabas gÄģzes
ĠpÄģrtr auc
ĠÅħujor ka
ĠSerb u
Ġmitr ums
Fran cijas
Ġdraf ts
ĠTÄĵrb atÄģ
Ġfabr iku
ĠlÄ«dzen ums
ĠLÄ«b ijas
Ġmusul maÅĨi
ĠpÄģrvÄĵr Å¡as
way s
Wh at
ĠapÅ¡ aub
Ġinfrastrukt Å«ra
Ġeksempl Äģru
Ġstatu ja
ĠdiÅ¾cilt Ä«go
ĠsociÄģld emokrÄģtu
Ġpieskai ta
ĠInÄįuk alna
Ġkinoaktr ises
L em
Ġ á
Ġp ne
Ġs ur
Å¡ ifr
on ic
ĠA U
ts pÄĵj
Ġie dzÄ«v
ap z
Ġ20 5
ĠJ ok
ĠJ eh
ist ers
Ġpirm ajam
oc Ä«tu
kr usta
ĠSt ars
ĠvÄģr na
Ġte oloÄ£iju
Ġfutbol istiem
Ðº ÑĤ
Ġalb umiem
ari Äģta
ĠlÄ«g umi
ĠatÅ¡Ä·ir Ä«gu
ĠÄ£e ogrÄģfijas
Ġpaliel inÄģtu
ĠdziedÄģtÄģj as
Ġmel an
ĠKlub u
Ġvies nÄ«ca
Ġpakalp ojumiem
Ġkalend Äģrs
ĠleÄ£ ion
ĠbulvÄģr Ä«
Ġnac ionaliz
ĠLejas saks
ĠKomun istiskÄģ
Ġkritu Å¡o
ĠAus ekÄ¼a
Ġromant isma
ĠPoz na
ĠtÄ«Ä£ eris
Form ula
Ġbio Ä·Ä«m
ĠSaulkr astu
ĠLeopol ds
F el
S erg
Ġ om
Ġl eitn
ĠV ins
ĠG ogoÄ¼a
un gu
un ovs
ĠZ d
Ġvien otÄģ
Ġtr okÅ¡
Ġ7 37
18 65
Ġaug Ä¼i
10 6
Ġmin Äĵti
ĠBal va
ĠSk ait
Ġnep Äģra
uz a
iÄ¼ ÅĨu
Ġsv Ä«tas
edz es
Ġpiln metrÄģÅ¾as
Ġklas ifikÄģcijÄģ
Ġkonc erta
bil da
ĠsvÄĵt ie
th ur
Ġpaaugst inÄģja
ĠizmÄĵr iem
ĠNor ises
ĠLub Äģna
ĠDÄģrz a
ĠRÅ«j ienÄģ
Ġalkoh ol
J elgava
c c
d ie
l et
as es
Ġp Äģv
Ġp Ä«le
Ġd Ä«dÅ¾
um is
am aha
ĠK uÅ¡
ĠV eim
ĠV IA
ĠM Äģj
ĠB ever
ĠD ens
Äģm Äģs
ĠG udr
ĠJ irg
ep kav
ĠspÄĵl filma
Ġak r
iec Äģs
ost ok
ĠIz ab
vÄģr da
10 7
Ġliet der
ĠTr ik
ĠÄ£im eÅĨu
ang eÄ¼
amerikÄģ ÅĨu
Ġform ula
ves ta
mal u
Ġuzdev uma
Ġuzdev umÄģ
ĠPal e
spÄĵl e
ÄĢ frikas
ĠtÄĵl a
Ġnum uri
ĠkrÄģj umus
ĠÐ¡ Ð¡Ðł
Ġatl iek
ĠAustrum v
ĠgrÄģf istes
Ġplak nes
ĠsÅ«t Ä«ja
ĠSo uth
Ġetn iskÄģs
ĠÄĮehoslovÄģk ija
Ġsmadz enes
ĠMind augs
ĠKov al
ĠMaksim Äģlais
XX X
ĠSastÄģv s
PÄĵter burgas
Ġchess games
H P
S askaÅĨas
V R
Ø ¹
Ġs aula
au tÄģ
ĠM Å«k
ĠM ichael
ĠT wo
ĠR uÅ¡
Ġc Ä«r
od ams
gr eg
iet im
ĠE iro
iv u
auc as
Ġdzim umiem
ĠBr Å«ss
ĠdzÄ«v nieka
Ġal Äģs
vÄģr diem
Ġolimp iskÄģ
ĠÄ· Ä«n
ĠW ant
ĠizcÄ«n Ä«tas
Ġput na
Ġamat iem
Sp orta
Ġdzej oÄ¼i
ĠesoÅ¡ ajÄģm
Tr aktor
Ġstart Äĵt
Ġapbalv ojums
iep jas
Ġkomit ejÄģ
Ġrepubl ikÄģ
ĠtÄĵl us
ĠSib Ä«riju
Ġprincip us
Ġnomain Ä«ts
Ġpulk veÅ¾a
ĠjÅ«r Äģs
ĠEdvar da
ĠSkot ijÄģ
De uts
Ġpretest Ä«ba
ĠDzint aru
ĠKuÄ£ a
ĠrÄģdi uss
ĠSag lab
ĠÄ£eostacion ÄģrajÄģ
ĠBrÄĵm enes
ĠjÅ«dz es
st o
ĠK ei
id ra
ĠD iemÅ¾Äĵl
op avad
ĠN os
Ġpie bÅ«v
ĠG ons
ez s
ov ilc
sp ur
Ġaiz dev
Ġaiz pild
Ġvair ogs
Ġdien ai
re Å¡u
Ġkl Äģts
18 64
ĠBr onzas
Ð¸ Ð¾Ð½
ĠIz lase
Äģp es
Ġkap li
enc u
ĠmÄģt ei
Ġklas ei
ĠBi oloÄ£ijas
Ġtirg otÄģji
land Äĵ
Ġsmag o
Ġprinc ese
oll ing
istÄģ la
ĠpasÄģk ums
Ġdisk rim
ÃŃ a
bed Ä«ts
ĠBern hards
ĠatklÄģt Äģs
Ġpremjerministr i
Ġprotok oli
ĠJak ov
ĠBab il
Ġuztver t
Maz Äģ
Ġserv eri
ĠCent ury
Ġpens ion
Ġpens iju
Ġatlai da
ĠNod arb
Ġplast masas
ĠogÄ¼ Å«deÅĨ
CilvÄĵk i
Ġneies pÄĵj
Ġsektor Äģ
Valmier as
) (
: ''
A D
L ouis
p osp
x g
à ®
Ġv Äĵz
ai le
il am
ĠK af
ĠM ell
ĠT ev
oj ar
Ġz ara
ĠC ons
Ġsk ald
Ġpirm skara
iÄģl a
Ðµ Ð·
ark as
ĠAu ces
âĢĿ '''
akt iski
ĠAm b
Ġdom Äĵni
ĠmÄģc Äģs
asp ut
Ġministr iju
ĠInd ian
Ġdraudz i
ĠmÄģj vieta
ĠVÄģr tsar
ĠseriÄģl u
ĠierobeÅ¾ o
ĠCilvÄĵk tiesÄ«bu
ĠdzÄ«vojoÅ¡ o
Ġkoncert t
Ph one
Ġkatedr ÄģlÄĵ
Ġalfab Äĵts
ĠMold Äģvijas
ĠKarls ons
Ġret os
ĠGrÄģm ata
ĠTil ta
Ġvideokl ips
ĠBag d
ĠOh aio
ĠLink ol
apstrÄģd es
[...]
