{"<s>":0,"<pad>":1,"</s>":2,"<unk>":3,"<mask>":4,"!":5,"\"":6,"#":7,"$":8,"%":9,"&":10,"'":11,"(":12,")":13,"*":14,"+":15,",":16,"-":17,".":18,"/":19,"0":20,"1":21,"2":22,"3":23,"4":24,"5":25,"6":26,"7":27,"8":28,"9":29,":":30,";":31,"<":32,"=":33,">":34,"?":35,"@":36,"A":37,"B":38,"C":39,"D":40,"E":41,"F":42,"G":43,"H":44,"I":45,"J":46,"K":47,"L":48,"M":49,"N":50,"O":51,"P":52,"Q":53,"R":54,"S":55,"T":56,"U":57,"V":58,"W":59,"X":60,"Y":61,"Z":62,"\\":63,"^":64,"_":65,"`":66,"a":67,"b":68,"c":69,"d":70,"e":71,"f":72,"g":73,"h":74,"i":75,"j":76,"k":77,"l":78,"m":79,"n":80,"o":81,"p":82,"q":83,"r":84,"s":85,"t":86,"u":87,"v":88,"w":89,"x":90,"y":91,"z":92,"{":93,"|":94,"}":95,"~":96,"¡":97,"¢":98,"£":99,"¤":100,"¥":101,"¦":102,"§":103,"¨":104,"©":105,"ª":106,"«":107,"¬":108,"®":109,"¯":110,"°":111,"±":112,"²":113,"³":114,"´":115,"µ":116,"¶":117,"·":118,"¸":119,"¹":120,"º":121,"»":122,"¼":123,"½":124,"¾":125,"¿":126,"Â":127,"Ã":128,"Ä":129,"Å":130,"Æ":131,"Ç":132,"È":133,"É":134,"Ê":135,"Ë":136,"Ì":137,"Í":138,"Î":139,"Ï":140,"Ð":141,"Ñ":142,"Ò":143,"Ó":144,"Ô":145,"Õ":146,"Ö":147,"×":148,"Ø":149,"Ù":150,"Ú":151,"Û":152,"Ü":153,"Ý":154,"Þ":155,"à":156,"á":157,"â":158,"ã":159,"ä":160,"å":161,"æ":162,"ç":163,"è":164,"é":165,"ê":166,"ë":167,"ì":168,"í":169,"ï":170,"ð":171,"Ġ":172,"Ģ":173,"ģ":174,"Ĥ":175,"ĥ":176,"Ħ":177,"ħ":178,"Ĩ":179,"ĩ":180,"Ī":181,"ī":182,"Ĭ":183,"ĭ":184,"Į":185,"į":186,"İ":187,"ı":188,"Ĳ":189,"ĳ":190,"Ĵ":191,"ĵ":192,"Ķ":193,"ķ":194,"ĸ":195,"Ĺ":196,"ĺ":197,"Ļ":198,"ļ":199,"Ľ":200,"ľ":201,"Ŀ":202,"ŀ":203,"Ł":204,"ł":205,"Ń":206,"Äģ":207,"ie":208,"as":209,"Ä«":210,"Äĵ":211,"''":212,"Ġp":213,"ar":214,"is":215,"Ġs":216,"Ġk":217,"ij":218,"Å¡":219,"Ġv":220,"at":221,"ga":222,"Ġu":223,"es":224,"Ġt":225,"an":226,"Ġ1":227,"in":228,"Ġn":229,"au":230,"er":231,"Ġd":232,"ir":233,"al":234,"==":235,"st":236,"Ġga":237,"on":238,"ai":239,"Ġun":240,"en":241,"um":242,"ÅĨ":243,"Ġl":244,"Äģs":245,"Ġ==":246,"Ġb":247,"Ġm":248,"ot":249,"Ġgad":250,"Ġ(":251,"Ġ''":252,"or":253,"Ä¼":254,"ik":255,"am":256,"il":257,"Å«":258,"tÄģ":259,"iz":260,"Ġno":261,"Ġ2":262,"iem":263,"ur":264,"ĠA":265,"ijas":266,"Äģr":267,"ta":268,"ĠS":269,"ĠP":270,"Äĵj":271,"ts":272,"ĠK":273,"us":274,"Ġar":275,"dz":276,"ol":277,"Äģk":278,"ija":279,"Ġ19":280,"Ä«b":281,"ĠL":282,"Ġr":283,"ĠV":284,"Ġie":285,"ap":286,"im":287,"el":288,"Ġir":289,"Å¾":290,"ad":291,"os":292,"ien":293,"em":294,"ak":295,"Ġiz":296,"om":297,"ĠM":298,"id":299,"tr":300,"tu":301,"av":302,"ek":303,"ĠÄ":304,"Ġat":305,"'''":306,"ĠB":307,"ĠT":308,"ĠR":309,"ti":310,"Ġ20":311,"oj":312,"ĠD":313,"iek":314,"Ġuz":315,"Ġ'''":316,"Å¡an":317,"Äĵl":318,"Äģj":319,"Äĵr":320,"Ġpar":321,"Äģl":322,"Ġ\"":323,"iÅĨ":324,"Ġc":325,"aj":326,"Ġap":327,"ĠgadÄģ":328,"isk":329,"et":330,"Ġj":331,"op":332,"Äģm":333,"Ä«g":334,"it":335,"Äģd":336,"Ġf":337,"Ġgada":338,"od":339,"gr":340,"Ġpr":341,"ĠI":342,"Ġz":343,"ies":344,"ul":345,"âĢ":346,"Ġdz":347,"ab":348,"Äģc":349,"ĠN":350,"Ġpie":351,"Ġsp":352,"ok":353,"Ä«v":354,"ais":355,"ika":356,"Ä·":357,"Ä«j":358,"ĠG":359,"ic":360,"br":361,"iet":362,"atv":363,"ĠJ":364,"ijÄģ":365,"ĠÅ¡":366,"ed":367,"Äĵm":368,"ev":369,"Ä«bas":370,"ĠF":371,"Äĵt":372,"Ä¼u":373,"00":374,"Ä£":375,"Ġkur":376,"sk":377,"az":378,"ĠE":379,"ums":380,"ez":381,"dr":382,"un":383,"Ġbija":384,"ĠlÄ«":385,"iel":386,"Äģn":387,"ej":388,"iv":389,"ov":390,"ĠarÄ«":391,"ĠpÄģr":392,"ion":393,"ag":394,"Ġkas":395,"19":396,"iju":397,"ils":398,"Äĵc":399,"ĠH":400,"Äģt":401,"umu":402,"Ġ3":403,"and":404,"Ġau":405,"Ä«t":406,"Ä«n":407,"ers":408,"Å¡u":409,"gu":410,"Å«r":411,"ep":412,"Äį":413,"Ġlai":414,"niek":415,"eid":416,"Ġval":417,"Ġ(''":418,"Ġtika":419,"ĠZ":420,"ĠkÄģ":421,"Ġ200":422,"ĠÅ":423,"Ġ===":424,"ec":425,"ĠLatv":426,"),":427,"Ġkar":428,"Ġ201":429,"la":430,"ist":431,"Ġg":432,"Äĵja":433,"ĠlÄ«dz":434,"aÄ¼":435,"Ġkr":436,"ĠC":437,"Ġvien":438,"ĠO":439,"tÄģj":440,"irm":441,"ĠviÅĨ":442,"va":443,"Ġre":444,"arb":445,"ajÄģ":446,"ac":447,"Ġsk":448,"Äĵk":449,"ÅĨu":450,"uÅ¡":451,"Ġgr":452,"auc":453,"ei":454,"ob":455,"Å¡anas":456,"nie":457,").":458,"iev":459,"Ġ18":460,"tes":461,"auk":462,"ub":463,"âĢĶ":464,"Ġtr":465,"Ġsav":466,"Ä«r":467,"akst":468,"Ġ4":469,"eÄ¼":470,"Ġkom":471,"ĠU":472,"up":473,"Ä«bu":474,"ĠÅł":475,"aul":476,"**":477,"uma":478,"oÅ¡":479,"Ġlaik":480,"itÄģ":481,"aÅ¡":482,"ĠspÄĵl":483,"Ġst":484,"Ġdzim":485,"of":486,"uk":487,"Äģv":488,"Ä«m":489,"str":490,"ens":491,"Ġ199":492,"ant":493,"ĠKr":494,"aun":495,"Ġ5":496,"Ä«ba":497,"ÄĵjÄģs":498,"umÄģ":499,"Ġbet":500,"Ġin":501,"ĠLatvijas":502,"eg":503,"ĠÄĢ":504,"Ġliel":505,"ma":506,"Ġsas":507,"sp":508,"Ä«c":509,"ut":510,"inÄģ":511,"ip":512,"Ġpas":513,"aÅ¾":514,"las":515,"emp":516,"Ġpils":517,"Ġnov":518,"Ġpirm":519,"Äģja":520,"ieÅ¡u":521,"aiz":522,"oc":523,"ons":524,"Ġbr":525,"ĠÄį":526,"ĠpÄĵc":527,"Ġvis":528,"sts":529,"ah":530,"Ġvar":531,"20":532,"var":533,"Ġh":534,"air":535,"Ġvie":536,"Äĵn":537,"px":538,"Ġne":539,"Ä«gas":540,"Ġdarb":541,"ikas":542,"ijs":543,"imp":544,"Ä«ja":545,"ier":546,"audz":547,"Ġaiz":548,"'')":549,"Ġka":550,"Äģrt":551,"auces":552,"Ġsai":553,"ĠsÄģk":554,"sl":555,"ĠAts":556,"ig":557,"oja":558,"ds":559,"Äĵta":560,"ib":561,"da":562,"ĠtÄģ":563,"Ġ**":564,"Äģcijas":565,"te":566,"Ġkon":567,"Ġto":568,"veid":569,"Ġatr":570,"ĠAtsauces":571,"ÅĨa":572,"ĠÐ":573,"Ġ6":574,"gl":575,"Ġvai":576,"ĠAn":577,"ĠÄĢr":578,"ina":579,"oz":580,"Ġgal":581,"Ġkop":582,"Ġ8":583,"arp":584,"aules":585,"eÅ¾":586,"iÄģl":587,"mas":588,"Äĵs":589,"Ġveid":590,"embr":591,"Ġvair":592,"ven":593,"ĠAl":594,"etr":595,"empion":596,"Ġnot":597,"Ä«s":598,"umi":599,"ans":600,"aut":601,"Ġ7":602,"oÅ¡an":603,"Ġsaites":604,"Ġor":605,"tÄģv":606,"usi":607,"Ġ10":608,"odas":609,"ÅĨÄĵm":610,"bal":611,"ors":612,"ÄĵtÄģj":613,"Ä«z":614,"Ġpl":615,"Å«t":616,"gs":617,"nes":618,"ĠÄ£":619,"iedr":620,"ĠÄĢrÄĵjÄģs":621,"Ġ17":622,"Ð°":623,"ĠÄįempion":624,"dal":625,"Ä«ga":626,"Äĵd":627,"Ġ198":628,"Ġizm":629,"Ġdiv":630,"ĠvÄĵl":631,"Ġdien":632,"Äĵst":633,"entr":634,"re":635,"ĠlaikÄģ":636,"Ð¾":637,"Ġ15":638,"Ġak":639,"mu":640,"Å¡Ä·":641,"otÄģj":642,"'',":643,"Ġkl":644,"Ġ12":645,"kl":646,"pr":647,"18":648,"ĠBr":649,"Ġaug":650,"eb":651,"Ġiela":652,"ĠdzÄ«v":653,"ots":654,"to":655,"niec":656,"Ġtik":657,"ĠvairÄģk":658,"Ġpag":659,"Ð¸":660,"ona":661,"he":662,"ĠAr":663,"Å«ras":664,"val":665,"bol":666,"Ġtiek":667,"ogr":668,"Ġtur":669,"Ġbal":670,"Ġvir":671,"Ä«bÄģ":672,"eik":673,"Äĵtas":674,"ud":675,"vas":676,"inÄģt":677,"Ġ16":678,"kr":679,"Ġsl":680,"Ä«d":681,"ĠAt":682,"era":683,"Ġgads":684,"Ġfil":685,"Å«d":686,"ams":687,"ust":688,"asar":689,"ĠPÄĵc":690,"Ġzem":691,"ks":692,"Äįu":693,"ĠPr":694,"Ġ9":695,"Ġnos":696,"ran":697,"Ä«st":698,"ast":699,"Ġ197":700,"ieÅ¡":701,"nÄ«c":702,"ug":703,"Ġatt":704,"ent":705,"eks":706,"olo":707,"ĠdaÄ¼":708,"oti":709,"Ġter":710,"me":711,"Ġ11":712,"uÅ¡ie":713,"Ġ194":714,"ins":715,"Ġkomand":716,"ka":717,"Ġvid":718,"Ġgan":719,"iÅ¾":720,"ĠGr":721,"Äĵstur":722,"dzÄ«v":723,"Ġapr":724,"Å«n":725,"ĠÅ¡ah":726,"eh":727,"\",":728,"SV":729,"Ġ13":730,"isko":731,"vien":732,"ĠVal":733,"Ä«l":734,"Ġ14":735,"Ġ196":736,"oties":737,"ju":738,"cijas":739,"Ðµ":740,"Ä«ts":741,"ĠviÅĨÅ¡":742,"Ġstarp":743,"Ġvad":744,"Ġgrup":745,"ĠRÄ«gas":746,"ĠKat":747,"iec":748,"irop":749,"Ġpal":750,"ne":751,"Ġpagas":752,"ĠDÅ¾":753,"vid":754,"200":755,"Ġmed":756,"ĠmÅ«":757,"ain":758,"Ġiek":759,"Ġol":760,"ĠSp":761,"Ġstr":762,"âĢĵ":763,"gan":764,"orija":765,"Äģz":766,"Ġ193":767,"ĠIn":768,"Ġ0":769,"amat":770,"Ġgar":771,"ĠdaÅ¾":772,"iskÄģ":773,"zÄ«m":774,"Ä«dz":775,"iÅĨÅ¡":776,"ÅĨem":777,"iekÅ¡":778,"Ġal":779,"Ġjaun":780,"pl":781,"nieku":782,"ĠSt":783,"ilv":784,"ost":785,"tÄģl":786,"Ä«gi":787,"iskÄģs":788,"istr":789,"Ä«gÄģ":790,"Ä«k":791,"ĠIz":792,"ÄĵÅ¡an":793,"Ġrakst":794,"ota":795,"ber":796,"aud":797,"orm":798,"Ġizveid":799,"Äĵts":800,"ionÄģl":801,"ĠDz":802,"Ġizc":803,"''),":804,"aln":805,"ĠkÄ¼u":806,"Ġmu":807,"ter":808,"ĠPar":809,"ĠKriev":810,"Ġcentr":811,"Ġizmant":812,"if":813,"Ġpret":814,"ĠâĢ":815,"Ä«ta":816,"inÄģj":817,"aus":818,"Ġdaudz":819,"Ġ195":820,"Ġier":821,"nieks":822,"Ġpa":823,"vÄģr":824,"Ġlab":825,"erat":826,"ing":827,"ars":828,"vÄĵr":829,"Ġdr":830,"Äģf":831,"Ä«p":832,"itu":833,"ĠKar":834,"ubl":835,"Ä«tÄģj":836,"du":837,"ÑĢ":838,"Ġok":839,"Ġnovad":840,"Äĵji":841,"Ġpat":842,"Ġpil":843,"Ġatrodas":844,"Ġskai":845,"ĠEirop":846,"avas":847,"Ð½":848,"\".":849,"Ġsal":850,"Ġiegu":851,"ĠÄĮ":852,"ĠPas":853,"ĠÄįempionÄģ":854,"gal":855,"Ġpol":856,"eÅ¡":857,"ĠlielÄģk":858,"ists":859,"Ġterit":860,"isti":861,"ekl":862,"ark":863,"Ġgadu":864,"ikÄģ":865,"ĠASV":866,"eri":867,"Ġolimp":868,"10":869,"Ġlatv":870,"ilvÄĵk":871,"auj":872,"dien":873,"Äģp":874,"Ġmaz":875,"Ġpiem":876,"Ġtikai":877,"og":878,"umiem":879,"Ġmin":880,"skat":881,"ekt":882,"Ġziem":883,"Ġ23":884,"onas":885,"ĠdzimuÅ¡ie":886,"Äģtr":887,"aur":888,"Ġbei":889,"ku":890,"ni":891,"Ġviet":892,"els":893,"inÄģja":894,"Ġgadam":895,"ĠtÄģs":896,"ĠLiel":897,"dev":898,"iski":899,"Å«v":900,"Ġaut":901,"17":902,"ĠBal":903,"Ñģ":904,"ĠsastÄģv":905,"ĠNo":906,"iniek":907,"osm":908,"oloÄ£":909,"Ġsez":910,"Ġ192":911,"dzim":912,"Ä«jÄģs":913,"Å«ra":914,"''.":915,"ĠÄ·":916,"ih":917,"nieki":918,"unk":919,"ovs":920,"tas":921,"ĠkÄ¼uva":922,"Ġkad":923,"iks":924,"asaras":925,"eja":926,"Äģcija":927,"Äĵram":928,"ĠW":929,"Äĵv":930,"ĠAu":931,"âĢĿ":932,"Äĵtu":933,"stÄģv":934,"egorija":935,"ĠviÅĨa":936,"Ġsta":937,"otr":938,"lu":939,"eic":940,"Ġas":941,"Ġmar":942,"Äģjas":943,"emes":944,"Ġnosauk":945,"ĠKategorija":946,"ĠÄ«p":947,"Ġuzvar":948,"ask":949,"Ġvalod":950,"Ġvec":951,"Ġof":952,"Ġnav":953,"est":954,"Ġaugst":955,"ĠpaÅ¡":956,"12":957,"iÅĨa":958,"ĠSk":959,"Ġvalsts":960,"ĠvÄģr":961,"na":962,"ÅĨas":963,"ultÄģ":964,"ild":965,"le":966,"pils":967,"ajiem":968,"ĠMar":969,"Ä·is":970,"Ġkat":971,"Ġteritor":972,"Ġreiz":973,"Ð¾Ð":974,"Ġvald":975,"SR":976,"ĠAp":977,"ia":978,"ebr":979,"Ġjau":980,"Ġiet":981,"adom":982,".)":983,"Ġpus":984,"ch":985,"aks":986,"Ġpiedal":987,"Ġpav":988,"Ġrad":989,"Ġek":990,"ieÅ¾":991,"ĠPasaules":992,"ĠLie":993,"Ġgadsim":994,"ef":995,"ents":996,"ort":997,"umus":998,"Ġgalven":999,"Ġtas":1000,"Ä¼a":1001,"iÅ¡":1002,"lai":1003,"ĠcilvÄĵk":1004,"ĠpriekÅ¡":1005,"Å¡ana":1006,"Ġkara":1007,"embrÄ«":1008,"Ġvalst":1009,"Ġnod":1010,"ĠÅ¡aha":1011,"ied":1012,"Å«l":1013,"ult":1014,"ĠspÄĵlÄĵtÄģj":1015,"man":1016,"Äģb":1017,"11":1018,"Ġ()":1019,"Ġmir":1020,"ÅĨi":1021,"ĠlatvieÅ¡u":1022,"umos":1023,"ĠLatvijÄģ":1024,"Ġmil":1025,"Äĵls":1026,"Ġte":1027,"ojas":1028,"kar":1029,"Ġdal":1030,"Ġotr":1031,"ivers":1032,"end":1033,"15":1034,"ÄĵtÄģ":1035,"ĠEiropas":1036,"ĠpilsÄĵtas":1037,"oÅ¡anas":1038,"Ġko":1039,"li":1040,"tur":1041,"Ġ25":1042,"Ġma":1043,"utbol":1044,"ÄĵjÄģ":1045,"ĠdaÅ¾Äģd":1046,"ra":1047,"ajÄģs":1048,"Ġapm":1049,"ĠPirm":1050,"Ġsar":1051,"ĠvÄĵstur":1052,"Ġan":1053,"Ġvirs":1054,"uc":1055,"ogrÄģf":1056,"ÑĤ":1057,"Ġsavu":1058,"Ġrez":1059,"Ġskol":1060,".âĢĶ":1061,"ĠÄ¼":1062,"ejas":1063,"onÄģ":1064,"onu":1065,"Å¡anu":1066,"Ġta":1067,"Ġnep":1068,"16":1069,"Ġkm":1070,"ĠFran":1071,"ÄģkÄģ":1072,"ora":1073,"akt":1074,"Å¡Ä·ir":1075,"Å«s":1076,"ĠPol":1077,"ĠKop":1078,"ĠÄ«paÅ¡":1079,"Ġtam":1080,"sar":1081,"vad":1082,"Ġliet":1083,"Ġpasaules":1084,"ĠTr":1085,"Ġ30":1086,"aid":1087,"ce":1088,"Ġpaz":1089,"Ġpart":1090,"ĠKrievijas":1091,"ĠÅ«d":1092,"ama":1093,"ojÄģs":1094,"iÄį":1095,"Ġfutbol":1096,"aznÄ«c":1097,"000":1098,"Ġsu":1099,"gabal":1100,"der":1101,"ĠÅ¡Ä·":1102,"Ġnek":1103,"Ä¼i":1104,"Ġsa":1105,"aÄ¼u":1106,"ĠZiem":1107,"ĠmuiÅ¾":1108,"nu":1109,"ĠUn":1110,"iti":1111,"de":1112,"Ġpak":1113,"dza":1114,"istÄĵm":1115,"Ġieg":1116,"nÄ«r":1117,"Ġizlas":1118,"inÄģl":1119,"ĠPSR":1120,"Ðº":1121,"Å«st":1122,"ĠTÄģ":1123,"ÄĵÄ¼":1124,"Ġimp":1125,"ĠmÄģk":1126,"Ġsep":1127,"kÄģrt":1128,"Äĵg":1129,"Å«k":1130,"13":1131,"obeÅ¾":1132,"eru":1133,"ord":1134,"Ġklub":1135,"urs":1136,"enes":1137,"oru":1138,"14":1139,"iversitÄģ":1140,"Ġ22":1141,"ciem":1142,"ĠÄģr":1143,"viet":1144,"gad":1145,"ru":1146,"Ġ*":1147,"Å¡anÄģs":1148,"Ġdat":1149,"vÄĵl":1150,"gas":1151,"ĠuzÅĨÄĵm":1152,"iez":1153,"ess":1154,"Äĵz":1155,"elt":1156,"Ġiesp":1157,"ĠAustr":1158,"asti":1159,"uÅ¡i":1160,"vai":1161,"ind":1162,"Äģciju":1163,"cija":1164,"ieÅ¡i":1165,"dzÄ«votÄģj":1166,"ojums":1167,"taut":1168,"Ġaugu":1169,"Ġdzies":1170,"Äģts":1171,"iÅĨu":1172,"Ġsac":1173,"acionÄģl":1174,"af":1175,"199":1176,"auga":1177,"Ġcit":1178,"Äģkais":1179,"Ġjeb":1180,"uz":1181,"Ġvieta":1182,"Äĵjis":1183,"Ġel":1184,"aist":1185,"ĠizcÄ«n":1186,"ver":1187,"ĠAtt":1188,"Ġup":1189,"Ġab":1190,"ana":1191,"Ġapgabal":1192,"Ġpamat":1193,"mes":1194,"Ä«ti":1195,"Ġstu":1196,"art":1197,"ĠkurÄģ":1198,"ĠvÄģc":1199,"Ġnor":1200,"Ġ24":1201,"eÅĨ":1202,"ova":1203,"ĠtÄģd":1204,"ĠreÄ£":1205,"Ġnotika":1206,"omas":1207,"Ġprof":1208,"omÄĵr":1209,"min":1210,"Ġnes":1211,"ĠII":1212,"Ġkuru":1213,"\":":1214,"oh":1215,"ijai":1216,"ĠsistÄĵm":1217,"Ġsad":1218,"ĠVis":1219,"ĠÄ¶":1220,"iÄ¼":1221,"io":1222,"anvÄģr":1223,"ĠbaznÄ«c":1224,"Ġties":1225,"Äģta":1226,"ejs":1227,"aug":1228,"Ð»":1229,"eÄ¼u":1230,"Ġ+":1231,"ĠkopÄģ":1232,"lab":1233,"ĠvÄĵr":1234,"ÅĨÄĵma":1235,"Ġjo":1236,"atÄ«v":1237,"ĠVÄ«r":1238,"Ġciem":1239,"Äģns":1240,"Ġarm":1241,"Ġvietu":1242,"Ä«na":1243,"ajÄģm":1244,"Ġatkl":1245,"Äģna":1246,"ĠpÄģrstÄģv":1247,"Ġuzskat":1248,"embris":1249,"Ġsasnie":1250,"Ġorgan":1251,"elta":1252,"ĠmÅ«z":1253,"ĠturnÄ«r":1254,"Ġ21":1255,"ĠFil":1256,"uÄģr":1257,"ĠSav":1258,"ls":1259,"ĠâĢŀ":1260,"ojot":1261,"andr":1262,"Ä«gs":1263,"amer":1264,"ÄĵÅ¡anas":1265,"orta":1266,"Ġsak":1267,"ĠjÅ«l":1268,"lis":1269,"tobr":1270,"Ġme":1271,"eni":1272,"ĠsastÄģvÄģ":1273,"Ġsavien":1274,"ezid":1275,"ĠLai":1276,"Ġdzimis":1277,"ĠjanvÄģr":1278,"onom":1279,"Å¾u":1280,"ĠspÄĵlÄĵtÄģji":1281,"des":1282,"Ġbeig":1283,"eim":1284,"Ġsiev":1285,"ĠFr":1286,"otas":1287,"Ġsv":1288,"ĠUz":1289,"ard":1290,"Ġkap":1291,"Ä«gu":1292,"ĠÅ¾":1293,"Ä«nas":1294,"eju":1295,"Ġviens":1296,"Ġkuras":1297,"ĠvÄĵlÄģk":1298,"ĠnozÄ«m":1299,"Ġez":1300,"niecÄ«bas":1301,"kas":1302,"enis":1303,"aÄ¼as":1304,"ĠRÄ«gÄģ":1305,"enc":1306,"eÄ¼a":1307,"vu":1308,"ener":1309,"ara":1310,"Ġieguv":1311,"mir":1312,"ĠjÅ«n":1313,"ĠÂ":1314,"ait":1315,"ĠKl":1316,"ena":1317,"Ġsept":1318,"ern":1319,"Ġveik":1320,"Äĵjs":1321,"Ġ2008":1322,"ĠÄ£im":1323,"dzimis":1324,"ĠiedzÄ«votÄģj":1325,"ĠiekÄ¼":1326,"bur":1327,"ebruÄģr":1328,"eln":1329,"skol":1330,"Ġsab":1331,"Ġkomp":1332,"ĠtaÄįu":1333,"edz":1334,"Ġdec":1335,"ĠÅ½":1336,"Ġpadom":1337,"ami":1338,"iku":1339,"Ġnev":1340,"Ġgais":1341,"ĠattÄ«st":1342,"Ġ190":1343,"entu":1344,"oÅ¡ana":1345,"Ġlid":1346,"eiz":1347,"Å¡i":1348,"Ġlik":1349,"ÄĵÄ£":1350,"oks":1351,"Ġsek":1352,"Ġ80":1353,"Äĵjo":1354,"ita":1355,"ĠAttÄĵls":1356,"ĠJaun":1357,"Ġakt":1358,"Äĵju":1359,"ĠspÄĵlÄĵs":1360,"fr":1361,"Äģnis":1362,"Ġbar":1363,"ietis":1364,"ĠsÄģka":1365,"erl":1366,"Ġ2009":1367,"Äģko":1368,"Ġdienvid":1369,"ĠvietÄģ":1370,"form":1371,"Ġ2010":1372,"erc":1373,"iskais":1374,"ĠAm":1375,"bÅ«v":1376,"iens":1377,"Ġizr":1378,"ĠdalÄ«b":1379,"Äĵrijas":1380,"ĠTur":1381,"ĠtrÄ«s":1382,"ĠBalt":1383,"ĠzinÄģt":1384,"Ġde":1385,"uÄ£":1386,"ĠstrÄģd":1387,"kal":1388,"epubl":1389,"ĠdaÄ¼a":1390,"Ġes":1391,"Ġnovada":1392,"Ġgl":1393,"Ġoktobr":1394,"ĠAleks":1395,"ĠmÄĵr":1396,"Ġhok":1397,"ĠVasaras":1398,"ata":1399,"Ġviena":1400,"Ġkaral":1401,"Ġraj":1402,"50":1403,"stÄģ":1404,"viedr":1405,"Ġiel":1406,"ĠÄ¼oti":1407,"uv":1408,"Ġalb":1409,"evi":1410,"Ġil":1411,"Ġbez":1412,"Ġizp":1413,"Ġkaus":1414,"Å«p":1415,"sÄģk":1416,"Ġkrust":1417,"usies":1418,"Äĵti":1419,"ojumu":1420,"ĠfebruÄģr":1421,"autas":1422,"Ġkura":1423,"Ġlauk":1424,"ska":1425,"Ġtel":1426,"nÄĵ":1427,"ĠkÄģd":1428,"ĠTas":1429,"onis":1430,"Ġa":1431,"elz":1432,"Ġpunk":1433,"ibinÄģ":1434,"ĠÄįempionÄģtÄģ":1435,"ĠkurÅ¡":1436,"ĠrezultÄģ":1437,"ĠPSRS":1438,"ĠKom":1439,"Ġpirmo":1440,"Äģrs":1441,"inc":1442,"Ġdom":1443,"ĠÅ¡o":1444,"iÅĨas":1445,"Ġ2012":1446,"oni":1447,"ĠVil":1448,"Ġprezid":1449,"ĠbÅ«t":1450,"Ġmetr":1451,"stÄģd":1452,"strÄģd":1453,"Ġpiek":1454,"Ġ26":1455,"Ġgrupas":1456,"Ä«jis":1457,"Ġieguva":1458,"Ġstud":1459,"ciju":1460,"ĠmÄģc":1461,"Äģtu":1462,"Ġaizsar":1463,"ĠspÄĵk":1464,"Ġmat":1465,"ints":1466,"Ġ28":1467,"sta":1468,"Äģnu":1469,"inÄģm":1470,"iciÄģl":1471,"ĠPie":1472,"..":1473,"ĠKur":1474,"tic":1475,"ĠspÄĵles":1476,"ogrÄģfija":1477,"ÄĵÄ¼u":1478,"Ġgadsimta":1479,"ĠSv":1480,"ijÄģm":1481,"nas":1482,"ets":1483,"Ð²":1484,"ĠviÅĨu":1485,"ĠÄĵk":1486,"ÄģlÄģ":1487,"ĠOl":1488,"ĠnovÄĵr":1489,"ĠKon":1490,"ĠVÄĵstur":1491,"Ġizd":1492,"Ġ2006":1493,"Ġplat":1494,"Ġbij":1495,"asp":1496,"int":1497,"Ġorganiz":1498,"Ġturp":1499,"Ġdep":1500,"iskajÄģs":1501,"Ġizdev":1502,"Ġneat":1503,"ĠaprÄ«l":1504,"pus":1505,"ĠkuÄ£":1506,"ĠvÄģcu":1507,"Ġkol":1508,"ĠmÅ«s":1509,"Ġsag":1510,"Ġgu":1511,"ĠjÅ«ras":1512,".'''":1513,"Ġdev":1514,"erv":1515,"ogram":1516,"Ġ2000":1517,"ehn":1518,"Äĵjais":1519,"ciems":1520,"enta":1521,"Ġ27":1522,"ĠraÅ¾":1523,"otu":1524,"stu":1525,"Ġsat":1526,"Ġtemp":1527,"ĠreÅ¾":1528,"Ġsarakst":1529,"mÄģ":1530,"ĠteÄģtr":1531,"ow":1532,"ene":1533,"ĠziemeÄ¼":1534,"ĠGal":1535,"ĠRÄ«ga":1536,"Ä«go":1537,"Ġmod":1538,"Ä·i":1539,"Ä·u":1540,"Ġ2004":1541,"aba":1542,"Ġ189":1543,"Ġop":1544,"ĠnekÄģ":1545,"Äģves":1546,"Ġ2011":1547,"ert":1548,"Ġ2014":1549,"erb":1550,"ĠbrÄ«v":1551,"ģĦ":1552,"ava":1553,"âģĦ":1554,"Ġpavad":1555,"ietu":1556,"ino":1557,"Ġnel":1558,"Ġarh":1559,"Ġats":1560,"Ġfr":1561,"Ġ2007":1562,"Ġfon":1563,"Ġbiedr":1564,"sm":1565,"Ġsm":1566,".,":1567,"Äģdi":1568,"ori":1569,"vald":1570,"Ġsug":1571,"Ġpievien":1572,"Ġ100":1573,"Ġkosm":1574,"ja":1575,"Ġgados":1576,"ĠmÄģjas":1577,"ĠPl":1578,"ĠZem":1579,"ĠValsts":1580,"oto":1581,"Ġfilmas":1582,"Ġsabiedr":1583,"Ġaustr":1584,"Å¡anai":1585,"Ġatrad":1586,"Ġkok":1587,"ari":1588,"Ġvasaras":1589,"Ġ(;":1590,"Ġstarptaut":1591,"ĠDien":1592,"ĠiespÄĵj":1593,"ojuma":1594,"ank":1595,"ĠLÄ«dz":1596,".-":1597,"ĠStr":1598,"ĠDauga":1599,"apa":1600,"Ä«bÄģm":1601,"Ġzemes":1602,"ektr":1603,"zemes":1604,"eriÄģl":1605,"plat":1606,"ĠpÄĵt":1607,"Ġtir":1608,"Ġapvien":1609,"vaig":1610,"Ġnosl":1611,"ell":1612,"ein":1613,"Ġveic":1614,"ĠDr":1615,"bruk":1616,"ĠLietu":1617,"Ġpiln":1618,"ond":1619,"atav":1620,"istu":1621,"ĠrobeÅ¾":1622,"Ġput":1623,"ĠpilsÄĵta":1624,"glÄ«t":1625,"aim":1626,"und":1627,"Ġ000":1628,"Ġvienu":1629,"ĠvalodÄģ":1630,"ĠEl":1631,"ĠOtr":1632,"ĠVÄ«rietis":1633,"Ġkult":1634,"tÄĵ":1635,"kop":1636,"all":1637,"iss":1638,"ĠSa":1639,"ieris":1640,"ĠMask":1641,"Ġpolit":1642,"Ġvidus":1643,"Ġ29":1644,"Ġvirz":1645,"alas":1646,"Ġ:":1647,"ÄģkÄģs":1648,"Ġav":1649,"skis":1650,"Ġpul":1651,"ĠpiemÄĵram":1652,"Ġreizes":1653,"Ġ2016":1654,"Ġministr":1655,"reiz":1656,"Ġpirms":1657,"ĠLiep":1658,"ko":1659,"ĠvadÄ«tÄģj":1660,"ĠÄįetr":1661,"Äģti":1662,"ĠlÄ«n":1663,"ang":1664,"30":1665,"ill":1666,"Ġnoteik":1667,"Äģks":1668,"akÅ¡":1669,"Äģnijas":1670,"Ġeksp":1671,"Ġietek":1672,"198":1673,"top":1674,"Ġpubl":1675,"ĠÄĴ":1676,"itÄģr":1677,"Ġ====":1678,"ĠAndr":1679,"oÄ¼u":1680,"Ġpan":1681,"ere":1682,"ĠgrÄģm":1683,"ievu":1684,"ÅĨiem":1685,"ĠbÄĵr":1686,"aru":1687,"ajos":1688,"Ġsam":1689,"Ġcentrs":1690,"ÄģÅĨu":1691,"Ġtemperat":1692,"Ä«tas":1693,"Ġprogram":1694,"Äģls":1695,"Ġskr":1696,"Ġad":1697,"opul":1698,"amo":1699,"eli":1700,"Ġkam":1701,"ĠAleksandr":1702,"ozÄ«c":1703,"ĠmÄģksl":1704,"griez":1705,"Ġmilj":1706,"ĠMin":1707,"Ġ-":1708,"Ġpagasts":1709,"'').":1710,"Äģnas":1711,"ĠkÄ¼":1712,"Ġamat":1713,"ĠInd":1714,"ms":1715,"Ġ50":1716,"Ġpieder":1717,"Ä«tu":1718,"ĠIr":1719,"Ġ2005":1720,"Ġ40":1721,"ĠlÄ«g":1722,"ĠdÄĵÄ¼":1723,"Ġ2013":1724,"Ġkarj":1725,"adÄĵm":1726,"ieta":1727,"ats":1728,"Ġbiju":1729,"Ġthe":1730,"skas":1731,"ienÄģ":1732,"eit":1733,"ĠÅ«dens":1734,"oÅ¡anu":1735,"Äĵjot":1736,"ĠreÄ£ion":1737,"ĠSl":1738,"ĠVÄĵsture":1739,"Ġned":1740,"jÄģ":1741,"Ġapst":1742,"Ġpap":1743,"enti":1744,"Ġdzelz":1745,"ĠapriÅĨ":1746,"mi":1747,"iena":1748,"laik":1749,"The":1750,"ĠmÅ«sdien":1751,"ĠvÄ«r":1752,"Ġattiec":1753,"Ä«sk":1754,"Ġatz":1755,"aÄ¼a":1756,"ĠpÄĵd":1757,"Ġdab":1758,"gÄģr":1759,"ilp":1760,"Äĵrs":1761,"ĠÄģtr":1762,"ÅĨÄģ":1763,"amas":1764,"cÄĵl":1765,"atu":1766,"uss":1767,"ĠvÄģrd":1768,"ns":1769,"Ġparasti":1770,"Ġ(,":1771,"Ġkaln":1772,"jaun":1773,"gaun":1774,"Ġriet":1775,"Ġtad":1776,"197":1777,"ĠViÅĨÅ¡":1778,"Äģli":1779,"Äģla":1780,"Ä«jums":1781,"aja":1782,"Ġkal":1783,"Ġsen":1784,"Ġkras":1785,"cel":1786,"25":1787,"onijas":1788,"ĠtomÄĵr":1789,"Ġzaud":1790,"Ġlaika":1791,"ĠolimpiskajÄģs":1792,"atÄ«t":1793,"oda":1794,"ĠVÄģcijas":1795,"ÄģcijÄģ":1796,"ĠDienvid":1797,"Ġpers":1798,"itÅ«":1799,"ĠpiedalÄ«jÄģs":1800,"Ġpla":1801,"Ġinter":1802,"ikt":1803,"ĠZiemeÄ¼":1804,"Ġtie":1805,"ĠDzim":1806,"erm":1807,"ĠÂ°":1808,"ĠdibinÄģ":1809,"ĠVÄĵl":1810,"ienu":1811,"Ġfor":1812,"Å«ru":1813,"ĠcÄ«":1814,"Å«z":1815,"ĠkÄģr":1816,"ĠRepubl":1817,"omu":1818,"ĠspÄĵÄ¼u":1819,"ĠmÄģt":1820,"Äģra":1821,"onz":1822,"ipr":1823,"Ġatbal":1824,"utÄģ":1825,"Ð¸Ñ":1826,"ĠâĢľ":1827,"ards":1828,"ĠOr":1829,"Ġpasaul":1830,"inÄģts":1831,"ijÄģs":1832,"droÅ¡":1833,"ĠKÄģr":1834,"Ä¼iem":1835,"ila":1836,"ĠvÄĵrt":1837,"Ġies":1838,"stitÅ«":1839,"Ġpies":1840,"Ġ2015":1841,"ĠZviedr":1842,"arkan":1843,"ilt":1844,"ki":1845,"inot":1846,"Ġprofes":1847,"Ä«bai":1848,"idz":1849,"Ġcaur":1850,"ÄģjÄģs":1851,"ĠPÄĵt":1852,"21":1853,"ĠbieÅ¾":1854,"meÅĨa":1855,"ĠUniversitÄģ":1856,"Ġsastop":1857,"Ä«te":1858,"ĠpastÄģv":1859,"Ä«nu":1860,"ĠkopÅ¡":1861,"stoÅ¡":1862,"Ġsim":1863,"ĠtÄĵv":1864,"Ġpagasta":1865,"eder":1866,"Ġind":1867,"nis":1868,"oÅ¾":1869,"gÄģ":1870,"ĠkrÄģs":1871,"no":1872,"uÅĨ":1873,"ĠmeÅ¾":1874,"Ä«ns":1875,"Ġkor":1876,"Ġvietas":1877,"Ġklas":1878,"ĠceÄ¼":1879,"Ġsaist":1880,"Ġizlases":1881,"iskajÄģ":1882,"eta":1883,"Ġ2002":1884,"Ñĥ":1885,"eviÅ¡Ä·":1886,"Ġkomandu":1887,"ĠtajÄģ":1888,"Ġfutbola":1889,"ĠLiv":1890,"Ġkauj":1891,"ukÄģrt":1892,"Ä«Å¡anas":1893,"Ġkomandas":1894,"amb":1895,"194":1896,"urn":1897,"Ġsacens":1898,"Ġprov":1899,"amerikÄģ":1900,"ĠIgaun":1901,"ian":1902,"iska":1903,"'''''":1904,"ela":1905,"osa":1906,"Ä«tÄģ":1907,"enÄĵ":1908,"umam":1909,"Äģda":1910,"Ġdivas":1911,"Ġpopul":1912,"ĠJÄģnis":1913,"ĠuniversitÄģ":1914,"oÅ¡anÄģs":1915,"Ð´":1916,"ĠsezonÄģ":1917,"aka":1918,"ĠÅħ":1919,"Ġ2018":1920,"196":1921,"ĠmedaÄ¼as":1922,"Ġrakstur":1923,"eis":1924,"ĠBi":1925,"ĠKal":1926,"miris":1927,"ĠPils":1928,"Ġskaits":1929,"Ġsezonas":1930,"ĠsÄģkumÄģ":1931,"Ä«jumu":1932,"ĠteritorijÄģ":1933,"gÄ¼u":1934,"otn":1935,"Äĵp":1936,"ojumi":1937,"Al":1938,"ĠSal":1939,"Ġmet":1940,"Ð¾Ð²":1941,"ĠapakÅ¡":1942,"ĠdaÄ¼u":1943,"ĠKan":1944,"Ġob":1945,"ĠmÅ«zikas":1946,"ĠSkatÄ«t":1947,"ĠnÄģk":1948,"24":1949,"Ġperi":1950,"iga":1951,"ĠbijuÅ¡":1952,"ola":1953,"Ġproj":1954,"ĠAug":1955,"ica":1956,"Å¡a":1957,"ĠAnt":1958,"rakst":1959,"Ä·a":1960,"iste":1961,"Ġtehn":1962,"Ġkonc":1963,"Ġlaiku":1964,"tiv":1965,"Ġkan":1966,"Ġ31":1967,"Ġilg":1968,"Ġ'''''":1969,"ĠattÄĵl":1970,"ĠSaeim":1971,"Ð¹":1972,"lav":1973,"idu":1974,"Ġsugas":1975,"Ġkg":1976,"193":1977,"Äĵjas":1978,"tais":1979,"ĠdaÄ¼Äģ":1980,"Ġatjaun":1981,"Ġvalodas":1982,"vis":1983,"elga":1984,"Ä«kst":1985,"Ġsaglab":1986,"uld":1987,"Ä«jies":1988,"igz":1989,"ĠNacionÄģl":1990,"Ġ2003":1991,"Ġposm":1992,"Ġ2017":1993,"ss":1994,"ĠÄ¢":1995,"Ġneliel":1996,"zem":1997,"Ġnol":1998,"ay":1999,"ĠNe":2000,"ĠrÅ«p":2001,"Ġvisu":2002,"eras":2003,"ĠpalÄ«dz":2004,"ĠievÄĵl":2005,"oma":2006,"bil":2007,"isku":2008,"old":2009,"ĠSta":2010,"Ġloc":2011,"Äĵdz":2012,"ĠEn":2013,"Ä«zijas":2014,"ĠEd":2015,"ved":2016,"ĠatradÄģs":2017,"Äģva":2018,"ĠtÄģp":2019,"ĠapmÄĵram":2020,"Ġ188":2021,"Å¾a":2022,"ation":2023,"Ġaizvad":2024,"Ġnosaukumu":2025,"Ġmuz":2026,"Ġgaisa":2027,"iterat":2028,"ĠiedzÄ«votÄģju":2029,"Ġupes":2030,"asket":2031,"Ġsadal":2032,"ĠmiruÅ¡ie":2033,"Ġpam":2034,"nieka":2035,"Ġpel":2036,"aspÄĵk":2037,"Ġsporta":2038,"Ġizplat":2039,"Ġneb":2040,"Ġproc":2041,"als":2042,"ĠCentr":2043,"otÄģjs":2044,"ĠatÅ¡Ä·ir":2045,"Ġmiris":2046,"istes":2047,"iÄįs":2048,"An":2049,"ĠbÅ«v":2050,"ukt":2051,"ĠoficiÄģl":2052,"Ġsap":2053,"Ġreizi":2054,"aliz":2055,"Ġkrievu":2056,"skait":2057,"ĠzinÄģm":2058,"Ġgrupa":2059,"Ä«tes":2060,"Ġslim":2061,"ĠnodroÅ¡":2062,"ĠdeputÄģ":2063,"Ġgalvas":2064,"irk":2065,"iÅĨi":2066,"22":2067,"Ġkust":2068,"ĠTo":2069,"ĠmÄĵn":2070,"Ġelektr":2071,"ĠMon":2072,"jiem":2073,"Ġsvar":2074,"ÄĵÅ¡anu":2075,"ĠLe":2076,"eris":2077,"ĠEr":2078,"tuven":2079,"ĠuzsÄģk":2080,"Ġviegl":2081,"otÄģ":2082,"Ġja":2083,"ÄĵÅ¡ana":2084,"Äģdu":2085,"Ġdi":2086,"Ġdienas":2087,"ĠreÅ¾is":2088,"ĠkÄģrt":2089,"Ġneatkar":2090,"Ġ1992":2091,"ĠpÄģrd":2092,"23":2093,"ail":2094,"ura":2095,"Ġ1998":2096,"ista":2097,"mit":2098,"ĠstÄģv":2099,"Ġ2001":2100,"HL":2101,"Ġmon":2102,"Ġ***":2103,"Ġdziesmu":2104,"usu":2105,"Ġarmijas":2106,"kÄģ":2107,"ÄĵtÄģjs":2108,"atl":2109,"ociÄģl":2110,"idr":2111,"Äģdas":2112,"Ġ187":2113,"ĠbeigÄģs":2114,"Ġpirmais":2115,"deÅĨa":2116,"ĠPÄģr":2117,"ĠkaraspÄĵk":2118,"Ġgadus":2119,"ĠtreÅ¡":2120,"ĠÄ£ints":2121,"Å«tu":2122,"Ġprod":2123,"Ġizl":2124,"ĠPadom":2125,"lam":2126,"isma":2127,"ass":2128,"ĠmuiÅ¾a":2129,"ceÄ¼a":2130,"ĠparÄģd":2131,"iera":2132,"ieri":2133,"''',":2134,"tuveni":2135,"ou":2136,"Ġ1996":2137,"ĠizstrÄģd":2138,"Ġcm":2139,"ge":2140,"asketbol":2141,"Ġspec":2142,"Ġbijis":2143,"Ġglez":2144,"gales":2145,"Ġnosaukums":2146,"ĠnacionÄģl":2147,"ministr":2148,"Ġid":2149,"inÄģjÄģs":2150,"irs":2151,"evs":2152,"Ġveido":2153,"ÄĵÅ¡anÄģs":2154,"Ġbl":2155,"ĠRomas":2156,"ĠVid":2157,"Ġ1990":2158,"Ġpoliti":2159,"Ġagr":2160,"ĠSavien":2161,"ĠSpÄĵl":2162,"ÄĵtÄģs":2163,"ula":2164,"ieru":2165,"ĠpagastÄģ":2166,"ĠmedaÄ¼u":2167,"Ġkontr":2168,"Ġkonf":2169,"ĠY":2170,"ĠimpÄĵrijas":2171,"Ġrok":2172,"umb":2173,"ĠbieÅ¾i":2174,"Ġsauc":2175,"07":2176,"Äģlu":2177,"Ġrek":2178,"ieviet":2179,"II":2180,"irz":2181,"ri":2182,"inas":2183,"Ġlap":2184,"ĠpasaulÄĵ":2185,"26":2186,"uru":2187,"ogs":2188,"Ġperiod":2189,"ĠAb":2190,"ĠFI":2191,"Ġ186":2192,"ĠmaijÄģ":2193,"ometr":2194,"Ġtiem":2195,"ĠMaz":2196,"okr":2197,"otÄģs":2198,"Ġdraudz":2199,"inÄģs":2200,"ĠItÄģl":2201,"ĠjÅ«lijÄģ":2202,"Ġmas":2203,"ĠBl":2204,"olf":2205,"01":2206,"Ä«bÄģs":2207,"ĠÄª":2208,"ojoÅ¡":2209,"Ä«skap":2210,"Ġatgriez":2211,"ĠmartÄģ":2212,"Ã©":2213,"ovas":2214,"darb":2215,"Ġolimpisko":2216,"ĠjÅ«nijÄģ":2217,"ĠSom":2218,"Ġinform":2219,"ĠX":2220,"ĠAmer":2221,"ĠdecembrÄ«":2222,"Ġpartijas":2223,"Ġfran":2224,"Ġbeidz":2225,"ĠnovembrÄ«":2226,"ĠNik":2227,"ĠpazÄ«st":2228,"ĠordeÅĨa":2229,"ĠspÄĵlÄĵ":2230,"one":2231,"Äģrz":2232,"pe":2233,"anc":2234,"ĠMed":2235,"ĠjanvÄģrÄ«":2236,"ĠViÅĨa":2237,"Ġekonom":2238,"Ġkonk":2239,"Latv":2240,"ings":2241,"erg":2242,"ĠKopÅ¡":2243,"Äģka":2244,"ĠStarp":2245,"Ð¼":2246,"27":2247,"ĠNr":2248,"sol":2249,"ator":2250,"28":2251,"Ġtuv":2252,"ĠSu":2253,"Ġsnie":2254,"ĠoktobrÄ«":2255,"ĠFrancijas":2256,"Pr":2257,"Ġsudr":2258,"atas":2259,"auts":2260,"ĠBar":2261,"Ġzelta":2262,"inieks":2263,"ĠBaltijas":2264,"ĠÄ»":2265,"eklis":2266,"gÄģd":2267,"Ġizmanto":2268,"ĠsÄģkÄģs":2269,"Äģca":2270,"ĠlielÄģkÄģ":2271,"Ġpiemin":2272,"Ġparedz":2273,"met":2274,"Ġand":2275,"Ġ1999":2276,"Ġ2019":2277,"ĠseptembrÄ«":2278,"ĠLietuvas":2279,"ipl":2280,"ĠinstitÅ«":2281,"okÄģrt":2282,"ASV":2283,"niekiem":2284,"pa":2285,"ĠPolijas":2286,"Ġkausa":2287,"eti":2288,"eles":2289,"40":2290,"Ġfiz":2291,"ÑģÐº":2292,"Ġform":2293,"Äĵnu":2294,"gul":2295,"ties":2296,"Ġrom":2297,"ĠJelga":2298,"ves":2299,"ĠizcÄ«nÄ«ja":2300,"isc":2301,"ĠÅ¡ajÄģ":2302,"Å¡anÄģ":2303,"ĠcilvÄĵku":2304,"cijÄģ":2305,"Ġnet":2306,"ĠmÄģks":2307,"ĠMir":2308,"kÄģr":2309,"ĠpirmÄģ":2310,"pÄģr":2311,"manis":2312,"ĠDaugav":2313,"ĠzÄ«m":2314,"ĠakadÄĵm":2315,"ĠsvÄĵt":2316,"29":2317,"ĠmÄģj":2318,"ĠKomand":2319,"Ġmm":2320,"ĠpaziÅĨ":2321,"orv":2322,"ich":2323,"iest":2324,"Ar":2325,"ĠizglÄ«t":2326,"Ä«gÄģs":2327,"ĠVidz":2328,"ĠVec":2329,"Ġskraj":2330,"ajam":2331,"ÄģtÄģj":2332,"Ġdzimta":2333,"ĠKurzemes":2334,"ĠmilitÄģr":2335,"Ġ60":2336,"enÄ«":2337,"ĠaugustÄģ":2338,"ĠLu":2339,"Ġdeb":2340,"Äĵjusi":2341,"Ä«jumÄģ":2342,"ĠThe":2343,"ekts":2344,"Ġsalas":2345,"ĠgadsimtÄģ":2346,"Ġdzimtas":2347,"ols":2348,"ĠRob":2349,"Ġbi":2350,"ras":2351,"rÄģd":2352,"iskie":2353,"ĠCh":2354,"ulk":2355,"ĠÅ¡Ä«":2356,"erts":2357,"Ġbasketbol":2358,"ÑĮ":2359,"ĠÅłajÄģ":2360,"ĠJur":2361,"mal":2362,"amu":2363,"itr":2364,"Ġaptuveni":2365,"niecÄ«ba":2366,"Ġdin":2367,"Ġsport":2368,"ĠpanÄģk":2369,"Ġpiec":2370,"Ġredz":2371,"Ġtai":2372,"Ġhokeja":2373,"Å¡anos":2374,"gÄģj":2375,"ĠamerikÄģ":2376,"Ġ****":2377,"ĠBÄĵr":2378,"ĠapdzÄ«v":2379,"ĠOlimp":2380,"ĠAiz":2381,"Ġdzied":2382,"Ġ36":2383,"Ġhokej":2384,"anu":2385,"Ġord":2386,"Br":2387,"ieg":2388,"ĠpilsÄĵtÄģ":2389,"ojumÄģ":2390,"Ġpublic":2391,"195":2392,"ine":2393,"ĠfinÄģl":2394,"Ġnotiek":2395,"igzd":2396,"Ġâ":2397,"ĠlÄ«gas":2398,"ĠMÄģr":2399,"ÄģlÄģs":2400,"Ġe":2401,"Å«rÄģ":2402,"Ġ35":2403,"ĠvairÄģkas":2404,"lad":2405,"Ġuzbruk":2406,"ĠÄįempionÄģts":2407,"Ġdes":2408,"ajai":2409,"ĠLat":2410,"Ġielu":2411,"ida":2412,"ore":2413,"oÄ¼":2414,"ĠTe":2415,"Ġdok":2416,"Ġielas":2417,"tipr":2418,"Äĵjiem":2419,"Ġkuri":2420,"Ġprofils":2421,"for":2422,"Ñĭ":2423,"Ġziemas":2424,"Ġskait":2425,"--":2426,"Äģlis":2427,"ĠLond":2428,"Ġ70":2429,"Ñı":2430,"iecieÅ¡":2431,"Ġmain":2432,"eiv":2433,"ĠAk":2434,"ĠAleksandrs":2435,"Ġ1997":2436,"Ġdarbu":2437,"Äģru":2438,"oga":2439,"Ġ1994":2440,"evol":2441,"Ġskrajciems":2442,"itÄģn":2443,"ĠaprÄ«lÄ«":2444,"Ġvidusskol":2445,"uj":2446,"amÄģ":2447,"zÄ«mes":2448,"oloÄ£ijas":2449,"elis":2450,"Ġierakst":2451,"Ġvil":2452,"Äģkie":2453,"FA":2454,"Ä«ties":2455,"aÄ¼Äģ":2456,"ĠÅ¾urn":2457,"ĠatseviÅ¡Ä·":2458,"ĠSieviet":2459,"inieku":2460,"ĠamerikÄģÅĨu":2461,"Ġsavas":2462,"ĠJa":2463,"ĠMad":2464,"ĠiekÅ¡":2465,"ĠvÄĵsture":2466,"itas":2467,"enu":2468,"Ġkval":2469,"ĠgalvenokÄģrt":2470,"ĠdzelzceÄ¼a":2471,"ĠKol":2472,"Ġoke":2473,"Ġcitu":2474,"Ġiepr":2475,"uns":2476,"ĠnepiecieÅ¡":2477,"ĠfebruÄģrÄ«":2478,"ĠOtrÄģ":2479,"lik":2480,"amp":2481,"tus":2482,"ĠmarÅ¡":2483,"Ġherc":2484,"res":2485,"Ġ1991":2486,"entÄģ":2487,"ĠÄ«s":2488,"eva":2489,"Ä«ra":2490,"Ġfin":2491,"Ġgarums":2492,"dzÄ«bas":2493,"oÅĨu":2494,"05":2495,"Ġstat":2496,"ĠRiet":2497,"vair":2498,"Ġizpild":2499,"ĠLivonijas":2500,"Äģzes":2501,"ĠkultÅ«ras":2502,"Ġnebija":2503,"ĠdalÄ«bnieki":2504,"tiem":2505,"Äģni":2506,"ĠbaznÄ«cas":2507,"ĠaktÄ«v":2508,"Ġiem":2509,"otÄģju":2510,"Sp":2511,"ceÄ¼":2512,"drÄ«z":2513,"oka":2514,"ĠmÄģkslas":2515,"inÄģta":2516,"Äĵns":2517,"ips":2518,"ĠstÄģ":2519,"Ġiedal":2520,"ifik":2521,"ĠSÄģk":2522,"Ġsin":2523,"balv":2524,"Ġkontrol":2525,"ada":2526,"BA":2527,"ĠbaznÄ«ca":2528,"andes":2529,"ĠSen":2530,"Ġ1920":2531,"emon":2532,"Ġarhit":2533,"ĠpÄģrs":2534,"ĠievÄĵr":2535,"ads":2536,"ĠIl":2537,"ĠmÄģjasl":2538,"ĠBiogrÄģfija":2539,"oreiz":2540,"ÄģnÄģ":2541,"eÄ£":2542,"Äĵjums":2543,"Ġobj":2544,"ĠmuiÅ¾as":2545,"Ġapgabals":2546,"di":2547,"Ġprot":2548,"obl":2549,"ĠuzvarÄĵja":2550,"ĠpriekÅ¡s":2551,"ĠsievieÅ¡u":2552,"isks":2553,"Ġ33":2554,"ĠPirmÄģ":2555,"Ġiev":2556,"ĠTomÄĵr":2557,"Ġ1980":2558,"Ġizveidoja":2559,"ĠpieÅ¡Ä·ir":2560,"Ġsamaz":2561,");":2562,"Ġsuga":2563,"ĠÄ£e":2564,"Åł":2565,"tek":2566,"gi":2567,"Ġsudraba":2568,"akts":2569,"ĠviÅĨam":2570,"ĠizvÄĵl":2571,"ji":2572,"eat":2573,"ĠsavÄģ":2574,"ĠSaeimas":2575,"Gr":2576,"Ġtitu":2577,"ĠKaral":2578,"Ġiest":2579,"Ġman":2580,"ĠÄįempionÄģta":2581,"ĠieguvÄĵji":2582,"ĪĴ":2583,"ĠKrist":2584,"ĠpieÅĨem":2585,"In":2586,"Ġbronz":2587,"auta":2588,"Ġnovads":2589,"Ġdir":2590,"ĠÅ¡Ä«s":2591,"Ġ1993":2592,"oms":2593,"Ä«kl":2594,"ĠsistÄĵmas":2595,"augu":2596,"abei":2597,"ĠUkr":2598,"ĠgandrÄ«z":2599,"emÄģt":2600,"Äģlo":2601,"ĠKaln":2602,"Äįa":2603,"SA":2604,"avu":2605,"ĠNov":2606,"vaigÅ¾":2607,"Äįi":2608,"ĠPaÅ¡":2609,"tiÅĨ":2610,"ĠdzÄ«vo":2611,"ektu":2612,"\"'''":2613,"Ġgadiem":2614,"ete":2615,"vÄĵrt":2616,"ihs":2617,"Äĵna":2618,"Ä«gais":2619,"inieki":2620,"ĠZemes":2621,"Ġdzej":2622,"maÅĨu":2623,"ĠiepriekÅ¡":2624,"inu":2625,"ĠangÄ¼u":2626,"Ġkaralis":2627,"ĠpakÄģp":2628,"ĠjÅ«lijs":2629,"ÄģtÄģ":2630,"ĠbruÅĨ":2631,"arta":2632,"ĠkÄ¼Å«st":2633,"Ġspr":2634,"Äģku":2635,"ÑģÑĤ":2636,"Ġ90":2637,"Ġnop":2638,"Ð°Ð½":2639,"ĠielÄģ":2640,"ĠrezultÄģtÄģ":2641,"ÅĨaz":2642,"oss":2643,"Ġstacijas":2644,"Ġ1995":2645,"Ġnotik":2646,"Ã¤":2647,"das":2648,"ĠjanvÄģris":2649,"ele":2650,"ĠtemperatÅ«ra":2651,"Ġveida":2652,"ĠKopÄģ":2653,"ĠIm":2654,"ĠdzÄ«ves":2655,"ĠIII":2656,"Ġtagad":2657,"Ġ1988":2658,"Ġmaks":2659,"Ġdinast":2660,"Ġ34":2661,"Ġpartija":2662,"80":2663,"Ġrind":2664,"ĠsociÄģl":2665,"ĠesoÅ¡":2666,"ĠTÄģs":2667,"brÄ«v":2668,"Ġsasnieg":2669,"):":2670,"iro":2671,"Ġbrauc":2672,"ĠtÄģl":2673,"ĠsavukÄģrt":2674,"iskas":2675,"vaigÅ¾ÅĨu":2676,"ĠpriekÅ¡sÄĵd":2677,"ÄĵjumÄģ":2678,"lo":2679,"odu":2680,"ĠKor":2681,"entÄģl":2682,"ĠDzÄ«v":2683,"Ġietekm":2684,"iÄ·is":2685,"aic":2686,"Ġciet":2687,"St":2688,"ogu":2689,"ĠParÄ«z":2690,"ĠvecumÄģ":2691,"2009":2692,"ĠGalven":2693,"ĠMal":2694,"ĠAugst":2695,"abr":2696,"britÄģn":2697,"vil":2698,"Ġsieviet":2699,"ĠIgaunijas":2700,"Ġtautas":2701,"Ġpadomju":2702,"35":2703,"Ġnogal":2704,"ĠÅ¡Ä·ir":2705,"Ġokup":2706,"ĠbeigÄģm":2707,"ht":2708,"09":2709,"bergs":2710,"ĠrÄ«k":2711,"uks":2712,"uÅ¡as":2713,"Ġvasar":2714,"Ġvisas":2715,"Äģdes":2716,"Ġdabas":2717,"omÄģ":2718,"Ġcelt":2719,"Ġietilp":2720,"ĠpusÄĵ":2721,"Ġ::":2722,"Ġgalvaspils":2723,"Äģkajiem":2724,"aku":2725,"Ġtren":2726,"Ġbat":2727,"ĠVieta":2728,"Ġmarts":2729,"ĠRepublikas":2730,"Ã¼":2731,"ĠDaÅ¾":2732,"Å¡as":2733,"oci":2734,"Ġdarba":2735,"ĠMaskavas":2736,"veida":2737,"Äģnija":2738,"Ġaugusts":2739,"ĠlÄ«m":2740,"ro":2741,"Ġviel":2742,"Ġtirg":2743,"ainas":2744,"ibli":2745,"ĠapkÄģrt":2746,"ĠspÄĵc":2747,"ĠMa":2748,"ĠtiesÄ«bas":2749,"06":2750,"Ġabsol":2751,"Å¾as":2752,"inÄģtu":2753,"usa":2754,"Ġteritorijas":2755,"Ġsimbol":2756,"Å«sdien":2757,"Ġ37":2758,"kÄģp":2759,"Ġbronzas":2760,"04":2761,"Ġmaijs":2762,"Äģkas":2763,"Ġfilm":2764,"ala":2765,"ĠKad":2766,"ĠiespÄĵjams":2767,"urv":2768,"ĠuzÅĨem":2769,"55":2770,"Ġfunk":2771,"ĠLielbritÄģn":2772,"pil":2773,"veic":2774,"Äģki":2775,"Ġatp":2776,"ĠJoh":2777,"ĠfranÄįu":2778,"pu":2779,"Äģtos":2780,"ĠAngl":2781,"ific":2782,"tin":2783,"otnÄĵji":2784,"ase":2785,"th":2786,"osl":2787,"ĠpakÄ¼":2788,"aists":2789,"ĠieÅĨÄĵma":2790,"Ġuztur":2791,"Ġezers":2792,"ĠÄĮeh":2793,"Kr":2794,"...":2795,"qu":2796,"37":2797,"Ġfak":2798,"oÅ¡anai":2799,"ĠAlb":2800,"ĠpilsÄĵtu":2801,"ĠLiepÄģjas":2802,"eor":2803,"Ġpied":2804,"ĠSas":2805,"ingr":2806,"mens":2807,"Ġcentra":2808,"Â»":2809,"ĠJap":2810,"isa":2811,"Äĵto":2812,"Ġsasniedza":2813,"emj":2814,"Äĵrija":2815,"Ġsaim":2816,"ĠvirzienÄģ":2817,"ĠVÄĵlÄģk":2818,"Ġprezidents":2819,"Ġ32":2820,"ĠUniversitÄģtes":2821,"03":2822,"Ġproces":2823,"Ġskat":2824,"ĠÄ«paÅ¡i":2825,"ĠcitÄģ":2826,"ĠvidÅ«":2827,"ĠpolitiÄ·is":2828,"inga":2829,"ini":2830,"eÅĨu":2831,"Ä¼us":2832,"ĠMih":2833,"ĠTautas":2834,"Ġbag":2835,"ortu":2836,"ĠOs":2837,"Ġkomanda":2838,"Ð³":2839,"ĠRad":2840,"ĠÅłÄ«":2841,"ĠVol":2842,"ĠÄ«st":2843,"ĠzinÄģtn":2844,"Ġperson":2845,"ĠVlad":2846,"Ġsauk":2847,"Ġcitiem":2848,"Ġaprakst":2849,"Ġpabei":2850,"ise":2851,"Tr":2852,"tra":2853,"Ġvaloda":2854,"Ġatm":2855,"ĠfebruÄģris":2856,"ĠpozÄ«c":2857,"uÅ¡ies":2858,"ojis":2859,"osp":2860,"ĠjÄģ":2861,"ĠVidzemes":2862,"etur":2863,"oblÄĵm":2864,"ĠVÄģr":2865,"riet":2866,"olu":2867,"agn":2868,"Ġoper":2869,"ĠLab":2870,"ĠAd":2871,"pas":2872,"Ġmeist":2873,"ĠStarptaut":2874,"ĠcilvÄĵki":2875,"ty":2876,"Ġligzd":2877,"ienas":2878,"ekÄ¼a":2879,"Ġbalvu":2880,"58":2881,"ĠMan":2882,"ĠkrastÄģ":2883,"ĠjÅ«nijs":2884,"ĠaprÄ«lis":2885,"maz":2886,"ĠÄ·er":2887,"mÄĵr":2888,"ĠRez":2889,"Ġteritoriju":2890,"ĠvarÄĵtu":2891,"orn":2892,"orts":2893,"ĠMe":2894,"ĠKÄģrlis":2895,"ĠFl":2896,"Ġ56":2897,"Ġizte":2898,"ron":2899,"rs":2900,"Ġprec":2901,"Ġ1940":2902,"ÅĨemot":2903,"Ġorb":2904,"Ġ1960":2905,"Ġkonkurs":2906,"ĠAmerikas":2907,"kaln":2908,"Ġtek":2909,"ĠsaÅĨÄĵma":2910,"auca":2911,"ĠVar":2912,"ĠpaÅ¡vald":2913,"Ä«ds":2914,"kriev":2915,"Ġneiz":2916,"andid":2917,"ole":2918,"ĠdevÄģs":2919,"ĠreÅ¾isors":2920,"ĠPadomju":2921,"iÄ£":2922,"viel":2923,"ozof":2924,"36":2925,"Ġatkal":2926,"ĠvadÄ«bÄģ":2927,"Ġmant":2928,"39":2929,"ĠPat":2930,"Ġkuriem":2931,"ĠÂ«":2932,"Äģju":2933,"ĠVair":2934,"Ġien":2935,"ĠOf":2936,"48":2937,"ÄģlajÄģ":2938,"Ġmeln":2939,"vÄģ":2940,"ĠturnÄ«rÄģ":2941,"vaigz":2942,"45":2943,"skaln":2944,"Ġtran":2945,"Ä«du":2946,"ĠtÅ«k":2947,"Äģles":2948,"cÄĵla":2949,"ĠmÄĵneÅ¡":2950,"ĠDÅ¾ons":2951,"02":2952,"ĠproblÄĵm":2953,"ĠDarb":2954,"etes":2955,"alj":2956,"Ġw":2957,"inÄģÅ¡anas":2958,"Ġ1989":2959,"tÄģm":2960,"ĠTÄģp":2961,"ieÅ¡iem":2962,"ĠGl":2963,"Ġ1919":2964,"anta":2965,"Ä«da":2966,"Ġnoz":2967,"Ġvers":2968,"slÄĵg":2969,"Ġdivi":2970,"ĠplÄģn":2971,"eo":2972,"ĠEk":2973,"ĠattÄģl":2974,"Ġdecembris":2975,"ieÄ·u":2976,"otÄģji":2977,"Ch":2978,"Ġ38":2979,"Ġapgabala":2980,"Äģri":2981,"eliÄ£":2982,"ĠHar":2983,"Ġtrad":2984,"ĠÄ·Ä«m":2985,"Ġelem":2986,"ĠÄ£imenÄĵ":2987,"ĠstrÄģdÄģja":2988,"avÄģ":2989,"Ġstart":2990,"iemÄĵram":2991,"ĠatgriezÄģs":2992,"Ġik":2993,"'';":2994,"Ä«jumi":2995,"âĢĻ":2996,"ĠskaitÄģ":2997,"ĠmateriÄģl":2998,"Ġder":2999,"Ġfilma":3000,"ĠbÄ«skap":3001,"ĠStu":3002,"56":3003,"Ã¶":3004,"31":3005,"ords":3006,"ĠmarÅ¡ru":3007,"ĠmÄģjaslapa":3008,"Ġrit":3009,"oÅ¡i":3010,"08":3011,"Ä«nÄģ":3012,"opr":3013,"bild":3014,"les":3015,"inÄģjums":3016,"Ġkin":3017,"Ġac":3018,"Ġnovembris":3019,"ejÄģ":3020,"ids":3021,"starp":3022,"Ġregul":3023,"Ġkluba":3024,"38":3025,"tÄģlu":3026,"Ġuzdev":3027,"ĠVald":3028,"burgas":3029,"ĠKaz":3030,"nieg":3031,"Ġ1944":3032,"Ġizs":3033,"Ġautom":3034,"ĠZviedrijas":3035,"Ġnokr":3036,"Ä«tis":3037,"ĠtÄģpÄĵc":3038,"Ġ1945":3039,"Ġpiekr":3040,"Ġbals":3041,"Ġizrais":3042,"our":3043,"Ġ(\"":3044,"ĠHer":3045,"muiÅ¾":3046,"ants":3047,"ĠSm":3048,"Ġrevol":3049,"ĠMat":3050,"47":3051,"ĠuzbÅ«v":3052,"Ġindiv":3053,"ĠnÄģves":3054,"Ġ1918":3055,"Ġparakst":3056,"abs":3057,"Ġkompon":3058,"ĠÄĴr":3059,"ĠlÄ«gumu":3060,"Ġled":3061,"ĠziÅĨ":3062,"32":3063,"oÅĨi":3064,"atÄģ":3065,"Ä«tÄģjs":3066,"igr":3067,"Ġ1984":3068,"ha":3069,"auz":3070,"ojies":3071,"Ġtos":3072,"Ġkod":3073,"itÄģti":3074,"Ġboj":3075,"Ġtip":3076,"ĠEiropÄģ":3077,"ĠMil":3078,"Ġseptembris":3079,"ĠievÄĵroj":3080,"ĠpirmajÄģ":3081,"Äĵzek":3082,"ĠÅ¡t":3083,"finÄģl":3084,"ĠAustrÄģl":3085,"main":3086,"embra":3087,"hol":3088,"ĠBrÄ«v":3089,"ĠIv":3090,"itÄģtes":3091,"Ġlielu":3092,"Ġ39":3093,"Ä«cijas":3094,"Ġsasniedz":3095,"odes":3096,"Ġzir":3097,"Ð¾ÑĢ":3098,"Ġmetri":3099,"Ġoktobris":3100,"ÄĵjÄģdi":3101,"osauk":3102,"34":3103,"ĠziemeÄ¼u":3104,"Ä«derl":3105,"59":3106,"Ġpadomes":3107,"Ġapk":3108,"Ġapl":3109,"Ġvalstu":3110,"ĠMak":3111,"ĠspÄĵlÄĵja":3112,"Ġnodarb":3113,"Ġkreis":3114,"Ġskolas":3115,"ld":3116,"ekta":3117,"Ã¡":3118,"ĠteÄģtra":3119,"ĠvÄģrdÄģ":3120,"ĠâĪĴ":3121,"ĠLatvieÅ¡u":3122,"ĠNikol":3123,"Ġkurs":3124,"olej":3125,"Ä«jusi":3126,"Ġtirdz":3127,"ve":3128,"Ð·":3129,"Ġfilozof":3130,"ĠpiedalÄ«jies":3131,"57":3132,"ĠBer":3133,"Ġdziesmas":3134,"ĠuzsÄģka":3135,"Ġska":3136,"Ġaudz":3137,"aiÅĨas":3138,"Äĵli":3139,"ĠdzÄ«voja":3140,"ĠapzÄ«m":3141,"ĠMÅ«sdien":3142,"ulis":3143,"uÅ¡Äģs":3144,"Ġjaunu":3145,"enas":3146,"ba":3147,"andÅ¾":3148,"Ġizcels":3149,"Ġsadarb":3150,"Ġrun":3151,"60":3152,"ÄĵjoÅ¡":3153,"ators":3154,"Ġatst":3155,"Ġtic":3156,"ĠdaÄ¼as":3157,"Ġatkar":3158,"ĠvaldÄ«ba":3159,"its":3160,"ojoties":3161,"Äĵma":3162,"ĠvadÄ«tÄģjs":3163,"fÄĵr":3164,"Ġet":3165,"ĠgrupÄģ":3166,"oloÄ£ija":3167,"ĠFilmas":3168,"ÄĵtÄģju":3169,"ĠuzstÄģd":3170,"ajadz":3171,"ĠBerl":3172,"ĠTajÄģ":3173,"Ġimperat":3174,"esta":3175,"ĠJÄĵk":3176,"Äĵnas":3177,"ĠTa":3178,"ald":3179,"ĠApvien":3180,"Ġ''''":3181,"ĠÅ¡Äģd":3182,"Latvijas":3183,"ĠnovadÄģ":3184,"ikl":3185,"Ġprovinc":3186,"ĠvÄĵst":3187,"emokr":3188,"ĠvisÄģ":3189,"ieÄ·":3190,"Ġizviet":3191,"ÄĵtÄģja":3192,"Ð¸Ñĩ":3193,"ÅĨus":3194,"ice":3195,"ĠDaudz":3196,".''":3197,"ĠBul":3198,"Ä«Å¡ana":3199,"Ġpagastu":3200,"land":3201,"arÄģ":3202,"ĠDzimis":3203,"ĠpiedÄģv":3204,"ĠMeÅ¾":3205,"Ġliterat":3206,"otÄģja":3207,"oÅ¡anÄģ":3208,"ĠspeciÄģl":3209,"Ġizg":3210,"Ġstad":3211,"Å¾en":3212,"oÅĨa":3213,"ĠaugÅ¡":3214,"ince":3215,"ock":3216,"Ġkons":3217,"esel":3218,"Ġstacija":3219,"ĠpaÅ¡Äģ":3220,"Ġapstipr":3221,"Ġteor":3222,"ĠkÄģrtas":3223,"Ġebr":3224,"Ġpaliel":3225,"lavs":3226,"Ġpiel":3227,"ĠziemeÄ¼os":3228,"ovskis":3229,"ĠÄ£ener":3230,"err":3231,"ĠdziedÄģtÄģj":3232,"ĠVien":3233,"Ġatbalst":3234,"Ġliela":3235,"ektÄ«v":3236,"Ġdienvidos":3237,"orf":3238,"Ġ45":3239,"Ġ1976":3240,"ĠUp":3241,"ĠÄįempionÄģtos":3242,"ĠRom":3243,"eÅ¡u":3244,"ajs":3245,"tÄģs":3246,"vairÄģk":3247,"uni":3248,"ĠapstÄģk":3249,"Ġ48":3250,"ÄģrÄģ":3251,"ĠpÄģrtr":3252,"ĠSarkan":3253,"Ġglezn":3254,"lietu":3255,"ĠpirmÄģs":3256,"Ġ1970":3257,"ĠAugu":3258,"Ð±":3259,"hel":3260,"ĠdÄĵls":3261,"ĠEir":3262,"oÄ£":3263,"ĠBur":3264,"33":3265,"ĠspÄĵku":3266,"ĠtÄģm":3267,"Ġadministr":3268,"Ġstipr":3269,"cen":3270,"Äģcu":3271,"Ġkarav":3272,"76":3273,"Ġapbalv":3274,"ĠPa":3275,"Ġfl":3276,"niece":3277,"90":3278,"ĠvairÄģki":3279,"iep":3280,"erd":3281,"raÄ·":3282,"Ġguber":3283,"ĠÄĢz":3284,"Ġcitas":3285,"Ġtil":3286,"ĠPal":3287,"ĠviÅĨi":3288,"ĠRÄĵzek":3289,"ĠmazÄģk":3290,"Ġbur":3291,"ĠIzst":3292,"ace":3293,"46":3294,"ĠreÄ£istr":3295,"ĠEm":3296,"ĠstÄģvok":3297,"Ġ'''\"":3298,"Ġlikvid":3299,"Dz":3300,"ĠatbrÄ«v":3301,"ĠKÄģ":3302,"Ġapar":3303,"ĠPiezÄ«mes":3304,"ĠvÄĵlÄĵÅ¡anÄģs":3305,"Ġlietu":3306,"aidr":3307,"Ġfeder":3308,"Ġpapild":3309,"Ġkompl":3310,"ĠAtl":3311,"ĠpÄģrcÄĵl":3312,"Ġveica":3313,"Ġkomis":3314,"99":3315,"ĠiegÅ«st":3316,"oniem":3317,"ienes":3318,"ĠnoslÄĵg":3319,"mier":3320,"ĠsÄģkas":3321,"Ġkomit":3322,"ĠprofesionÄģl":3323,"ĠÄĵr":3324,"ĠÄĢfr":3325,"Ġaktieris":3326,"ĠArÄ«":3327,"ĠseÅ¡":3328,"ĠdarbÄ«bas":3329,"ĠmÅ«sdienÄģs":3330,"ibliot":3331,"odz":3332,"enk":3333,"Ġziv":3334,"ĠnesÄĵj":3335,"'''.":3336,"ĠsalÄ«dz":3337,"âĢĿ.":3338,"jas":3339,"tion":3340,"Ġsmag":3341,"Ġciti":3342,"ĠvienÄģ":3343,"ÐµÐ½":3344,"Ġprinc":3345,"Ġnon":3346,"Äģjis":3347,"Ġterm":3348,"ieni":3349,"Ġbatalj":3350,"Ġpac":3351,"ĠfakultÄģ":3352,"Ġseg":3353,"Ġcil":3354,")''":3355,"uras":3356,"ĠspÄĵj":3357,"ĠtÄ«kl":3358,"ĠmÅ«sdienu":3359,"Ġmekl":3360,"ĠlÄĵm":3361,"Ġuzbr":3362,"Äĵjie":3363,"ĠViÄ¼":3364,"ĠNosauk":3365,"ims":3366,"Ġcer":3367,"TC":3368,"ĠpÄģrviet":3369,"Ġizlase":3370,"niem":3371,"ign":3372,"inÄģti":3373,"ĠÅło":3374,"uri":3375,"Ġ1972":3376,"ÐµÑĢ":3377,"Äģlais":3378,"54":3379,"upas":3380,"ĠDzies":3381,"ĠdarbojÄģs":3382,"gÄģrijas":3383,"ĠSan":3384,"96":3385,"mat":3386,"ĠMeln":3387,"enerÄ£":3388,"Ġaustrumu":3389,"Ġkino":3390,"Ġspie":3391,"niedz":3392,"ird":3393,"arh":3394,"Ġgalvenais":3395,"itÄģl":3396,"ĠpÄģrvald":3397,"Ġnomin":3398,"Ġjaunie":3399,"ix":3400,"ĠlÄ«meÅĨa":3401,"Äģma":3402,"inis":3403,"ĠJÅ«r":3404,"ĠnesÄĵjraÄ·":3405,"Ġpasl":3406,"Ġ1968":3407,"Ġkrit":3408,"Ġdokum":3409,"Ġvajadz":3410,"Ġbalvas":3411,"aik":3412,"ĠsistÄĵma":3413,"Ġrepubl":3414,"ovÄģk":3415,"âĢĿ,":3416,"age":3417,"ĠslÄĵp":3418,"Ġizveidota":3419,"Ġkab":3420,"ĠtÅ«kstoÅ¡":3421,"ĠLatvija":3422,"ekÄ¼i":3423,"ĠNHL":3424,"Ġdek":3425,"Äģle":3426,"Ġkandid":3427,"ĠievÄĵlÄĵts":3428,"ĠTor":3429,"Ä«juma":3430,"ĠuzÅĨÄĵmums":3431,"75":3432,"Ġkrist":3433,"Ġputni":3434,"ibinÄģja":3435,"Ġautors":3436,"98":3437,"Ġlau":3438,"ity":3439,"sti":3440,"70":3441,"Ġnem":3442,"95":3443,"use":3444,"ĠVents":3445,"ĠVÄģcijÄģ":3446,"ĠkÄģp":3447,"Ġbir":3448,"ĠSport":3449,"ĠkÄģrta":3450,"Ä«tÄģju":3451,"ĠposmÄģ":3452,"ĠÄ·ermeÅĨa":3453,"ĠÄĵka":3454,"Ġrietumu":3455,"ure":3456,"ĠJau":3457,"aha":3458,"ES":3459,"Ð¸Ð¹":3460,"ĠturnÄ«ros":3461,"Ä«Å¡anu":3462,"Ġtelev":3463,"ĠDiv":3464,"spÄĵl":3465,"eld":3466,"ĠkarÅ¡":3467,"41":3468,"ink":3469,"Å¾i":3470,"enz":3471,"Ġpriv":3472,"ĠmÄĵÄ£":3473,"Ġ1964":3474,"ĠbÅ«tu":3475,"iÅĨiem":3476,"ĠÅ¡aur":3477,"ĠJelgavas":3478,"Ġsaus":3479,"42":3480,"ÄĢ":3481,"Ġsava":3482,"Ġ1939":3483,"ĠdarbÄ«bu":3484,"gres":3485,"ĠplaÅ¡":3486,"laÅ¡":3487,"asta":3488,"ĠiestÄģd":3489,"ĠizcÄ«nÄ«jis":3490,"jp":3491,"Ġ1956":3492,"estr":3493,"2010":3494,"ĠTÄģpat":3495,"ÄĮ":3496,"are":3497,"Ä«ni":3498,"ĠvienkÄģr":3499,"Ġnoris":3500,"ĠtÄĵl":3501,"oles":3502,"mark":3503,"ĠpieÅ¡Ä·":3504,"Ġ1941":3505,"ĠizglÄ«tÄ«bas":3506,"ump":3507,"ĠInter":3508,"Ġstun":3509,"\")":3510,"Ġdienvidu":3511,"ÄģÅĨa":3512,"ĠspÄģr":3513,"ĠnÄģkam":3514,"ĠvaldÄ«bas":3515,"ĠSar":3516,"Ġtum":3517,"Ġatbil":3518,"brÄ«d":3519,"Ġ46":3520,"ĠÄ¶Ä«nas":3521,"Ġlat":3522,"ĠDzÄ«ves":3523,"Â°":3524,"ojusies":3525,"ĠZinÄģt":3526,"ĠKult":3527,"ĠÅ¡ahisti":3528,"ĠSieviete":3529,"Ġpalaists":3530,"Ġlabi":3531,"ĠReÅ¾":3532,"augst":3533,"Ġfilmu":3534,"'s":3535,"Ä«to":3536,"Ġparlam":3537,"ĠkÅĨaz":3538,"ĠteÄģtrÄ«":3539,"ojev":3540,"egor":3541,"Ġbalst":3542,"nÄ«ca":3543,"ĠkatoÄ¼u":3544,"Ġvalodu":3545,"meist":3546,"ĠnÄģv":3547,"Äĵjos":3548,"ekti":3549,"autu":3550,"Äĵrb":3551,"Ġdirekt":3552,"ĠBel":3553,"ane":3554,"Äģcis":3555,"ujor":3556,"Äĵdza":3557,"Ġ41":3558,"ĠotrÄģ":3559,"olejb":3560,"Ġvon":3561,"Ġveids":3562,"arl":3563,"ĠpaziÅĨoja":3564,"Ġvismaz":3565,"Ġsatiks":3566,"ĠzinÄģms":3567,"jpg":3568,"Ġred":3569,"ĠÅłveic":3570,"ĠAut":3571,"Ġtop":3572,"Ä«jusies":3573,"97":3574,"ism":3575,"Ġsarkan":3576,"Ġrakstnieks":3577,"Ġps":3578,"Ġ1987":3579,"ence":3580,"ĠDom":3581,"iscipl":3582,"Ġuzskata":3583,"Ġzil":3584,"ĠpÄģves":3585,"Ġizmantot":3586,"vÄĵrs":3587,"ĠItÄģlijas":3588,"elts":3589,"Ġ1986":3590,"ĠIe":3591,"Ġgs":3592,"Ġra":3593,"2008":3594,"Ġkoka":3595,"ibliotÄĵk":3596,"Ġpad":3597,"Ġaktr":3598,"ĠsaglabÄģj":3599,"ÄģÄ¼u":3600,"ikai":3601,"ĠUkrainas":3602,"kaÅĨÄģ":3603,"ces":3604,"ĠpalÄ«dzÄ«bu":3605,"ĠolimpiskÄģs":3606,"Ġtor":3607,"orvÄĵÄ£":3608,"44":3609,"ulas":3610,"kalp":3611,"niecÄ«bu":3612,"Ġmal":3613,"Ġizgatav":3614,"nÄģz":3615,"Ġprovince":3616,"ojumus":3617,"Ġ1924":3618,"aiÅĨu":3619,"ĠdivÄ«z":3620,"Ġnum":3621,"alp":3622,"Ġtransp":3623,"ĠNÄ«derl":3624,"ight":3625,"Ġdiena":3626,"Äĵjumu":3627,"ĠsacensÄ«bÄģs":3628,"Ġost":3629,"oll":3630,"Ġbritu":3631,"eres":3632,"entiem":3633,"ĠbÄģz":3634,"Ġizmantojot":3635,"ĠÄĵkas":3636,"ĠcÄĵl":3637,"ĠdÄģrz":3638,"Äģg":3639,"ĠnokriÅ¡":3640,"ĠMor":3641,"ĠGrieÄ·":3642,"ĠVÄ«rieÅ¡i":3643,"Ġdzimusi":3644,"ĠseriÄģl":3645,"82":3646,"Ġteritorija":3647,"Ġezera":3648,"Ġzv":3649,"ĠiedzÄ«votÄģji":3650,"ĠdaÅ¾Äģdu":3651,"Ġ''(":3652,"uter":3653,"ĠpÄģrval":3654,"ĠTh":3655,"Ġdiev":3656,"ĠIV":3657,"Ġnetika":3658,"ĠbrÅ«n":3659,"Ġsingl":3660,"enko":3661,"ĠÅ¡Å«n":3662,"Ġkrast":3663,"ĠVladim":3664,"ions":3665,"pp":3666,"stipr":3667,"ĠRezultÄģ":3668,"ĠloÅ¾":3669,"ĠreliÄ£":3670,"ĠpÄģrr":3671,"ÄĵÅ¡anai":3672,"ĠenerÄ£":3673,"Ġcetur":3674,"Ġfron":3675,"ĠÅħujor":3676,"arts":3677,"ĠsÄĵr":3678,"ĠCÄĵs":3679,"anas":3680,"Ġvairs":3681,"Ġkarjeru":3682,"irg":3683,"vi":3684,"inÄģjumu":3685,"ĠcitÄģm":3686,"ĠZiemas":3687,"Ġvaras":3688,"ĠjautÄģj":3689,"ĠDaugavpils":3690,"Ġpras":3691,"Ġvalstis":3692,"oÅĨ":3693,"Ġpien":3694,"Ġautob":3695,"49":3696,"Ġtulk":3697,"Ġjebk":3698,"enh":3699,"obil":3700,"ĠfilmÄģ":3701,"Ġper":3702,"ĠvÄĵsturÄĵ":3703,"ÄĵtÄģji":3704,"oku":3705,"celts":3706,"ann":3707,"Ġdel":3708,"Ġmik":3709,"ĠaizvadÄ«ja":3710,"SK":3711,"Ġdist":3712,"Ġ1979":3713,"Ġapsp":3714,"jÄģm":3715,"ÑĢÐ°":3716,"ii":3717,"Ġkolon":3718,"ĠÅłis":3719,"Ġatbild":3720,"Ġ1985":3721,"86":3722,"ĠpiemÄĵr":3723,"oÅ¡u":3724,"Ð¾Ð»":3725,"Ġiesaist":3726,"Ġem":3727,"esk":3728,"ijam":3729,"Å¾s":3730,"ĠrindÄģs":3731,"Ġatdal":3732,"IA":3733,"erija":3734,"Ġ1936":3735,"Ġkil":3736,"ĠaizsardzÄ«bas":3737,"arm":3738,"Ġvisi":3739,"Ġ1930":3740,"ĠapriÅĨÄ·a":3741,"85":3742,"ates":3743,"estiv":3744,"skÄģb":3745,"ĠBaltkriev":3746,"uh":3747,"Ġklubu":3748,"ĠSpÄģnijas":3749,"ĠlÄ«nijas":3750,"ĠPav":3751,"Ġ2020":3752,"ĠNot":3753,"77":3754,"ĠveidÄģ":3755,"oli":3756,"ĠvadÄ«ja":3757,"ĠkurÄģm":3758,"ics":3759,"Ġbijusi":3760,"Å«g":3761,"ortÄģ":3762,"ĠUl":3763,"ĠKarj":3764,"ĠLos":3765,"Ap":3766,"ĠBor":3767,"Ġpietur":3768,"ĠprÄĵm":3769,"brauk":3770,"Ġapmet":3771,"Ġproduk":3772,"ĠÅ¡eit":3773,"43":3774,"ira":3775,"Ġdraudzes":3776,"Ġlaiks":3777,"ĠtÄģdÄĵÄ¼":3778,"ĠPil":3779,"Ġguva":3780,"Ġlomu":3781,"ĠBau":3782,"ĠGun":3783,"ĠinÅ¾en":3784,"53":3785,"itÄģte":3786,"ĠFIFA":3787,"Ġautoc":3788,"ÄģdÄĵ":3789,"ton":3790,"Ġklubs":3791,"Ġeksped":3792,"ĠOz":3793,"ĠiegÅ«t":3794,"ys":3795,"ĠkarÄģ":3796,"ĠtÅ«r":3797,"Äĵties":3798,"Ġdienu":3799,"Ġdeg":3800,"ĠBo":3801,"ieÅ¾u":3802,"ĠotrajÄģ":3803,"ĠpievienojÄģs":3804,"ĠkrÄģj":3805,"ĠHol":3806,"ĠuniversitÄģtes":3807,"Ð¸Ð½":3808,"Ġ1950":3809,"Ġ42":3810,"Ġdatu":3811,"ĠrevolÅ«":3812,"ĠtieÅ¡i":3813,"ĠvalstÄ«":3814,"Ġpieej":3815,"ĠOk":3816,"ĠZiemeÄ¼u":3817,"ĠNorvÄĵÄ£":3818,"nÄ«cas":3819,"ĠVilj":3820,"ĠRoberts":3821,"Ġrep":3822,"Ġ1982":3823,"Ġpats":3824,"ĠÄ£imnÄģz":3825,"Ġdesmit":3826,"paÅ¡":3827,"Ġizn":3828,"ani":3829,"ĠMai":3830,"oÅ¡o":3831,"type":3832,"Ð¿":3833,"ĠNBA":3834,"nÄģb":3835,"ĠdziÄ¼":3836,"Ġpilskaln":3837,"ĠBerlÄ«n":3838,"ĠOp":3839,"ences":3840,"ĠierobeÅ¾":3841,"Ġliec":3842,"ept":3843,"ĠtÄģpat":3844,"ĠSomijas":3845,"Ġdarbojas":3846,"Ġvieglatl":3847,"Ġindividu":3848,"Ġnedaudz":3849,"ÄģkajÄģm":3850,"ĠBÄĵrz":3851,"ĠRakst":3852,"auti":3853,"brauc":3854,"omp":3855,"Ġ1938":3856,"78":3857,"Ġsugu":3858,"eneris":3859,"Ġvojev":3860,"lÄ«dz":3861,"enr":3862,"Äĵni":3863,"akas":3864,"erk":3865,"istiem":3866,"ach":3867,"omb":3868,"ĠatkÄģrt":3869,"Ä«dr":3870,"ĠbibliotÄĵk":3871,"Ġ44":3872,"ĠieÅĨem":3873,"gar":3874,"Ä«gie":3875,"Ġizcelsmes":3876,"otos":3877,"olfs":3878,"ĠpilnÄ«bÄģ":3879,"Mar":3880,"Ġeks":3881,"2006":3882,"ima":3883,"ĠArm":3884,"ĠÅª":3885,"ĠMel":3886,"ĠGar":3887,"ĠBen":3888,"Å«ta":3889,"ĠVikt":3890,"Ġbiez":3891,"kst":3892,"Ä«ru":3893,"ĠatvÄĵr":3894,"Ġrajons":3895,"ĠdroÅ¡":3896,"Ġpavadonis":3897,"Ġdzin":3898,"Ġres":3899,"co":3900,"Ġ'":3901,"Ġvisiem":3902,"Ġfutbolisti":3903,"Ġrietumos":3904,"Ġef":3905,"51":3906,"ĠNosaukums":3907,"Ġkalp":3908,"tam":3909,"ojÄģm":3910,"Ġmedic":3911,"92":3912,"mant":3913,"istÄģ":3914,"ĠvÄģrdu":3915,"Ġlieto":3916,"66":3917,"Ġpeld":3918,"Ġmus":3919,"Ġgrupu":3920,"isl":3921,"uÅĨu":3922,"Ä¼uva":3923,"ĠkurÄģs":3924,"Ġkomun":3925,"ĠdeputÄģti":3926,"ĠpÄģrcÄĵlÄģs":3927,"marker":3928,"Ġ1977":3929,"edr":3930,"2015":3931,"ĠArt":3932,"Ġinstr":3933,"Ġrud":3934,"antu":3935,"ĠLiterat":3936,"ĠgÄģj":3937,"ĠvasarÄģ":3938,"aujas":3939,"Ġstrukt":3940,"cenÄģr":3941,"ĠSavukÄģrt":3942,"ciet":3943,"ĠgadÄ«jumÄģ":3944,"Ä¼os":3945,"Ġmot":3946,"ands":3947,"elu":3948,"ĠZvaigÅ¾ÅĨu":3949,"ĠEz":3950,"ĠnozÄ«mÄĵ":3951,"Ġvojevod":3952,"Ġveiksm":3953,"ĠSil":3954,"Ġ43":3955,"Ġ51":3956,"Ġalbums":3957,"oprojÄģm":3958,"Ġvesel":3959,"Ġatveid":3960,"ĠnesÄĵjraÄ·eti":3961,"ĠdÄĵv":3962,"Ġrezerv":3963,"Ġnevar":3964,"Ġ1974":3965,"ĠkÄģj":3966,"ĠviÅĨas":3967,"Ġ1949":3968,"Ġministrs":3969,"ĠiznÄ«c":3970,"Ġaustrumos":3971,"rad":3972,"ĠSh":3973,"ÄĵÄ·":3974,"ĠatklÄģja":3975,"ĠapriÅĨÄ·is":3976,"Ġ47":3977,"ĠÐ¡":3978,"ĠtÄģdÄĵjÄģdi":3979,"ĠVidus":3980,"astr":3981,"Ġparks":3982,"ĠriteÅĨ":3983,"Ġdzelt":3984,"88":3985,"ĠvispÄģr":3986,"Ġ1928":3987,"iÄįa":3988,"ĠkompozÄ«c":3989,"Äĵra":3990,"Ġcent":3991,"sal":3992,"Ġuzskait":3993,"Ġapmekl":3994,"Par":3995,"ĠÅ¡Ä·Äĵrs":3996,"Ġdarbi":3997,"ĠPaul":3998,"ĠMÅ«sdienÄģs":3999,"andÅ¾el":4000,"iskos":4001,"Ġ55":4002,"Bal":4003,"ode":4004,"ĠrobeÅ¾as":4005,"azÄ«l":4006,"ĠskolÄģ":4007,"Ġha":4008,"At":4009,"Ġgadi":4010,"Ġanal":4011,"ĠKrievijÄģ":4012,"Ġfutbolists":4013,"Ġ1983":4014,"ĠvalstÄ«s":4015,"93":4016,"Ġzviedr":4017,"ieva":4018,"ĠbojÄģ":4019,"Ġris":4020,"Ġ1978":4021,"Ġkrustojums":4022,"ĠkaraspÄĵks":4023,"ĠvarÄĵja":4024,"ĠOficiÄģl":4025,"ĠkÄģdu":4026,"Am":4027,"lv":4028,"skr":4029,"ĠdienÄģ":4030,"pÄĵj":4031,"Ġ57":4032,"oÅ¡anos":4033,"ĠÅ¾urnÄģl":4034,"Ġarhitekt":4035,"oriem":4036,"osfÄĵr":4037,"Ġlaikrakst":4038,"Ġtitulu":4039,"enÄģ":4040,"Ġkalnu":4041,"ĠMÄĵn":4042,"Ġolimpi":4043,"ĠkÄģrtÄģ":4044,"Ġnomet":4045,"ĠKomanda":4046,"sv":4047,"Ġban":4048,"ĠbijuÅ¡ais":4049,"ĠuzskatÄ«ts":4050,"Ġfakt":4051,"ĠIndijas":4052,"maÅ¡":4053,"Ġhokejists":4054,"maÅĨa":4055,"2011":4056,"ĠMinistr":4057,"Ġtrim":4058,"Ġ1935":4059,"ÐµÐ²":4060,"Ġzvaigz":4061,"ÄģÅ¡anas":4062,"Ġmiera":4063,"Ġ1917":4064,"tec":4065,"Ġjur":4066,"ĠaizstÄģv":4067,"ulb":4068,"ĠuzvarÄĵjis":4069,"ella":4070,"ĠgalvenÄģ":4071,"ĠturpinÄģja":4072,"por":4073,"anis":4074,"ĠTer":4075,"Ġtrolejb":4076,"ĠPaÅ¡laik":4077,"Ġtab":4078,"eda":4079,"ĠvÄĵstures":4080,"ĠdaÄ¼Äĵji":4081,"Ġmel":4082,"Ġ1962":4083,"52":4084,"Ġ1948":4085,"ĠdiÅ¾":4086,"Ä«jumos":4087,"Ġprezidenta":4088,"ĠbrÄ«d":4089,"ĠvietnÄĵ":4090,"ĠpÄģrdÄĵv":4091,"ĠTar":4092,"oloÄ£iju":4093,"Äĵtais":4094,"2007":4095,"ong":4096,"91":4097,"Ġsezona":4098,"Ġ1981":4099,"ĠsistÄĵmu":4100,"Ġrajona":4101,"ĠjoprojÄģm":4102,"Ġsatur":4103,"Ġvecuma":4104,"83":4105,"Ġizv":4106,"ĠFrÄ«dr":4107,"Ġ1932":4108,"Ġ''''''":4109,"ung":4110,"bl":4111,"ey":4112,"istÄĵ":4113,"ĠlielÄģko":4114,"Ġpor":4115,"Ġciema":4116,"Ġint":4117,"inamo":4118,"Ġdar":4119,"ods":4120,"ĠÄĢd":4121,"Ð¡":4122,"amÄģs":4123,"Ġ1973":4124,"Ġmazu":4125,"ero":4126,"ĠgaiÅ¡":4127,"Ġ1975":4128,"iedz":4129,"Ġ::*":4130,"oviÄįs":4131,"auna":4132,"austr":4133,"ĠdarbÄ«ba":4134,"Ġ1967":4135,"Ġkosmosa":4136,"ĠdzÄ«vi":4137,"ĠlabÄģko":4138,"ĠpaÅ¡a":4139,"ails":4140,"Å«m":4141,"eds":4142,"ĠpÄģrt":4143,"PSR":4144,"Ġluter":4145,"ovu":4146,"Ġ500":4147,"ĠbrÄģlis":4148,"ÄģdÄģ":4149,"berga":4150,"81":4151,"ick":4152,"Ġapt":4153,"Ġgalveno":4154,"eÄ¼Ä£":4155,"isms":4156,"Ġastr":4157,"Ġkuk":4158,"irn":4159,"87":4160,"asa":4161,"Ġtram":4162,"idae":4163,"ĠVir":4164,"ĠStud":4165,"ĠTim":4166,"Äģtas":4167,"Ġizmantoja":4168,"Ġmaksim":4169,"ĠÅ¡is":4170,"Ġner":4171,"ĠKlub":4172,"ĠsarakstÄģ":4173,"Ġkonfer":4174,"Ġpaslud":4175,"Ġsezonu":4176,"ĠLatgales":4177,"Ä«vu":4178,"ĠakadÄĵmijas":4179,"Ġlomas":4180,"bieÅ¾":4181,"Ġvies":4182,"ĠMaks":4183,"ĠsaÅĨem":4184,"ĠAndrejs":4185,"iÄ·":4186,"alk":4187,"ĠPetr":4188,"Ġaps":4189,"ate":4190,"Ġgatav":4191,"Ġ75":4192,"ĠnokriÅ¡ÅĨu":4193,"ĠbiedrÄ«bas":4194,"Ġug":4195,"lac":4196,"ĠValmier":4197,"ĠAnglijas":4198,"Ġapkop":4199,"ĠstarptautiskÄģ":4200,"Ä«Å¡u":4201,"erÄģ":4202,"azÄ«st":4203,"ters":4204,"ĠgrieÄ·u":4205,"Ġhercog":4206,"Ġuzbruc":4207,"nÄĵm":4208,"Ġatte":4209,"oÅ¡Äģ":4210,"otie":4211,"Ġasto":4212,"Ġdebit":4213,"Ġdiviem":4214,"ĠdibinÄģta":4215,"67":4216,"ĠUr":4217,"ĠvairÄģkus":4218,"Ġdinastija":4219,"gada":4220,"icionÄģl":4221,"Ġmeh":4222,"tiÅĨÅ¡":4223,"sa":4224,"ĠLosandÅ¾el":4225,"uÄ¼":4226,"Ġkilometr":4227,"Ġtreneris":4228,"Ġ1952":4229,"ĠdaÅ¾Äģdas":4230,"ĠKino":4231,"ĠatÄ¼":4232,"Ġ1937":4233,"Ġnen":4234,"ĠSavienÄ«bas":4235,"oras":4236,"upes":4237,"Ġstudijas":4238,"Ġkategor":4239,"iter":4240,"Ä«zes":4241,"ĠsaÅĨÄĵm":4242,"Äĵlu":4243,"Ġiec":4244,"ĠvietÄģs":4245,"2013":4246,"ĠAnd":4247,"ĠpÄģrl":4248,"ĠsacensÄ«bas":4249,"Ġkatr":4250,"par":4251,"Ġ52":4252,"89":4253,"antijas":4254,"cr":4255,"Ġierad":4256,"ĠDal":4257,"Ġotro":4258,"Ġsala":4259,"ĠvalstÄ«m":4260,"ĠokeÄģna":4261,"Ġrel":4262,"ĠTika":4263,"ĠDeiv":4264,"ÄģnijÄģ":4265,"Ġ120":4266,"ea":4267,"ĠOsmaÅĨu":4268,"ĠtirdzniecÄ«bas":4269,"erim":4270,"ĠÄģrpus":4271,"udr":4272,"ĠpieÅ¡Ä·Ä«ra":4273,"Ġaizl":4274,"ĠvietÄģm":4275,"ĠzaudÄĵja":4276,"ĠTre":4277,"ĠPirmais":4278,"Ġaktrise":4279,"tle":4280,"Ð°ÑĢ":4281,"ĠpelÄĵk":4282,"Ġstil":4283,"72":4284,"alv":4285,"Ġdziesma":4286,"agu":4287,"Ġciems":4288,"Fr":4289,"Äģjot":4290,"ĠattÄ«stÄ«bas":4291,"Ġ=":4292,"fic":4293,"ĠAv":4294,"ĠÄ«sten":4295,"Ġarmija":4296,"ulu":4297,"Ġ---":4298,"ĠGads":4299,"Ġizveidots":4300,"ĠSab":4301,"Äģde":4302,"Ġuzvaru":4303,"Ġformas":4304,"ĠGeor":4305,"Ġnok":4306,"Äģmas":4307,"Å«dz":4308,"Ä«vas":4309,"ones":4310,"Ġuzlab":4311,"ĠJÅ«l":4312,"Ġstand":4313,"ĠAs":4314,"Ġpakalp":4315,"Ġizskat":4316,"Ġpirmoreiz":4317,"Ġiekar":4318,"cis":4319,"Ä¼as":4320,"ĠcilvÄĵka":4321,"ĠokupÄģcijas":4322,"Iz":4323,"65":4324,"ĠpÄģri":4325,"vain":4326,"ĠAlber":4327,"emokrÄģt":4328,"gaidu":4329,"avs":4330,"ĠÄ£erb":4331,"Ġ1925":4332,"84":4333,"ĠTall":4334,"ĠBez":4335,"redz":4336,"ÄĵrÄģ":4337,"evas":4338,"Ġatrod":4339,"Ñħ":4340,"ĠkÄ¼uvis":4341,"ĠÄ«paÅ¡Ä«bas":4342,"pilÄ«":4343,"arkt":4344,"Ġam":4345,"enÅ¡":4346,"ĠkaraÄ¼a":4347,"ĠgaitÄģ":4348,"ĠÄįempionu":4349,"ĠVilhel":4350,"94":4351,"Ġ1965":4352,"ĠnedÄĵÄ¼":4353,"ĠkrustojumÄģ":4354,"uli":4355,"Ñĩ":4356,"Ġdef":4357,"ĠsastÄģ":4358,"ĠpamatÄģ":4359,"TA":4360,"ĠÄ«pat":4361,"Ä«vi":4362,"Ġciemi":4363,"Ġ1900":4364,"ĠDÅ¾eim":4365,"ont":4366,"ĠMinistru":4367,"ares":4368,"ĠnoslÄĵdza":4369,"ĠUTC":4370,"ĠmÄģcÄ«bu":4371,"Ġnaud":4372,"Å«ks":4373,"Ġ1969":4374,"Ä«rijas":4375,"ĠadministratÄ«v":4376,"bieÅ¾Äģk":4377,"ĠSK":4378,"ski":4379,"Ġiemes":4380,"Ġ1966":4381,"Ġnez":4382,"DÅ¾":4383,"ati":4384,"aju":4385,"klÄģt":4386,"Ġbasketbola":4387,"Ġlok":4388,"Ġebreju":4389,"ĠuzvÄģr":4390,"ĠTaÄįu":4391,"Ġ...":4392,"Ġkatru":4393,"Ġloceklis":4394,"Ġmug":4395,"Ġpareiz":4396,"ĠKam":4397,"ĠCilvÄĵk":4398,"ĠPirms":4399,"ĠiekÄģrt":4400,"Ġkompleks":4401,"ĠtelevÄ«zijas":4402,"ĠSch":4403,"augs":4404,"onus":4405,"ĠsievietÄĵm":4406,"olor":4407,"Ġ1959":4408,"Ġsalu":4409,"ĠDaugavas":4410,"ĠorganizÄģcijas":4411,"ogl":4412,"Ġjauna":4413,"ĠaugstÄģkÄģ":4414,"Ä«vs":4415,"ĠLid":4416,"Ġproduc":4417,"Ġdivu":4418,"ĠtÄģlÄģk":4419,"Ġcik":4420,"ĠsugÄģm":4421,"ĠgrÄģmatu":4422,"Ġnevis":4423,"Ð»Ð°":4424,"ĠnetÄģlu":4425,"Ġatgr":4426,"Ä«jumiem":4427,"Ġlielmeist":4428,"Ġskolu":4429,"una":4430,"ĠHam":4431,"prÄģt":4432,"ĠBrazÄ«l":4433,"Ġep":4434,"pie":4435,"ĠPÄģv":4436,"Å«zikas":4437,"ĠBe":4438,"Ġkurus":4439,"ĠdalÄ«bnieks":4440,"Ġ1958":4441,"ems":4442,"Ġpaaugst":4443,"Ġant":4444,"Ġfot":4445,"ĠbÄĵrnu":4446,"ĠPÄĵd":4447,"gÄģja":4448,"iko":4449,"niecÄ«bÄģ":4450,"ĠDÅ¾ord":4451,"Ð¸Ðº":4452,"DE":4453,"Å«ti":4454,"Sk":4455,"okas":4456,"Ġ1963":4457,"otajÄģ":4458,"elf":4459,"Ġkaujas":4460,"olas":4461,"odr":4462,"Ġ1971":4463,"ĠZemgales":4464,"ĠJÄģÅĨa":4465,"Ġbul":4466,"Ġpuses":4467,"anÅ¡u":4468,"oÅ¡s":4469,"ĠturnÄ«rs":4470,"ĠÄ¼auj":4471,"Ä«ze":4472,"ĠnosÅ«t":4473,"Ġ1961":4474,"ĠSporta":4475,"ekli":4476,"ĠÐľ":4477,"Ġdomes":4478,"Ġsil":4479,"ĠVentspils":4480,"ĠSat":4481,"ĠpasaÅ¾":4482,"Ġizdal":4483,"ite":4484,"pers":4485,"Ġasoci":4486,"Ġraid":4487,"upu":4488,"ĠLielÄģ":4489,"Ġsev":4490,"Ġvak":4491,"ĠkustÄ«bas":4492,"ĠDan":4493,"ĠKatr":4494,"Ä«tÄģji":4495,"ĠlielÄģkais":4496,"Ġmuzejs":4497,"Ġlpp":4498,"ĠimpÄĵr":4499,"Ġ1954":4500,"ĠÅ¡ahÄģ":4501,"Ġkapte":4502,"edag":4503,"ĠTie":4504,"Ġ1934":4505,"SP":4506,"ĠKap":4507,"Ġapkaim":4508,"Ġkun":4509,"ĠvÄģrt":4510,"2005":4511,"2012":4512,"Ġliels":4513,"Ġtreneri":4514,"ĠRoz":4515,"ĠslÄĵg":4516,"Ġiebruk":4517,"Ġskaita":4518,"ĠvÄģrds":4519,"ĠtÄĵvs":4520,"Ġsevi":4521,"ĠIg":4522,"Ġ49":4523,"ionÄģ":4524,"ĠcentrÄģ":4525,"ĠSte":4526,"ĠvidÄĵji":4527,"com":4528,"oÅ¡ie":4529,"SO":4530,"ĠLiteratÅ«ra":4531,"Ġvelt":4532,"izrÄģd":4533,"Ġstrauj":4534,"uga":4535,"Ġpunktu":4536,"Ġatl":4537,"2004":4538,"ps":4539,"nÄ«cu":4540,"Ġiep":4541,"Ġpalika":4542,"Ġ1957":4543,"ojumiem":4544,"ĠizdevÄģs":4545,"Ġklim":4546,"CO":4547,"ĠscenÄģr":4548,"ĠSig":4549,"Ġkravas":4550,"inÄģÅ¡anu":4551,"Ġpabeig":4552,"Ġ54":4553,"retÄģ":4554,"Ġordeni":4555,"Ä«Å¡anÄģs":4556,"iskajÄģm":4557,"Ġdol":4558,"istemÄģt":4559,"ĠlÄ«menis":4560,"ĠPÄĵteris":4561,"desmit":4562,"64":4563,"Ġnom":4564,"formas":4565,"ĠpieÅĨÄĵma":4566,"artam":4567,"ĠcÄ«ÅĨas":4568,"ĠpasÄģk":4569,"ĠvienmÄĵr":4570,"Ġskaidr":4571,"62":4572,"ĠlÄ«gÄģ":4573,"ĠViens":4574,"ack":4575,"Ġpsih":4576,"Dinamo":4577,"ng":4578,"liel":4579,"Ġ1896":4580,"61":4581,"aksts":4582,"ĠRub":4583,"ÄģjÄģ":4584,"Ġinteres":4585,"ĠnodroÅ¡ina":4586,"Ġcel":4587,"Äģras":4588,"Ä«cija":4589,"ĠRÄĵzeknes":4590,"ĠtemperatÅ«ras":4591,"Ġsportisti":4592,"aÅĨ":4593,"Ġsavus":4594,"Ġkarjeras":4595,"ĠpazÄ«stams":4596,"ĠstartÄĵja":4597,"slÄĵgÅ¡anas":4598,"ĠgrÄģmatas":4599,"iene":4600,"ĠplaÅ¡i":4601,"ĠTop":4602,"74":4603,"Ġsarun":4604,"ĠuniversitÄģtÄĵ":4605,"ĠLielbritÄģnijas":4606,"Ġdaudzums":4607,"adsm":4608,"ork":4609,"Ã³":4610,"eirop":4611,"otais":4612,"Ġmetru":4613,"Ġledus":4614,"Ġ----":4615,"ugas":4616,"Ġjauno":4617,"ĠpÄģrtrauk":4618,"Ġsh":4619,"ĠlielÄģ":4620,"ĠPek":4621,"ciema":4622,"ĠreÄ£ions":4623,"Ġmei":4624,"ĠPer":4625,"ĠSuga":4626,"Ä«ÅĨu":4627,"Ġlaikme":4628,"Ġpolic":4629,"Ġvirsmas":4630,"gadÄģ":4631,"ĠAz":4632,"eig":4633,"bu":4634,"ĠatkÄģp":4635,"Äģcijai":4636,"Ġnoviet":4637,"Å«tas":4638,"Ġietilpst":4639,"fil":4640,"Ġkomandieris":4641,"aw":4642,"ĠPiemÄĵram":4643,"Ð¾Ð½":4644,"ĠaÄ£":4645,"ĠIedzÄ«votÄģj":4646,"SD":4647,"ĠAst":4648,"Ä«rs":4649,"oy":4650,"ologs":4651,"Ġkaru":4652,"ĠsÄģkotnÄĵji":4653,"ĠVÄģcu":4654,"pras":4655,"ĠSerg":4656,"Ġieskait":4657,"Ġvel":4658,"otes":4659,"ekÄ¼u":4660,"inÄģtas":4661,"Ġtais":4662,"uls":4663,"ĠEdu":4664,"2014":4665,"Ġtelp":4666,"ĠIev":4667,"ĠIzglÄ«t":4668,"ĠPortu":4669,"Ġjuni":4670,"ĠgrÄģdu":4671,"inÄģtÄģj":4672,"ĠpienÄģk":4673,"Ġkoncentr":4674,"ĠDe":4675,"ĠpÄģrveid":4676,"Ġpulka":4677,"Ġkarjera":4678,"Ġpieaug":4679,"inÄģÅ¡ana":4680,"ĠÄĢzijas":4681,"ĠRein":4682,"ĠNÄģk":4683,"Ġizteik":4684,"oth":4685,"ĠMÄģc":4686,"ĠreÅ¾Ä«m":4687,"iat":4688,"ametr":4689,"ĠstrÄĵl":4690,"Ġcentru":4691,"daÄ¼Äģ":4692,"ĠÅ¡os":4693,"ĠpriekÅ¡sÄĵdÄĵtÄģjs":4694,"ĠÅ«den":4695,"Ġmiljoni":4696,"etu":4697,"Å«Å¡u":4698,"Ġizdots":4699,"ĠvairÄģku":4700,"Ġanim":4701,"deva":4702,"gÄģjums":4703,"Lab":4704,"daÄ¼u":4705,"ĠAustrijas":4706,"ĠpoÄ¼u":4707,"Ġsaraksts":4708,"Ġbarojas":4709,"fer":4710,"ĠHK":4711,"ĠpaplaÅ¡":4712,"eÄ¼i":4713,"Äĵjumi":4714,"Ġzob":4715,"ĠLielÄģkÄģ":4716,"ĠiekÄ¼auta":4717,"ibr":4718,"ove":4719,"ĠpÄģrsvar":4720,"ĠDzÄ«vesgÄģjums":4721,"ĠlÄ«nija":4722,"Ġfinans":4723,"eram":4724,"eidz":4725,"nÄģ":4726,"ĠdivÄģm":4727,"skaidr":4728,"Ġslav":4729,"ĠJohans":4730,"uÅ¡o":4731,"Ġ53":4732,"Ġmis":4733,"ĠperiodÄģ":4734,"79":4735,"ismu":4736,"Å¡s":4737,"Ġ1946":4738,"ĠsacÄ«kst":4739,"ĠUzvar":4740,"Ġinstrum":4741,"org":4742,"Ġfestiv":4743,"onija":4744,"oÄį":4745,"Ġapj":4746,"ĠpiedzÄ«v":4747,"galv":4748,"Ġsaviem":4749,"2002":4750,"ĠPap":4751,"prec":4752,"auda":4753,"Ġ1922":4754,"Ġordenis":4755,"ĠRe":4756,"Ġvaru":4757,"Äģlas":4758,"ĠQ":4759,"Ġizdeva":4760,"ĠtieÅ¡":4761,"aiÄ¼":4762,"Ġund":4763,"Ġsastopams":4764,"Ġplan":4765,"osta":4766,"dienÄģ":4767,"adas":4768,"63":4769,"iÄ·i":4770,"Ġiga":4771,"ĠkuÄ£is":4772,"aup":4773,"eng":4774,"Th":4775,"Ä«jumus":4776,"ĠneatkarÄ«bas":4777,"ĠOficiÄģlÄģ":4778,"Ġ1921":4779,"ĠRietum":4780,"Ġapkalp":4781,"efs":4782,"ĠlidmaÅ¡":4783,"aval":4784,"Ġdivus":4785,"ĠizpÄĵt":4786,"ĠatklÄģta":4787,"eka":4788,"ĠMik":4789,"69":4790,"mar":4791,"mÄģk":4792,"Ġiedz":4793,"ĠÅłÄ«s":4794,"ĠkuÄ£a":4795,"Ġdipl":4796,"Ġdistanc":4797,"bÅ«ve":4798,"ĠskÄģb":4799,"ĠsabiedrÄ«bas":4800,"gor":4801,"opol":4802,"Ġsagr":4803,"ĠpolÄģr":4804,"Ġkonst":4805,"Ġ1942":4806,"Ġpili":4807,"ĠsavienÄ«bas":4808,"ifikÄģcijas":4809,"Ġdarbs":4810,"ĠSid":4811,"Ġaizsardz":4812,"ĠPh":4813,"ĠDiev":4814,"rom":4815,"Ä«va":4816,"ĠGust":4817,"ĠPunk":4818,"struk":4819,"Ġkalend":4820,"Ġkontin":4821,"ĠuzÅĨÄĵmuma":4822,"68":4823,"ĠViljams":4824,"Ġesot":4825,"ĠSin":4826,"Ġpiedzim":4827,"Ġarhib":4828,"gent":4829,"ĠMet":4830,"2000":4831,"ĠLondona":4832,"dens":4833,"uka":4834,"Ġslep":4835,"ĠteÄģtris":4836,"ĠSaules":4837,"tos":4838,"ĠgrÄģd":4839,"ĠKanÄģdas":4840,"adÄĵmijas":4841,"ĠsÄ«k":4842,"ĠÐ¿":4843,"Ġradio":4844,"pirm":4845,"eniek":4846,"ĠcilvÄĵkiem":4847,"Ġsagatav":4848,"Ġzied":4849,"ĠAustrum":4850,"ĠTÄĵv":4851,"izrÄģde":4852,"irds":4853,"onos":4854,"Ġsavstarp":4855,"Ġpavasar":4856,"ĠMaskavÄģ":4857,"Ġvilc":4858,"auguÅ¡":4859,"Äĵjuma":4860,"Ġskola":4861,"ĠRum":4862,"ĠNA":4863,"ĠoficiÄģlÄģ":4864,"Ġperiods":4865,"ood":4866,"Ġbalva":4867,"Ġsapul":4868,"CA":4869,"Äĵjies":4870,"ope":4871,"aiÅĨa":4872,"ĠLin":4873,"elÄģ":4874,"tÄģk":4875,"ĠziemeÄ¼riet":4876,"Ġtramv":4877,"ĠPan":4878,"ĠBu":4879,"ĠdaÅ¾ÄģdÄģs":4880,"71":4881,"Ġpiekrast":4882,"ĠPrÅ«s":4883,"ĠinformÄģcijas":4884,"ĠÅ¡im":4885,"ĠdivÄģs":4886,"jÄĵ":4887,"Ġjos":4888,"ĠmaÅ¡":4889,"ĠÐļ":4890,"aktÄ«":4891,"Ġsol":4892,"ordin":4893,"MA":4894,"fl":4895,"áĥ":4896,"Ġhron":4897,"Ġ1926":4898,"tagad":4899,"ĠAustrumu":4900,"TV":4901,"ĠleÄ£":4902,"anti":4903,"ĠbÅ«s":4904,"ĠSez":4905,"Ġkauss":4906,"Ġzviedru":4907,"ĠcÄ«n":4908,"ĠdzÄ«vnieku":4909,"ĠrajonÄģ":4910,"Ð°ÑĤ":4911,"oun":4912,"be":4913,"Ġ(),":4914,"73":4915,"ĠiestÄģjÄģs":4916,"ĠVen":4917,"Å«rs":4918,"ĠpaÅ¡u":4919,"valst":4920,"Ġkoku":4921,"ci":4922,"ĠVer":4923,"Ġ1929":4924,"Ġpur":4925,"icis":4926,"ĠJÅ«rmal":4927,"Ġizlasi":4928,"lÄ«":4929,"skats":4930,"ĠÄ£imenes":4931,"imb":4932,"ĠvienÄ«bas":4933,"ganiz":4934,"ĠBeÄ¼Ä£":4935,"Ġ1947":4936,"akus":4937,"ive":4938,"ĠielÄģm":4939,"RÄ«gas":4940,"inieka":4941,"Ä¼av":4942,"odi":4943,"ĠizcÄ«":4944,"ĠMart":4945,"anovs":4946,"Ġietver":4947,"ĠnorÄģd":4948,"Ä·iem":4949,"Ġdaudzi":4950,"ici":4951,"ouse":4952,"ĠgrÄģf":4953,"ĠÄĢfrikas":4954,"einr":4955,"ÑĨ":4956,"aras":4957,"jos":4958,"ÄĵÅĨu":4959,"aula":4960,"ĠSÄģkotnÄĵji":4961,"ym":4962,"Ġsitu":4963,"ĠspÄĵlÄĵjis":4964,"ĠattÄģlumÄģ":4965,"ĠvÄĵ":4966,"ĠkaujÄģ":4967,"Ġieguvis":4968,"ĠFilma":4969,"ĠmatemÄģt":4970,"ĠJapÄģnas":4971,"ish":4972,"tÄģr":4973,"Ġdienvidiem":4974,"ĠEirov":4975,"amais":4976,"balt":4977,"Ġpamatskol":4978,"ca":4979,"daÄ¼":4980,"Ġdisk":4981,"oÅ¡Äģs":4982,"Ð»ÑĮ":4983,"Ġkaut":4984,"icÄģs":4985,"atnes":4986,"ĠpÄģrb":4987,"ĠKonst":4988,"Ġierind":4989,"ĠoficiÄģli":4990,"âĢľ":4991,"ĠsÄģkuma":4992,"ĠierÄ«k":4993,"ĠÄĵd":4994,"Ġtu":4995,"ĠIes":4996,"Ġnams":4997,"ĠSac":4998,"glab":4999,"ĠSvÄĵtÄģ":5000,"ĠValmieras":5001,"elÅ¡anÄģs":5002,"Ġbeidzas":5003,"Ġ/":5004,"Ġsign":5005,"ĠSol":5006,"ĠTV":5007,"ega":5008,"Ġprogrammas":5009,"iniec":5010,"Ġkuros":5011,"ĠviÅĨiem":5012,"Ġsastopama":5013,"ĠceÄ¼u":5014,"ĠgÄģz":5015,"Ġmetrus":5016,"ĠMiris":5017,"Äģbu":5018,"epr":5019,"Ġ;":5020,"iskajiem":5021,"ĠizveidojÄģs":5022,"ĠdrÄ«z":5023,"ĠIzra":5024,"Ġprojekt":5025,"Val":5026,"ĠSerb":5027,"Ġ1931":5028,"ĠiegÄģd":5029,"ĠÄ·erm":5030,"ĠkopumÄģ":5031,"Ġplak":5032,"Ġalbumu":5033,"aina":5034,"Ġdienn":5035,"Ġatrast":5036,"orld":5037,"Ġminer":5038,"Ġ%":5039,"ĠlÄ«der":5040,"Ġ1943":5041,"Ġizmantots":5042,"Ġpos":5043,"iznes":5044,"Ġpremj":5045,"Ġ1923":5046,"mans":5047,"bo":5048,"Ä«tÄģs":5049,"ĠTÄģd":5050,"ĠZelta":5051,"ĠNacionÄģlÄģ":5052,"Äįs":5053,"ĠbagÄģt":5054,"Ä«ne":5055,"osÄģ":5056,"Ġnosaka":5057,"Ð¸Ñı":5058,"iegl":5059,"ĠBet":5060,"Ġaktiv":5061,"Ġizz":5062,"Ġlietuv":5063,"Ġvalsti":5064,"ĠbÄĵg":5065,"ĠFrancijÄģ":5066,"ĠÄ£int":5067,"ĠdzÄ«vojoÅ¡":5068,"Ġ1933":5069,"nus":5070,"ros":5071,"ano":5072,"Ä«Å¡anai":5073,"opa":5074,"Ġdomin":5075,"ĠpÄĵdÄĵjÄģ":5076,"Ġavi":5077,"errari":5078,"Jaun":5079,"ĠsportÄģ":5080,"ÃŃ":5081,"ĠKir":5082,"NO":5083,"ĠFinÄģl":5084,"amm":5085,"ovska":5086,"ojuz":5087,"Ġsakaru":5088,"ĠizstÄģd":5089,"Ä£ip":5090,"ĠLap":5091,"eter":5092,"Ġsub":5093,"Ġgodu":5094,"ĠPiedal":5095,"Ġalbuma":5096,"ĠdibinÄģtÄģj":5097,"ĠJuris":5098,"ĠBars":5099,"ĠpilsoÅĨu":5100,"ĠIzviet":5101,"Ġsmil":5102,"ĠjaunieÅ¡u":5103,"Ġser":5104,"2017":5105,"ĠplatÄ«ba":5106,"Ġ300":5107,"ĠÄįetras":5108,"ĠKaralistes":5109,"ĠBaznÄ«c":5110,"ith":5111,"ĠPolit":5112,"Ġlauku":5113,"ĠApr":5114,"ĠAlfr":5115,"tern":5116,"ĠpiedalÄģs":5117,"Ġvienas":5118,"ĠpirmizrÄģde":5119,"dzimta":5120,"ĠizcÄ«nÄ«jusi":5121,"El":5122,"inÄģjuma":5123,"Ø§":5124,"Ġ().":5125,"ande":5126,"ĠRadio":5127,":'''":5128,"yl":5129,"ĠiegÅ«":5130,"vÄĵt":5131,"Ġzemi":5132,"ĠAustrÄģlijas":5133,"ĠÄĵku":5134,"ĠUniversitÄģtÄĵ":5135,"bed":5136,"ĠKara":5137,"RA":5138,"ingu":5139,"amerikas":5140,"Ġkorpus":5141,"kt":5142,"ĠVan":5143,"Ġputnu":5144,"Ġizvirz":5145,"fal":5146,"ĠagrÄģk":5147,"ĠSim":5148,"Äĵles":5149,"2016":5150,"ĠTrÄ«s":5151,"Ġ*''":5152,"ĠloÅ¾as":5153,"Ġnakts":5154,"ĠattiecÄ«bas":5155,"ĠCÄĵsu":5156,"ili":5157,"ĠTÄģl":5158,"ĠnodibinÄģja":5159,"ĠizrÄģd":5160,"ĠuzÅĨÄĵmumu":5161,"pol":5162,"ĠBij":5163,"ĠGais":5164,"Ä«giem":5165,"arda":5166,"ĠKrievija":5167,"ĠspÄĵlÄĵtÄģjs":5168,"Å¡t":5169,"Ġuzt":5170,"ÄģlÄĵ":5171,"./":5172,"mÄģm":5173,"ĠamatÄģ":5174,"unds":5175,"Ġtikt":5176,"ĠÅłÄ·":5177,"ĠPÄĵter":5178,"akaÄ¼":5179,"Ġneap":5180,"Ġ82":5181,"Ġpedag":5182,"ĠPirmo":5183,"ĠSpÄĵles":5184,"ojs":5185,"ĠSkr":5186,"ĠHe":5187,"dzimusi":5188,"ĠUngÄģrijas":5189,"cion":5190,"Ġkareiv":5191,"vars":5192,"Ġ65":5193,"Ġpunkts":5194,"gur":5195,"Ġdiscipl":5196,"Ġieguld":5197,"ĠSer":5198,"ĠVit":5199,"olog":5200,"Ġ1955":5201,"ĠVladimirs":5202,"jam":5203,"Ġjaunas":5204,"padsm":5205,"Ġit":5206,"Ġvan":5207,"ÄģcijÄģm":5208,"ial":5209,"tÄģla":5210,"ĠdaÅ¾Äģdi":5211,"Po":5212,"lor":5213,"ĠGulb":5214,"ĠtradicionÄģl":5215,"Ġkoncert":5216,"ĠPlat":5217,"Ġamata":5218,"ĠdzÄ«voj":5219,"ĠPilsÄĵta":5220,"ĠSpr":5221,"Ġmol":5222,"ĠFC":5223,"Ġkaps":5224,"Ġzar":5225,"ĠSe":5226,"ĠKo":5227,"ĠKrust":5228,"ĠvÄĵlÄĵÅ¡anas":5229,"otnes":5230,"ĠvÄĵrtÄĵjumÄģ":5231,"ĠRietumu":5232,"ĠYou":5233,"100":5234,"ukuma":5235,"Ġ150":5236,"Ġpiepras":5237,"entus":5238,"ĠiekÄ¼auts":5239,"ĠklubÄģ":5240,"Ġnostipr":5241,"ĠPilsÄĵtas":5242,"Ä«vÄģ":5243,"Ġatbalstu":5244,"Ġdatiem":5245,"ĠFor":5246,"ĠkopvÄĵrt":5247,"Ġkabin":5248,"Ġkrasta":5249,"yn":5250,"ĠbÄģzes":5251,"osas":5252,"Ġ1953":5253,"ĠietekmÄĵ":5254,"ĠPers":5255,"oph":5256,"Ġmazciems":5257,"ĠrÄģd":5258,"ĠÄĴÄ£ip":5259,"ĠreÄ£ionÄģ":5260,"ĠAntarkt":5261,"Ġdzimt":5262,"Äĵla":5263,"ĠKok":5264,"ĠTiek":5265,"Ġsec":5266,"esti":5267,"ĠrevolÅ«cijas":5268,"ĠapkaimÄĵ":5269,"ĠFIDE":5270,"ĠMark":5271,"ĠkaraspÄĵka":5272,"Ġ400":5273,"ĠspÄĵle":5274,"Ġ61":5275,"ekcijas":5276,"opu":5277,"imas":5278,"ĠFeder":5279,"2003":5280,"ĠTel":5281,"ĠJan":5282,"Ġpieliet":5283,"''')":5284,"draud":5285,"ĠSib":5286,"Ġmilz":5287,"ĠdaÅ¾Äģdos":5288,"ĠGalvenÄģs":5289,"Äģji":5290,"Äģjs":5291,"Ġveidojas":5292,"tiek":5293,"ĠbrÄģ":5294,"ĠApdzÄ«v":5295,"kor":5296,"Ġbalt":5297,"Ne":5298,"ĠMod":5299,"Äģms":5300,"Ġkomponists":5301,"ĠÐĴ":5302,"ĠpakÄ¼aut":5303,"ĠatmosfÄĵr":5304,"ĠBaltkrievijas":5305,"ĠAir":5306,"Ġ64":5307,"ĠsÅ«t":5308,"ĠvÄ«rieÅ¡u":5309,"onza":5310,"ĠÐĲ":5311,"ĠRa":5312,"ĠVas":5313,"Ġpagast":5314,"ĠmÄģte":5315,"Ġuzs":5316,"Ġpartiju":5317,"Ġlas":5318,"Ġtenis":5319,"erministr":5320,"Ġspiedien":5321,"ĠAnna":5322,"Ġhip":5323,"Ġdub":5324,"Ġ1951":5325,"jÅ«ras":5326,"ustr":5327,"ze":5328,"ines":5329,"Ġgoda":5330,"ĠpriekÅ¡pils":5331,"Ġpietek":5332,"Ġpievienoja":5333,"Ġmitr":5334,"ĠIek":5335,"obi":5336,"Ġtrauc":5337,"ĠÑģ":5338,"ĠpÄģrstÄģvji":5339,"Ġ1905":5340,"ĠkamÄĵr":5341,"ĠPortug":5342,"ĠiespÄĵju":5343,")'''":5344,"Ġ1927":5345,"Ġtipa":5346,"Ġ58":5347,"ĠtuvumÄģ":5348,"Ġbumb":5349,"ĠstrÄģdÄģt":5350,"ĠsavienÄ«ba":5351,"ten":5352,"Ä«kla":5353,"Ġviegli":5354,"Ġautonom":5355,"Ġdepartam":5356,"iÅĨam":5357,"ĠiespÄĵjas":5358,"ĠieradÄģs":5359,"ekÄ¼iem":5360,"Ġapprec":5361,"ultatÄ«v":5362,"ĠnozÄ«me":5363,"Ġalbumi":5364,"ĠkuÄ£i":5365,"niekus":5366,"Ġiesl":5367,"ĠierÄ«c":5368,"cÄ«":5369,"ĠSievietes":5370,"ĠVÄģrds":5371,"Ġkrastos":5372,"ĠkÄģda":5373,"ĠIsl":5374,"ize":5375,"ĠmuiÅ¾u":5376,"Ġkosmon":5377,"Ġpieturas":5378,"ops":5379,"ĠpasaÅ¾ieru":5380,"Ġizst":5381,"ĠLud":5382,"ĠvÄģrda":5383,"ĠrezultÄģtu":5384,"inoÅ¡i":5385,"ĠImage":5386,"ieti":5387,"ĠBat":5388,"Ġ\"''":5389,"upa":5390,"Le":5391,"Ġart":5392,"ĠpopulÄģr":5393,"alds":5394,"Ġim":5395,"alis":5396,"Ġrekords":5397,"fs":5398,"eÅ¾Ä£":5399,"ĠrezultÄģti":5400,".\"":5401,"Ġprogramma":5402,"kun":5403,"ĠHenr":5404,"ĠizmaiÅĨas":5405,"Ġ140":5406,"ĠpiekrastÄĵ":5407,"bes":5408,"eiksm":5409,"ĠPunkti":5410,"ĠKinoak":5411,"ĠKopumÄģ":5412,"tsp":5413,"Ġast":5414,"niedza":5415,"Ġkarali":5416,"Ġ1912":5417,"ÄĵÅ¡anÄģ":5418,"eica":5419,"ĠpiedalÄ«jusies":5420,"undes":5421,"ĠMarks":5422,"Ġdokt":5423,"Ġmit":5424,"ĠRiÄį":5425,"iha":5426,"inÄģjumi":5427,"ĠKij":5428,"burgÄģ":5429,"ĠGre":5430,"go":5431,"ĠDon":5432,"ĠÐł":5433,"Ġklost":5434,"iniekiem":5435,"ĠorbÄ«tÄģ":5436,"ĠlÄĵmumu":5437,"celta":5438,"IM":5439,"ĠsekretÄģ":5440,"ĠJÄĵkab":5441,"ĠVin":5442,"ĠBern":5443,"ĠuzÅĨÄĵmumi":5444,"Un":5445,"auks":5446,"ĠapgabalÄģ":5447,"NA":5448,"aiÅĨ":5449,"otÄģjiem":5450,"ĠvidÄĵjÄģ":5451,"ĠNotik":5452,"ĠâĢĺ":5453,"Ġsnieg":5454,"hof":5455,"ĠtiesÄ«bu":5456,"Ġveikt":5457,"ĠvadÄ«tÄģju":5458,"aÄ£":5459,"ĠKuld":5460,"Ġpaliek":5461,"ifikÄģcija":5462,"ĠSup":5463,"ivil":5464,"Ġdiplom":5465,"Ġpost":5466,"ĠSak":5467,"stac":5468,"Ġinterne":5469,"ĠpÅ«":5470,"Ð¾Ð´":5471,"ĠÅ¡Ä·idr":5472,"ĠSlovÄģk":5473,"Ġmiljoniem":5474,"Ġsvars":5475,"ĠSportists":5476,"Fran":5477,"Ġceremon":5478,"Joh":5479,"ĠDat":5480,"ĠpaÅ¡laik":5481,"ĠKinoakadÄĵmijas":5482,"eÅ¾is":5483,"berg":5484,"ĠNacionÄģlÄģs":5485,"ĠmÄĵrÄ·is":5486,"ance":5487,"SS":5488,"vielas":5489,"ĠMars":5490,"ĠHel":5491,"ĠStok":5492,"Ġ1000":5493,"stes":5494,"ĠTurcijas":5495,"arÄ«":5496,"Ġnosaukuma":5497,"Ġradi":5498,"piemÄĵram":5499,"ĠAgr":5500,"ĠSo":5501,"ĠBrÄ«vÄ«bas":5502,"eicoties":5503,"Ġnesp":5504,"ĠnozÄ«mes":5505,"put":5506,"Ġuzman":5507,"Äģfr":5508,"Ġmodern":5509,"Ð¾Ð²Ð¸Ñĩ":5510,"ĠlÄ«niju":5511,"ÄĵjÄģm":5512,"ĠÄģrst":5513,"ĠFrÄ«drihs":5514,"atvers":5515,"lers":5516,"Ġsan":5517,"ĠRi":5518,"ĠtrÅ«k":5519,"Ð»Ðµ":5520,"ĠspÄĵki":5521,"izab":5522,"ĠvisvairÄģk":5523,"ĠAleksandra":5524,"ĠMu":5525,"ĠdaÅ¾as":5526,"ĠTreÅ¡":5527,"ĠpÄģrvad":5528,"raudz":5529,"osk":5530,"Ġdzejnieks":5531,"lar":5532,"ĠÎ":5533,"Å¾Äģ":5534,"ĠizbÅ«v":5535,"Ä«tos":5536,"Ġbiedrs":5537,"ler":5538,"ÄģÄį":5539,"ilj":5540,"ĠÐŁ":5541,"aÅ¾u":5542,"ĠpÄģrsp":5543,"Ġfrom":5544,"ĠgÄģja":5545,"Ġstar":5546,"ĠvisÄģm":5547,"ĠsamÄĵrÄģ":5548,"agr":5549,"},":5550,"islavs":5551,"Äģvu":5552,"ĠmÄģkslinieks":5553,"ĠDzelz":5554,"ĠkomandÄģ":5555,"III":5556,"ĠpÄģrraid":5557,"ĠRed":5558,"ules":5559,"Ġkrusta":5560,"Ġgraf":5561,"Ġprincip":5562,"ĠlÄ«ga":5563,"anda":5564,"Ġaugs":5565,"Ġakmens":5566,"ĠArgent":5567,"ĠsÄĵn":5568,"aista":5569,"Ð°Ñı":5570,"Ġsapr":5571,"ĠstrÄĵlnieku":5572,"ĠpÄģrsvarÄģ":5573,"Ġnomain":5574,"Ġdraf":5575,"Ġpunkti":5576,"Ġposms":5577,"ĠpozÄ«cijÄģ":5578,"ĠMÄĵness":5579,"ĠÅ«deÅĨ":5580,"ĠraÄ·":5581,"ĠiekÄģr":5582,"1998":5583,"ĠinstitÅ«ta":5584,"ĠOzol":5585,"Ġparas":5586,"ĠÄĮempion":5587,"ÐĲ":5588,"Ġ59":5589,"ĠNikolajs":5590,"aib":5591,"ĠCiem":5592,"Ġprojekta":5593,"2001":5594,"ĠcilvÄĵks":5595,"Ġabsolven":5596,"ĠreizÄĵm":5597,"igs":5598,"Ġierakstu":5599,"Ph":5600,"fa":5601,"Ġdod":5602,"ĠparedzÄĵts":5603,"Ġizkl":5604,"ĠForm":5605,"ĠÅ¡ÄģdÄģm":5606,"atoru":5607,"ĠLatviju":5608,"ĠÄ»eÅĨ":5609,"Ġain":5610,"Ġied":5611,"ĠHels":5612,"ners":5613,"Ġjosl":5614,"ĠGruz":5615,"ags":5616,"ĠpierÄģd":5617,"ĠParasti":5618,"ĠturnÄ«ra":5619,"EFA":5620,"lÄĵk":5621,"oloÄ£ijÄģ":5622,"ĠÄģtri":5623,"Å¡iem":5624,"Ġstaf":5625,"skaÅĨ":5626,"alu":5627,"upe":5628,"ĠdivÄ«zijas":5629,"Ġotrais":5630,"Ġgaismas":5631,"Kar":5632,"onam":5633,"ĠziemeÄ¼iem":5634,"stoÅ¡i":5635,"Ġsabr":5636,"Ġiedarb":5637,"Ġetn":5638,"ner":5639,"umbr":5640,"Ġlej":5641,"ĠDob":5642,"oza":5643,"ĠluterÄģÅĨu":5644,"ÅĨÄ£":5645,"Å«tes":5646,"Ġuzrakst":5647,"Äģvijas":5648,"Äĵjam":5649,"esi":5650,"ĠPiem":5651,"âĢ²":5652,"ĠFin":5653,"ingt":5654,"ÄģkajÄģ":5655,"ĠnepÄģr":5656,"ĠizlasÄĵ":5657,"ĠcitÄģs":5658,"ĠjÅ«rÄģ":5659,"isi":5660,"ĠgarÅ¡":5661,"ational":5662,"Ġ1914":5663,"ĠCentrÄģl":5664,"ĠiedalÄ«jums":5665,"ĠlabÄģkais":5666,"tel":5667,"ĠvienÄģd":5668,"ĠTomas":5669,"muiÅ¾a":5670,"ÅĤ":5671,"ĠSaul":5672,"Ġaud":5673,"Ġmeit":5674,"onto":5675,"Ġprakt":5676,"ensis":5677,"Ġvidusskola":5678,"Ġkomitejas":5679,"Ġlietus":5680,"Ġvielas":5681,"ĠmÄģs":5682,"Ġdarbinieks":5683,"Ġpiemineklis":5684,"ĠsÄģkot":5685,"pild":5686,"Ġreti":5687,"pat":5688,"ĠitÄģ":5689,"iers":5690,"ĠTam":5691,"Ġpunktus":5692,"Ġpopular":5693,"Ġuguns":5694,"PG":5695,".),":5696,"ĠSalas":5697,"Ä«das":5698,"Ġdinastijas":5699,"ĠSergejs":5700,"austrumu":5701,"ĠNob":5702,"nÄ«cÄģ":5703,"ĠSad":5704,"tsar":5705,"Ġiecelts":5706,"ĠPÄģrstÄģv":5707,"ali":5708,"ĠgadÄ«jumos":5709,"Ġmobil":5710,"Ġmantojuma":5711,"ĠReg":5712,"ĠaktÄ«vi":5713,"ĠRen":5714,"abas":5715,"ĠTÄĵrb":5716,"inÄģÅ¡anai":5717,"Ġministrijas":5718,"ĠigauÅĨu":5719,"ÑĪ":5720,"ĠHeinr":5721,"Ġhidr":5722,"ĠatklÄģt":5723,"Ġrot":5724,"ĠMus":5725,"guva":5726,"Ġresurs":5727,"crip":5728,"Äģniju":5729,"ĠBan":5730,"Ġrakstnieki":5731,"oÅ¡a":5732,"Ġdeva":5733,"skolas":5734,"ĠViktors":5735,"Liel":5736,"yc":5737,"ĠmÄĵdz":5738,"Ġarhe":5739,"Äģkslas":5740,"ĠsÄĵd":5741,"ĠatpakaÄ¼":5742,"ĠapstrÄģd":5743,"ĠgÅ«st":5744,"estÄģ":5745,"Ġdator":5746,"Ä«tr":5747,"Ġprezidentu":5748,"ĠFK":5749,"ĠÅłveices":5750,"Ġreak":5751,"ĠÅħujorkas":5752,"ĠPor":5753,"varu":5754,"ĠRu":5755,"ide":5756,"Ġizmantota":5757,"ĠminÄĵta":5758,"ĠpÄģrstÄģvÄĵja":5759,"Ġkonkr":5760,"Ä«tÄģja":5761,"Ġfauna":5762,"ault":5763,"ĠgarumÄģ":5764,"ĠRepublika":5765,"ĠpÄģrvaldes":5766,"Ġkaul":5767,"ĠAtÄĵnas":5768,"Er":5769,"ĠpilsÄĵt":5770,"ĠEirovÄ«zijas":5771,"ĠspÄĵlÄĵtÄģju":5772,"Ġviz":5773,"esa":5774,"Ġsavv":5775,"zemÄĵ":5776,"ĠnepiecieÅ¡ams":5777,"Ġizveidot":5778,"ĠkÄģjnieku":5779,"ĠpÄģrbaud":5780,"ĠTad":5781,"ĠJans":5782,"Ġpurv":5783,"Ġdib":5784,"Ġkomandieri":5785,"ĠizÅĨemot":5786,"ĠjÅ«ra":5787,"laic":5788,"Ġ68":5789,"ĠAtr":5790,"Ġizpl":5791,"atÄ«vi":5792,"Ġsavienojumi":5793,"ĠÄªr":5794,"ĠarhibÄ«skap":5795,"skÄģ":5796,"2019":5797,"Cl":5798,"Ġuzst":5799,"eck":5800,"2018":5801,"ĠfinÄģlÄģ":5802,"ĠJo":5803,"Ġpild":5804,"ĠcÄ«ÅĨa":5805,"ieÅ¡anas":5806,"ĠBol":5807,"ieniem":5808,"Å«dens":5809,"ĠsÄĵrijas":5810,"embrim":5811,"Ġkak":5812,"Ġpietiek":5813,"ĠOÄ¼":5814,"ĠuzskatÄ«ja":5815,"ĠGu":5816,"Ġvied":5817,"Ġieskaitot":5818,"Ġfunkcijas":5819,"ĠnonÄģca":5820,"ĠNav":5821,"Ġienaid":5822,"ĠKosm":5823,"aidÅ¾":5824,"ĠiekÄ¼Äģva":5825,"Ġforma":5826,"Ä«ciju":5827,"Ġskaitu":5828,"Ġblakus":5829,"ĠfinanÅ¡u":5830,"Ġkvalific":5831,"tajÄģ":5832,"ĠAndris":5833,"Dr":5834,"ĠRÅ«d":5835,"ĠlÄ«dzÄ«gi":5836,"Å«da":5837,"ĠiecÄĵla":5838,"Ġeksperim":5839,"ĠIgaunijÄģ":5840,"ĠSidn":5841,"ĠPak":5842,"Ġstudentu":5843,"Ġpremjerministr":5844,"ĠIs":5845,"Ġ71":5846,"eiks":5847,"ĠfutbolÄģ":5848,"Ġ1915":5849,"spr":5850,"ĠnodaÄ¼as":5851,"ÄģrÄģs":5852,"ĠStokhol":5853,"ĠatzÄ«m":5854,"eÄ¼Å¡":5855,"ĠvisbieÅ¾Äģk":5856,"Or":5857,"Ġaic":5858,"Ġare":5859,"Ġaizlieg":5860,"Ġnomir":5861,"ĠPet":5862,"ĠMÄģt":5863,"Ġsepti":5864,"isu":5865,"ĠElizab":5866,"Ġ67":5867,"ĠLib":5868,"emat":5869,"ĠKlus":5870,"ĠLiepÄģjÄģ":5871,"Äģrl":5872,".:":5873,"Ġpoz":5874,"Ġnaf":5875,"ĠVÄģcija":5876,"Ġlielas":5877,"ogrÄģfijas":5878,"ĠPj":5879,"ĠCl":5880,"Ġjauns":5881,"ĠzinÄģtnes":5882,"ĠgrÄģmata":5883,"ĠienÄģk":5884,"Ġpiekras":5885,"atr":5886,"ient":5887,"Ġlapa":5888,"Ġ76":5889,"Ġvojevodiste":5890,"ĠTai":5891,"aura":5892,"Ġ1904":5893,"ĠneatkarÄ«bu":5894,"war":5895,"Å½":5896,"ĠviÄ¼":5897,"Ġbiznes":5898,"ĠpiederÄĵja":5899,"ĠlÄ«guma":5900,"Ä£istr":5901,"dienas":5902,"Ä«tie":5903,"Ä«nes":5904,"Ġorg":5905,"ĠNotikumi":5906,"iÄ£inÄģl":5907,"Ġparal":5908,"ĠMarija":5909,"ĠKonstant":5910,"egs":5911,"Äĵdija":5912,"ĠNÄ«derlandes":5913,"Ġdemon":5914,"ians":5915,"xt":5916,"izÄģcijas":5917,"Ġminim":5918,"ĠuzvarÄĵjusi":5919,"Ġtirgus":5920,"ĠAugusts":5921,"Ñĸ":5922,"iona":5923,"Ġsasl":5924,"ĠdaÅ¾Äģdiem":5925,"ĠMinh":5926,"Ġnolai":5927,"Ġizcil":5928,"ĠatzÄ«ts":5929,"ĠbaznÄ«cu":5930,"edes":5931,"Ġbeidza":5932,"ĠraÅ¾oÅ¡anas":5933,"Ġpir":5934,"inskis":5935,"gen":5936,"Ġvisus":5937,"ĠceÄ¼Å¡":5938,"Ġprovinces":5939,"cionÄģl":5940,"Ġizb":5941,"Ð¾Ð³":5942,"ĠSIA":5943,"Ä«zi":5944,"gudr":5945,"Ġveidi":5946,"pt":5947,"valsts":5948,"Ġatveido":5949,"ĠKub":5950,"illi":5951,"Ġ66":5952,"Ġmagn":5953,"Ġ62":5954,"ĠmÄģtÄ«tes":5955,"ĠMeh":5956,"Ġieslodz":5957,"Ġpadz":5958,"Ġon":5959,"Ġsma":5960,"Ġciemu":5961,"ĠsÄĵk":5962,"atus":5963,"ĠbeidzÄģs":5964,"ĠParÄ«zÄĵ":5965,"ĠSaskaÅĨÄģ":5966,"ĠnorisinÄģjÄģs":5967,"Ġbalvai":5968,"Ġzemnieku":5969,"dÄģ":5970,"Ġdaudzas":5971,"vusi":5972,"ĠRo":5973,"ĠJar":5974,"Ġ:*":5975,"ĠPauls":5976,"kap":5977,"ĠizmÄĵr":5978,"ĠSudr":5979,"Äģtiem":5980,"ĠKriÅ¡":5981,"Ä«di":5982,"ĠJÅ«rmalÄģ":5983,"ale":5984,"Ġ63":5985,"ÄĢr":5986,"icon":5987,"ĠplÅ«s":5988,"ĠmÄģja":5989,"ĠpÄģvests":5990,"yst":5991,"ÄĵjuÅ¡i":5992,"Äģjumu":5993,"PSRS":5994,"Ġ},":5995,"ĠceÄ¼a":5996,"ĠpastÄģvÄĵja":5997,"VI":5998,"kon":5999,"otiem":6000,"Ä«skapa":6001,"Ġversija":6002,"jan":6003,"ĠtÄĵr":6004,"oriz":6005,"ĠpiedalÄ«ties":6006,"emÄģti":6007,"Äĵzes":6008,"Ġstrauji":6009,"gaid":6010,"Ġnorm":6011,"ĠGer":6012,"ĠGada":6013,"ĠÄĴriks":6014,"ĠatteicÄģs":6015,"Ġnaudas":6016,"km":6017,"ĠPel":6018,"Ġjauk":6019,"ĠnodibinÄģ":6020,"ĠparakstÄ«ja":6021,"Ġasins":6022,"Ġliecina":6023,"cijÄģm":6024,"Ġdis":6025,"etas":6026,"Ġizdar":6027,"Ġi":6028,"Ġ72":6029,"ĠradÄģs":6030,"ĠsareÅ¾Ä£":6031,"ĠStrÄģd":6032,"Ġatbalsta":6033,"Ġredakt":6034,"Ġkukai":6035,"Ġatlik":6036,"Ġveidoja":6037,"itor":6038,"ozes":6039,"Ġuzvaras":6040,"iskiem":6041,"Ä·Ä«":6042,"Ġgara":6043,"formÄģcija":6044,"Ġprofesors":6045,"Ġmolek":6046,"kins":6047,"Ġvirsnieki":6048,"ĠStarptautiskÄģ":6049,"ĠMag":6050,"Ġpuss":6051,"Ġnepie":6052,"ĠjÄģb":6053,"Ġupe":6054,"Ġjunioru":6055,"ĠKv":6056,"elas":6057,"ĠPart":6058,"enci":6059,"ĠlÄ«gums":6060,"Ġatbilst":6061,"svg":6062,"ĠvÄĵja":6063,"ĠRobeÅ¾":6064,"Äĵva":6065,"ĠProf":6066,"ĠiedzÄ«votÄģjiem":6067,"finÄģls":6068,"pÄĵc":6069,"Ġlaukums":6070,"ĠkustÄ«ba":6071,"ĠErnes":6072,"ER":6073,"cs":6074,"dar":6075,"Ġolas":6076,"En":6077,"Äĵlas":6078,"ĠaizÅĨem":6079,"ĠgalÄģ":6080,"iesa":6081,"Ġmasu":6082,"Ä«tais":6083,"ĠdibinÄģts":6084,"Ġhokejisti":6085,"ĠPolijÄģ":6086,"ĠBijis":6087,"ĠKu":6088,"Ä«tÄģjiem":6089,"erties":6090,"ĠVÄ«t":6091,"Ġtiks":6092,"ĠAizsar":6093,"ĠBud":6094,"Ġkapos":6095,"ĠdeputÄģts":6096,"ĠNorvÄĵÄ£ijas":6097,"ĠsastÄģvs":6098,"ĠattÄ«stÄ«bu":6099,"Å¡ev":6100,"ĠLor":6101,"ĠanimÄģcijas":6102,"ule":6103,"ausa":6104,"ĠVisvairÄģk":6105,"Ġpunktiem":6106,"ĠDÅ¾eimss":6107,"nov":6108,"Ġpulk":6109,"ĠkonkursÄģ":6110,"ĠmÅ«su":6111,"Ġprotok":6112,"EL":6113,"yr":6114,"ĠDÄģnijas":6115,"ĠEur":6116,"ĠdarbÄģ":6117,"Ġstila":6118,"ĠnedÄĵÄ¼as":6119,"kav":6120,"ulÄģ":6121,"ĠIzmant":6122,"Ġdirektors":6123,"ĠvÄĵd":6124,"ĠteritoriÄģl":6125,"Ġlikumu":6126,"Ġaugstums":6127,"Äģro":6128,"Ġvideo":6129,"Ġdefin":6130,"tt":6131,"Ġsaj":6132,"Ġ81":6133,"Ġvaldes":6134,"Ġabi":6135,"ĠsistÄĵmÄģ":6136,"Ġkonkur":6137,"muiÅ¾as":6138,"Ġapvid":6139,"endas":6140,"Ġaizsarg":6141,"ĠtreÅ¡o":6142,"Ġidenti":6143,"Ġsniega":6144,"ĠkÄ¼Å«stot":6145,"ãĥ":6146,"ertu":6147,"Ġla":6148,"ienÄĵ":6149,"Ġkurai":6150,"ĠÄįempioni":6151,"adu":6152,"Ġdarbus":6153,"Ġkalns":6154,"Ġkatedr":6155,"Ġfabr":6156,"ĠknÄģb":6157,"Ġapgalv":6158,"Äģniem":6159,"ersons":6160,"ĠkÄģdÄģ":6161,"ĠDziesmu":6162,"ĠdivÄ«zija":6163,"ĠdebitÄĵja":6164,"tor":6165,"ĠmeÅ¾a":6166,"ÑģÐºÐ¸Ð¹":6167,"lavas":6168,"emÄĵ":6169,"Ġsasniegt":6170,"Ġ#":6171,"ĠaprÄĵÄ·":6172,"Ð¾Ð¹":6173,"Ġabsolv":6174,"Ġ1908":6175,"Ġmonarh":6176,"ĠtÅ«kstoÅ¡i":6177,"ĠSociÄģl":6178,"Ġkriev":6179,"Ġ*****":6180,"ĠliteratÅ«ras":6181,"ĠFlor":6182,"ĠGrieÄ·ijas":6183,"ĠAg":6184,"valstu":6185,"ĠsalÄģ":6186,"ĠimpÄĵrija":6187,"ĠNat":6188,"ĠKasp":6189,"ĠizÅ¡Ä·ir":6190,"ajas":6191,"ĠzinÄģtÅĨu":6192,"ĠpanÄģkumiem":6193,"color":6194,"Ġezeru":6195,"ailes":6196,"ĠdroÅ¡Ä«bas":6197,"ĠitÄģÄ¼u":6198,".).":6199,"ĠtÄ«r":6200,"Ġkaz":6201,"ĠJak":6202,"ĠvairÄģkiem":6203,"ĠMihails":6204,"Ġpabeidza":6205,"oÅĨiem":6206,"Ġpilskalns":6207,"ĠVilhelms":6208,"vest":6209,"Äĵtie":6210,"Ġviss":6211,"CI":6212,"ovÄģ":6213,"ĠsaskaÅĨÄģ":6214,"ĠDraudz":6215,"Ġastronom":6216,"ÐĴ":6217,"tuv":6218,"Ġabsolventi":6219,"ĠLeon":6220,"ĠFiz":6221,"Ġelektron":6222,"ĠmÄ«l":6223,"olds":6224,"Ä«ks":6225,"iels":6226,"inÄģjis":6227,"Ġnetiek":6228,"Ġlaure":6229,"gars":6230,"odeÅ¾":6231,"ows":6232,"lack":6233,"Å«nas":6234,"ĠNobela":6235,"Ġur":6236,"aÄ¼i":6237,"ozÄ«m":6238,"ĠlÄ«dzen":6239,"Ġ110":6240,"ĠnaktÄ«":6241,"ĠNor":6242,"ĠklÄģt":6243,"Ġliter":6244,"ĠRec":6245,"Ġamatu":6246,"ĠBon":6247,"ĠjanvÄģra":6248,"ĠTals":6249,"ĠvieglatlÄĵt":6250,"za":6251,"dzes":6252,"Ġnu":6253,"ĠjÄģbÅ«t":6254,"bas":6255,"ĠsÄģkotn":6256,"Ġpaties":6257,"ĠsacelÅ¡anÄģs":6258,"Point":6259,"prop":6260,"Ġotru":6261,"ĠSabiedr":6262,"Î±":6263,"ĠÄ£en":6264,"Ġsvin":6265,"hers":6266,"Ġrodas":6267,"Ġnodok":6268,"Ġpareiztic":6269,"eÄį":6270,"Ġsilt":6271,"ĠlÄ«d":6272,"ĠmedaÄ¼":6273,"ĠRiodeÅ¾":6274,"BC":6275,"isam":6276,"Ġbud":6277,"ĠTehn":6278,"ĠApbalv":6279,"ĠparÄģdÄ«jÄģs":6280,"Ġ69":6281,"aneiro":6282,"ĠSvÄĵtÄģs":6283,"Ġizgudr":6284,"ĠspÄĵlÄĵm":6285,"Ġtransporta":6286,"ĠSc":6287,"ĠVÄģciju":6288,"ĠÅ«denÄ«":6289,"ĠLaiks":6290,"ĠÅ¾an":6291,"ĠinformÄģciju":6292,"Ġligzdo":6293,"ĠrudenÄ«":6294,"Ġievad":6295,"ĠplÄĵs":6296,"iforn":6297,"ektors":6298,"Ġstaciju":6299,"ĠvÄĵrÄģ":6300,"estu":6301,"vÄĵra":6302,"ĠAugstÄģkÄģs":6303,"ĠpilÄ«":6304,"Ġkorpor":6305,"lus":6306,"ĠpÄģrm":6307,"Ġvides":6308,"ĠpÄģrliec":6309,"istemÄģtika":6310,"Ġgod":6311,"ĠbÄĵrn":6312,"Ġpu":6313,"ĠKrÄģs":6314,"atkar":6315,"Ġuzl":6316,"Ä«tÄĵm":6317,"kls":6318,"ĠvairÄģkÄģs":6319,"Ġsald":6320,"Ġrekord":6321,"unda":6322,"oÅ¡ais":6323,"ÑĢÐµ":6324,"ĠgalvenÄģs":6325,"ĠstarptautiskÄģs":6326,"ĠÄĮehosl":6327,"Ġskatuv":6328,"Ġlog":6329,"usÄ«":6330,"icas":6331,"Ġoks":6332,"ĠjÅ«r":6333,"ĠMiruÅ¡i":6334,"ĠvÄģrtus":6335,"ĠAngÄ¼u":6336,"1990":6337,"ĠLatgal":6338,"pirms":6339,"auju":6340,"ema":6341,"Ġvara":6342,"ĠBritu":6343,"ĠnorÄģda":6344,"Ġvok":6345,"burga":6346,"padsmit":6347,"Äģmu":6348,"ĠbarÄ«bas":6349,"Sh":6350,"Ġdraud":6351,"ĠpazÄ«stama":6352,"ph":6353,"Ġapbed":6354,"ĠpÄģrgÄģja":6355,"ĠHorv":6356,"ech":6357,"1999":6358,"Ġ77":6359,"Ð¾Ð¼":6360,"Can":6361,"dus":6362,"ildu":6363,"iskÄģm":6364,"ĠdzÄ«ve":6365,"ĠnoslÄĵdz":6366,"onÄ«m":6367,"okia":6368,"Ð¾Ñģ":6369,"ĠarhitektÅ«ras":6370,"Ġrealiz":6371,"ĠAlÅ«ks":6372,"ĠUngÄģr":6373,"eviÄįs":6374,"ĠCom":6375,"Ġkonserv":6376,"ĠinÅ¾enieris":6377,"ĠRiodeÅ¾aneiro":6378,"ĠVI":6379,"Ġaktieri":6380,"Ġatzina":6381,"Uz":6382,"emor":6383,"ĠMeks":6384,"dustr":6385,"ĠImp":6386,"ĠkaravÄ«r":6387,"malas":6388,"ĠAf":6389,"ĠPÄĵr":6390,"Ġuztic":6391,"ĠvienÄ«bu":6392,"ĠnozÄ«mÄ«g":6393,"ĠLietuvÄģ":6394,"ĠSam":6395,"ĠkrÄģsu":6396,"ĠkopÄĵjÄģ":6397,"Ġsum":6398,"ester":6399,"ĠSof":6400,"ĠOn":6401,"ĠlabÄģk":6402,"inÄģms":6403,"lija":6404,"isch":6405,"ĠRod":6406,"ĠItÄģlijÄģ":6407,"ojusi":6408,"ĠOsk":6409,"Ġdienesta":6410,"kat":6411,"ĠMÅ«zikas":6412,"ĠpiemiÅĨas":6413,"ĠvadÄ«tÄģja":6414,"Ġsievietes":6415,"ĠÄĮehoslovÄģk":6416,"Ġatsp":6417,"ĠpaÅ¡valdÄ«bas":6418,"eno":6419,"ĠHit":6420,"Ġvarian":6421,"ĠÄįempions":6422,"ehouse":6423,"elniem":6424,"Ġsaraksta":6425,"ĠlÅ«g":6426,"Ġvisa":6427,"Ġstrat":6428,"ĠapstÄģkÄ¼os":6429,"Ġnomira":6430,"ÑĦ":6431,"Ġnosauca":6432,"ĠpaÅ¡reiz":6433,"ĠcÄ«ÅĨu":6434,"ĠkrÄģsÄģ":6435,"lap":6436,"ĠLU":6437,"ĠMÄģrtiÅĨÅ¡":6438,"Ġmez":6439,"Ġ1916":6440,"ĠsakarÄģ":6441,"Ġstundas":6442,"iÅĨÄģ":6443,"ĠnolÄĵma":6444,"ly":6445,"ĠIk":6446,"ĠvadÄ«bas":6447,"ĠÐĽ":6448,"ĠWorld":6449,"Ġkausu":6450,"ĠjÄģp":6451,"ste":6452,"ĠmatemÄģti":6453,"ĠpilnÄ«gi":6454,"ĠDienvidsl":6455,"iÅ¡Ä·":6456,"Ġticis":6457,"ente":6458,"Ġreformas":6459,"ĠorÄ·":6460,"ĠLondonÄģ":6461,"ĠBarsel":6462,"NS":6463,"Ġkarag":6464,"kai":6465,"amÄ«bu":6466,"Ġgalerija":6467,"ĠvÄĵlÄĵÅ¡anu":6468,"ahs":6469,"ĠjaunÄģ":6470,"ĠvalodÄģs":6471,"cription":6472,"Ġpasniedz":6473,"ĠvajadzÄ«bÄģm":6474,"obs":6475,"ĠKristi":6476,"ometry":6477,"Äĵb":6478,"ese":6479,"nesis":6480,"properties":6481,"ĠpavadÄ«ja":6482,"laiku":6483,"ĠkrÄģsas":6484,"inus":6485,"Ġapdraud":6486,"ĠIman":6487,"ĠUEFA":6488,"ĠorganizÄģcija":6489,"Ġcita":6490,"Ġinfr":6491,"1995":6492,"onds":6493,"ĠSatvers":6494,"ĠpavÄĵl":6495,"ĠKultÅ«ra":6496,"size":6497,"ĠMÄģkslas":6498,"title":6499,"ĠapgÄģd":6500,"Ġpastipr":6501,"Ġveidot":6502,"ĠapmÄģc":6503,"erbaidÅ¾":6504,"ĠÄģtrumu":6505,"\").":6506,"Ġfig":6507,"Ä«gajiem":6508,"Ġilgst":6509,"ĠStef":6510,"Ġlietot":6511,"ĠÄģtrums":6512,"ĠmÄĵneÅ¡a":6513,"tad":6514,"ĠspÄĵja":6515,"1992":6516,"laikus":6517,"ĠNew":6518,"ĠslimÄ«bas":6519,"ue":6520,"ĠDi":6521,"ikÄģÅĨu":6522,"ĠvÄ«rieÅ¡iem":6523,"ordinates":6524,"ĠMas":6525,"eature":6526,"ĠpÄĵr":6527,"Ġiztur":6528,"Ġveidu":6529,"Ġrada":6530,"ĠÅ«deni":6531,"ĠSaeimÄģ":6532,"Ġimperators":6533,"Ġtaut":6534,"ĠiezÄ«m":6535,"ĠvienÄ«gÄģ":6536,"ĠstarpÄģ":6537,"ĠpÄĵdÄĵjo":6538,"ĠJelgavÄģ":6539,"ĠpieÅ¡Ä·irts":6540,"Ġkarogs":6541,"ĠKopÄĵjais":6542,"Ġintens":6543,"vin":6544,"Ġatv":6545,"Ġprosp":6546,"ĠspÄĵlÄĵt":6547,"ĠÄ¢e":6548,"Ġautobusu":6549,"Ġneg":6550,"ĠNap":6551,"antast":6552,"ĠarmijÄģ":6553,"ĠUzÅĨÄĵm":6554,"Ġadres":6555,"ĠDzimuÅ¡i":6556,"Ä«gajÄģ":6557,"ĠEduards":6558,"Ġpiekrastes":6559,"ĠspÄĵcÄ«g":6560,"eps":6561,"eksu":6562,"Feature":6563,"0050":6564,"geometry":6565,"Ġmikr":6566,"large":6567,"coordinates":6568,"description":6569,"ĠZinÄģtÅĨu":6570,"Ä«Å¡anos":6571,"ĠBija":6572,"Ġnotur":6573,"Ġotra":6574,"warehouse":6575,"ĠmÄĵrÄ·i":6576,"ĠaizsargÄģj":6577,"ĠKomandas":6578,"ĠAtlantijas":6579,"daÄ¼a":6580,"ĠlietuvieÅ¡u":6581,"Ð¸ÑĤ":6582,"ĠskolotÄģju":6583,"ĠOlimpiskajÄģs":6584,"ĠÅ¡tatÄģ":6585,"ĠatkarÄ«bÄģ":6586,"gÄģz":6587,"omot":6588,"Ġpirmie":6589,"ĠDub":6590,"Äĵroj":6591,"ĠnovÄĵrt":6592,"ĠbulvÄģr":6593,"Ġkomerc":6594,"ĠValdem":6595,"ĠguberÅĨas":6596,"ekas":6597,"ekven":6598,"Ä£is":6599,"ĠÅ¡ahista":6600,"latv":6601,"itÄģra":6602,"Ġmeita":6603,"Ġtelef":6604,"Ġsniedz":6605,"Ġsint":6606,"ĠminÅ«tes":6607,"Ðļ":6608,"ĠpÄģris":6609,"1997":6610,"Ġneveiksm":6611,"ĠKolumb":6612,"ĠpÄģrÄģk":6613,"tegr":6614,"ĠreÄ£ionÄģl":6615,"ĠfederÄģcija":6616,"ĠKazah":6617,"ĠcÄĵlies":6618,"tim":6619,"1996":6620,"ĠreÄ£iona":6621,"ĠKÄģrÄ¼a":6622,"Ġtilts":6623,"Ġkonstat":6624,"ĠizslÄĵgÅ¡anas":6625,"ĠDÄģv":6626,"ĠÅ¡Äģdu":6627,"Ġizmantoti":6628,"ited":6629,"ostac":6630,"ĠieÅĨÄĵm":6631,"ĠvienÄ«gais":6632,"eviÅ¡Ä·i":6633,"ĠsvÄĵtki":6634,"Ä«Ä¼a":6635,"Å¡te":6636,"ĠLÄ«v":6637,"''':":6638,"Ġide":6639,"AS":6640,"ĠVai":6641,"Ġch":6642,"Ġietilpa":6643,"ĠVairÄģk":6644,"ĠpÄģrtikas":6645,"Ġbase":6646,"Ġapskat":6647,"jauk":6648,"kÅĨaz":6649,"Äģzijas":6650,"ilis":6651,"ĠVasar":6652,"1993":6653,"RÄ«gÄģ":6654,"ÄģÅ¡ana":6655,"ĠZaÄ¼":6656,"Ġkomb":6657,"ĠkÄģds":6658,"ĠievÄĵrojami":6659,"ĠKultÅ«ras":6660,"obr":6661,"ĠoriÄ£inÄģl":6662,"ĠÄģrzem":6663,"ĠatklÄģts":6664,"anz":6665,"Ġ85":6666,"Ġnosaukta":6667,"Ġcitus":6668,"ĠfilmÄģs":6669,"ĠrÄ«c":6670,"ĠnonÄģk":6671,"Ġdiz":6672,"ĠBab":6673,"ĠzaÄ¼":6674,"ĠVel":6675,"Ġmedal":6676,"ĠtÄģda":6677,"TO":6678,"ĠtÄģdu":6679,"ĠbÄĵrniem":6680,"ĠprÄĵmijas":6681,"Ġ1910":6682,"Ġfeat":6683,"ium":6684,"ĠToms":6685,"Ġ1906":6686,"Ġsastopamas":6687,"ĠTeod":6688,"Ġ:::":6689,"TS":6690,"ĠUN":6691,"Ġdatums":6692,"ĠjÅ«lija":6693,"ĠPÄĵtera":6694,"ĠKaliforn":6695,"ĠrÅ«pniecÄ«bas":6696,"Ġpiete":6697,"ĠHu":6698,"ĠvienÄ«ba":6699,"ĠspÄĵli":6700,"2020":6701,"ĠApvienotÄģs":6702,"ĠtÄ«kla":6703,"Ġcivil":6704,"ĠFrancija":6705,"ĠEs":6706,"ĠdaÅ¾i":6707,"Ġklases":6708,"ĠRezultÄģts":6709,"ĠValst":6710,"ĠPadomes":6711,"Ġzon":6712,"ĠZv":6713,"ĠDeivids":6714,"mai":6715,"Äģlija":6716,"spÄģr":6717,"Sojuz":6718,"Ġicon":6719,"Ġsup":6720,"ĠpatÄĵr":6721,"ĠÄĮikÄģ":6722,"ĠgalvaspilsÄĵta":6723,"ĠrakstoÅ¡ie":6724,"ĠrezultatÄ«v":6725,"ĠautomaÅ¡":6726,"Ġietvar":6727,"ĠinstitÅ«tÄģ":6728,"ĠAiv":6729,"iÅĨÄģm":6730,"Ġklubi":6731,"Ġizdota":6732,"ĠNacionÄģlajÄģ":6733,"Ġdemonstr":6734,"Em":6735,"eitr":6736,"Ġakme":6737,"Ġpameta":6738,"Ġeiro":6739,"ÐµÑĤ":6740,"Ġdzelzs":6741,"Ġkuram":6742,"aukÄģz":6743,"Ġkongres":6744,"ĠjÅ«nija":6745,"ĠtÄĵva":6746,"Ġ78":6747,"Å¾ers":6748,"ĠPirmajÄģ":6749,"urgs":6750,"Ð½Ñĭ":6751,"ĠproblÄĵmas":6752,"Tour":6753,"ĠpolÄģrstac":6754,"ÄĹ":6755,"ĠAbr":6756,"ĠÐĵ":6757,"Ġ79":6758,"ĠpieÅĨemts":6759,"Str":6760,"ikta":6761,"auku":6762,"ĠPirmÄģs":6763,"Ġmeitas":6764,"Ġjum":6765,"ĠpiegÄģd":6766,"Ä«juÅ¡i":6767,"ĠÄ£erbonis":6768,"ĠEv":6769,"ĠmÄģjo":6770,"ĠlielÄģks":6771,"ĠvaldÄ«bu":6772,"ĠParÄ«ze":6773,"ĠievÄĵlÄĵja":6774,"Äĵnijas":6775,"ĠVisu":6776,"Ġcieta":6777,"âĢ¢":6778,"ĠriteÅĨbrauk":6779,"Ġkonflik":6780,"ĠpublicÄĵja":6781,"vielu":6782,"iesta":6783,"istiskÄģs":6784,"ĠapkÄģrtnÄĵ":6785,"Äģkiem":6786,"ÐŁ":6787,"Ġzeme":6788,"ĠmÄ«t":6789,"ĠpieauguÅ¡":6790,"ĠÅ¡Ä·Ä«d":6791,"Ġsatiksmes":6792,"slid":6793,"ĠvÄģrdi":6794,"Ġdeju":6795,"ĠKau":6796,"Ġievain":6797,"ĠArh":6798,"ĠradÄ«ja":6799,"Ġnaftas":6800,"Äĵds":6801,"Ġpirk":6802,"Ġneliela":6803,"oe":6804,"okÅ¡":6805,"ĠkultÅ«ra":6806,"ĠAc":6807,"Ġdodas":6808,"ĠGot":6809,"nÄĵs":6810,"ĠÄ£eogrÄģf":6811,"Ġnumuru":6812,"ĠAh":6813,"Äĵjumiem":6814,"Ġ74":6815,"ĠMeÅ¾a":6816,"ĠiestÄģdes":6817,"ĠMy":6818,"Ġsakr":6819,"ĠmÄĵneÅ¡us":6820,"fab":6821,"ĠMonre":6822,"ĠPut":6823,"ĠFrance":6824,"ĠatÅ¡Ä·iras":6825,"cijai":6826,"iru":6827,"Andr":6828,"Ġstatuss":6829,"ĠPrÅ«sijas":6830,"Ðľ":6831,"ĠIet":6832,"Ġtrij":6833,"mitr":6834,"Ġviedok":6835,"ĠUpes":6836,"ĠSKS":6837,"ĠCon":6838,"Ġstarta":6839,"ĠIndr":6840,"Ġieros":6841,"Ġapspalv":6842,"otus":6843,"Ä«nieÅ¡u":6844,"ĠÄ£enerÄģlis":6845,"Ġizlai":6846,"Ġatra":6847,"ucks":6848,"ĠpÄģrstÄģvis":6849,"ikts":6850,"ĠFilip":6851,"La":6852,"UR":6853,"ĠPu":6854,"ĠRud":6855,"ĠuzcÄĵla":6856,"ife":6857,"inÄģjumÄģ":6858,"ĠaÄ£ent":6859,"erta":6860,"ote":6861,"fel":6862,"Ġvas":6863,"aph":6864,"agas":6865,"ĠTÄĵrbatas":6866,"ĠPrezid":6867,"ĠMarijas":6868,"ĠKer":6869,"ĠES":6870,"ĠÅłt":6871,"Ġpasnieg":6872,"Ð°Ð»":6873,"ostas":6874,"ĠCilvÄĵki":6875,"aust":6876,"ĠÐĺ":6877,"ĠgrupÄģs":6878,"Ġrakstu":6879,"paÅ¡laik":6880,"liet":6881,"ĠCar":6882,"Ġtiesas":6883,"ĠlatÄ«ÅĨu":6884,"Ãµ":6885,"ĠspÄģÅĨu":6886,"ieÅ¾i":6887,"Ġlikum":6888,"eriem":6889,"ever":6890,"Ġvisai":6891,"Ġklien":6892,"Ġvirk":6893,"Ġvide":6894,"Ġpadome":6895,"Ġaustrumiem":6896,"ĠatbalstÄ«ja":6897,"Ġkv":6898,"ests":6899,"ÅĨos":6900,"ĠLa":6901,"ĠVaÅ¡":6902,"ĠvienÄ«gi":6903,"ĠkaraspÄĵku":6904,"gam":6905,"ĠRih":6906,"ĠHerc":6907,"ĠvairÄģkÄģm":6908,"auss":6909,"Ġstatusu":6910,"Ġkul":6911,"Ġle":6912,"andÄĵ":6913,"istika":6914,"Ġdramat":6915,"Ol":6916,"ĠzÄ«d":6917,"Ġstabil":6918,"ĠmedicÄ«nas":6919,"ĠkategorijÄģ":6920,"Ġpazem":6921,"Ġarmiju":6922,"Ġobjekti":6923,"Ad":6924,"illa":6925,"ĠdaÅ¾ÄģdÄģm":6926,"Ġdiennakts":6927,"Ġses":6928,"ĠLei":6929,"opl":6930,"icus":6931,"ĠÄ£imene":6932,"Ø§Ù":6933,"Å«dr":6934,"ĠapbÅ«ve":6935,"ĠLielais":6936,"ĠbÄ«skaps":6937,"Ġ73":6938,"ĠcentrÄģlajÄģ":6939,"ĠParÄ«zes":6940,"ĠMer":6941,"Ä«gÄģm":6942,"alc":6943,"ĠTok":6944,"Ġpieredz":6945,"iezgan":6946,"ĠprivÄģt":6947,"orb":6948,"Ġizsl":6949,"Ä£ints":6950,"ĠpÄģrÅĨÄĵma":6951,"berts":6952,"ĠvaldÄ«Å¡anas":6953,"1994":6954,"roc":6955,"zs":6956,"ĠdiriÄ£":6957,"Ġdu":6958,"===":6959,"ĠleÅĨ":6960,"ĠKos":6961,"ĠzvaigÅ¾ÅĨu":6962,"ĠJÅ«ras":6963,"ĠÄ¼Äģva":6964,"Ġizmaks":6965,"Ġlabor":6966,"Ġog":6967,"Ġpaug":6968,"isas":6969,"gaÄ¼u":6970,"ĠKen":6971,"Ġkonta":6972,"Ġnormas":6973,"den":6974,"apar":6975,"ĠkonstitÅ«":6976,"ĠmÄģtÄ«te":6977,"ĠDav":6978,"eto":6979,"ieÅ¡anÄģs":6980,"ĠUnivers":6981,"ĠTomass":6982,"Te":6983,"po":6984,"ĠTran":6985,"ĠFutbol":6986,"sku":6987,"ĠLub":6988,"ĠvairÄģkkÄģrt":6989,"ĠVarÅ¡":6990,"Ðł":6991,"Ä«ls":6992,"ĠKarjera":6993,"Ġans":6994,"Ġmaija":6995,"ÃĹ":6996,"ĠsvÄģr":6997,"organiz":6998,"ĠLau":6999,"ĠHal":7000,"Ġpagar":7001,"ĠsaistÄ«ta":7002,"Ä¶":7003,"ĠÄªpaÅ¡":7004,"ĠpavasarÄ«":7005,"Ġietvaros":7006,"atora":7007,"ican":7008,"AR":7009,"ius":7010,"Ġliek":7011,"Ġmigr":7012,"ĠJÄĵz":7013,"ĠHorvÄģt":7014,"ieda":7015,"Ġfantast":7016,"ĠIelu":7017,"ĠNeatkar":7018,"ĠKlubs":7019,"mer":7020,"Ġdob":7021,"Ġjap":7022,"krÄģs":7023,"Ġpaaudz":7024,"saim":7025,"ĠmarÅ¡ruts":7026,"ĠgrÄģdiem":7027,"ÅĨÄģs":7028,"ĠÅ¡Äģdi":7029,"ĠmetÄģl":7030,"Ġdiametr":7031,"Ġnr":7032,"Ġdekl":7033,"ĠÄĮehijas":7034,"Ġpo":7035,"ĠstrÄģdÄģjis":7036,"ĠsalÄ«dzinoÅ¡i":7037,"ĠDar":7038,"orth":7039,"ĠmetÄģla":7040,"Ġuztver":7041,"Ä«gus":7042,"ĠSpÄĵlÄĵtÄģja":7043,"Ġcietoks":7044,"ĠGaisa":7045,"ĠMur":7046,"ĠCO":7047,"ĠCr":7048,"Ġnovembra":7049,"Ġezeri":7050,"ĠiznÄģca":7051,"ĠKuldÄ«gas":7052,"niekam":7053,"Ġekonomikas":7054,"omi":7055,"ĠdaÅ¾Äģdus":7056,"Ġvielu":7057,"ary":7058,"Ġ1913":7059,"ĠSel":7060,"oduc":7061,"ĠtumÅ¡i":7062,"ĠsastÄģd":7063,"Ġloma":7064,"ÄĵtÄģm":7065,"Ġmuzik":7066,"ĠtumÅ¡":7067,"Ġpusi":7068,"Ġsomu":7069,"ĠSku":7070,"Ġsatiksme":7071,"Ġpadar":7072,"kus":7073,"ĠlielkÅĨaz":7074,"Ġdarbinieki":7075,"ĠAtÅ¡Ä·ir":7076,"Ġcauri":7077,"Ġcen":7078,"ĠÐ½":7079,"ĠregulÄģri":7080,"ory":7081,"oze":7082,"Å«ns":7083,"ĠseptiÅĨ":7084,"ĠatgÄģd":7085,"ĠEst":7086,"Ġgald":7087,"JPG":7088,"ĠvidusskolÄģ":7089,"ĠdibinÄģja":7090,"ĠDÄģrz":7091,"Ġmarta":7092,"ĠlocekÄ¼i":7093,"ĠMaikls":7094,"Ġbas":7095,"ĠVÄĵr":7096,"Ġveidojot":7097,"ĠvaldÄ«ja":7098,"Äĵzijas":7099,"Ä·e":7100,"ĠÅ¡iem":7101,"eph":7102,"Ġgredz":7103,"ieÅ¾as":7104,"rietumu":7105,"ĠstudÄĵja":7106,"ĠdeputÄģtu":7107,"ĠBerlÄ«nes":7108,"eros":7109,"ĠFo":7110,"ĠÄ·Äĵn":7111,"ĠmÄģjÄģs":7112,"ĠViena":7113,"Ġprogrammu":7114,"ĠpaÅ¡valdÄ«bu":7115,"tons":7116,"stÅ«r":7117,"ĠvÄģrtsar":7118,"ĠAleksejs":7119,"ĠrobeÅ¾a":7120,"ĠEdvar":7121,"ĠbÄĵrni":7122,"Ä«gos":7123,"ĠJu":7124,"ĠWh":7125,"Sal":7126,"otne":7127,"Ġabas":7128,"Ġsievas":7129,"Ġpolicijas":7130,"lijs":7131,"ile":7132,"Ġbalta":7133,"ĠmeÅ¾os":7134,"1939":7135,"Ġsingls":7136,"ĠFre":7137,"Sl":7138,"ÄģÅ¡anu":7139,"ĠdÅ¾":7140,"ĠLÄ«b":7141,"Å«na":7142,"gÄģru":7143,"ĠMÄģris":7144,"ĠapstiprinÄģja":7145,"kait":7146,"onijs":7147,"ĠAstr":7148,"Ġdarbiem":7149,"ĠBauskas":7150,"RÄ«ga":7151,"ĠLi":7152,"imetr":7153,"ĠÐĳ":7154,"ĠtreÅ¡Äģ":7155,"oÅ¾u":7156,"ĠrobeÅ¾ojas":7157,"Ġkabinets":7158,"Nokia":7159,"kalns":7160,"hs":7161,"omÄģs":7162,"grÄģf":7163,"iki":7164,"andi":7165,"ĠinformÄģcija":7166,"Ġpozit":7167,"ĠLÄ«":7168,"Ä«tiem":7169,"Ġmira":7170,"ment":7171,"Ä±":7172,"Ġsaz":7173,"Ġlaul":7174,"ĠTat":7175,"ĠbijuÅ¡i":7176,"ĠPekina":7177,"ĠSacens":7178,"oki":7179,"Ġnekad":7180,"ĠbrÄ«vÄ«bas":7181,"Ġmetodes":7182,"eniski":7183,"ĠLove":7184,"ĠTir":7185,"ull":7186,"bals":7187,"ites":7188,"ĠiekÄ¼autas":7189,"ÄģvÄģs":7190,"ĠBrazÄ«lijas":7191,"laicÄ«gi":7192,"ÄĢrÄĵjÄģs":7193,"ĠPret":7194,"ĠstÅ«r":7195,"ĠriteÅĨbrauc":7196,"urg":7197,"olaik":7198,"ĠDer":7199,"ĠkrÄģsa":7200,"OS":7201,"Ġapz":7202,"Ġbrauk":7203,"Sv":7204,"olÄģ":7205,"ĠÐ²":7206,"ĠaprÄ«k":7207,"ĠKazahst":7208,"ect":7209,"ĠkursÄĵ":7210,"ĠBos":7211,"ĠjÄĵdz":7212,"ĠÄįempiona":7213,"ĠatklÄģj":7214,"ĠstrÄģdÄģ":7215,"Ġpapildus":7216,"ikÄģcijas":7217,"lay":7218,"ĠrobeÅ¾u":7219,"Ġrajonos":7220,"Ġstadions":7221,"ĠvienkÄģrÅ¡":7222,"ĠAzerbaidÅ¾":7223,"ordu":7224,"Äĵtika":7225,"Ġsekund":7226,"ĠpÄĵdÄĵjais":7227,"ĠziÅĨÄģ":7228,"ĠskaÅĨas":7229,"ĠnÄģkamajÄģ":7230,"Ġtrolejbusu":7231,"aris":7232,"Ġton":7233,"onda":7234,"Å«c":7235,"ĠIndiv":7236,"Ġansamb":7237,"Î¿":7238,"ĠIzplat":7239,"ucion":7240,"bÅ«ves":7241,"akers":7242,"Ġcilt":7243,"Ġkris":7244,"ĠLielÄģkÄģs":7245,"Ġkapteinis":7246,"FC":7247,"Red":7248,"Ġkaval":7249,"ilg":7250,"ĠSkot":7251,"ĠkuÄ£u":7252,"Ġmiljonus":7253,"ĠPatr":7254,"ĠKrieviju":7255,"ĠturpmÄģk":7256,"ĠstilÄģ":7257,"jai":7258,"ĠdzimtÄģ":7259,"mane":7260,"ĠIevÄĵroj":7261,"ĠkopvÄĵrtÄĵjumÄģ":7262,"Ġteik":7263,"ĠjÅ«ru":7264,"ĠÄģrkÄģrt":7265,"emin":7266,"ÄģcijÄģs":7267,"ĠvidÄĵj":7268,"Ġpati":7269,"ĠDienvidu":7270,"1940":7271,"ĠuzbrucÄĵjs":7272,"Ġskatuves":7273,"ater":7274,"tiÅĨa":7275,"Äģnos":7276,"ĠbrÄ«vprÄģt":7277,"Ġdial":7278,"ĠOlimpiskÄģs":7279,"Äĵjumus":7280,"ĠMuz":7281,"ĠdistancÄĵ":7282,"Ġdiezgan":7283,"Ġfoto":7284,"ĠArn":7285,"JÄģnis":7286,"ÐĿ":7287,"ĠpilsÄĵtÄģs":7288,"ĠNÄģkam":7289,"Ġsirds":7290,"ĠNorm":7291,"Ġkatra":7292,"uldas":7293,"bor":7294,"ath":7295,"ĠNep":7296,"Äģties":7297,"Å«nu":7298,"ĠdolÄģru":7299,"etro":7300,"ĠpazÄ«m":7301,"Ġpiecas":7302,"Ġnopiet":7303,"bÄĵr":7304,"kom":7305,"Ġsieva":7306,"Ġvari":7307,"Ġnosac":7308,"ĠÄ¶Ä«nÄģ":7309,"Ġtelpas":7310,"Äĵda":7311,"ĠpievÄĵrs":7312,"ĠmaÄ£istr":7313,"ĠieguldÄ«jumu":7314,"ĠSatversmes":7315,"vok":7316,"ĠBost":7317,"ĠpasludinÄģja":7318,"Ġisl":7319,"ĠKa":7320,"ĠmÄģtes":7321,"Ġpiedzima":7322,"ĠRÅ«":7323,"ĠRÄ«gu":7324,"Ġcep":7325,"Ġnociet":7326,"ÄģcÄģs":7327,"ĠmÅ«ziÄ·is":7328,"ĠAin":7329,"ĠvisÄģs":7330,"ainu":7331,"ektor":7332,"ĠtÄĵviÅĨi":7333,"kalnes":7334,"Ġglob":7335,"ĠPir":7336,"ĠjomÄģ":7337,"ĠIzskats":7338,"ift":7339,"Ġsezon":7340,"ĠstratÄĵÄ£":7341,"eÄ¼as":7342,"ĠiespÄĵja":7343,"ĠZil":7344,"ĠAng":7345,"ĠÄĮÄģrl":7346,"ceÄ¼u":7347,"ĠmÄģcÄ«jÄģs":7348,"ĠveselÄ«bas":7349,"ĠStaÄ¼":7350,"ĠDen":7351,"ĠKrievu":7352,"ĠbijuÅ¡Äģs":7353,"oldem":7354,"inter":7355,"ĠDemokrÄģt":7356,"Ġcelta":7357,"Ġgrib":7358,"burg":7359,"ĠiegÅ«stot":7360,"ĠsaÅĨÄĵmis":7361,"ĠNapole":7362,"per":7363,"Ġkartes":7364,"ĠPriekÅ¡":7365,"own":7366,"ĠMedic":7367,"ĠpriekÅ¡sÄĵdÄĵtÄģja":7368,"Ġcilts":7369,"ĠkompozÄ«cijas":7370,"jevs":7371,"ĠZemgal":7372,"ĠatkÄģrtoti":7373,"ĠViegl":7374,"ienus":7375,"Ġalfab":7376,"ĠSent":7377,"lass":7378,"ake":7379,"ĠReÄ£":7380,"ĠHans":7381,"ĠCo":7382,"ĠKrista":7383,"ĠPrÄģ":7384,"ĠmÄģkslinieki":7385,"ĠJÄĵkabpils":7386,"Ġauto":7387,"ÐºÐ°":7388,"Grand":7389,"ĠEkonom":7390,"Ed":7391,"ĠarÄģbu":7392,"ĠDev":7393,"Ġglab":7394,"Ġsekm":7395,"Ġprogrammat":7396,"ĠgalvaspilsÄĵtu":7397,"ĠbibliotÄĵka":7398,"ĠRem":7399,"ĠlÄ«Äįa":7400,"atorijas":7401,"ĠIntern":7402,"Ä«sl":7403,"Ġarvien":7404,"ĠÅ¡ie":7405,"ĠlatvieÅ¡i":7406,"Ġhercogistes":7407,"uÄ¼u":7408,"ipelÄģ":7409,"iÅ¾ets":7410,"ankÅ«v":7411,"Ġpolitisko":7412,"ĠkalendÄģra":7413,"Ġ(+":7414,"ĠapvÄĵrs":7415,"Ġinterneta":7416,"irst":7417,"irka":7418,"eji":7419,"Ġveikta":7420,"ĠkÄ¼Å«t":7421,"Ġkomisijas":7422,"ke":7423,"ĠNop":7424,"mugur":7425,"ĠsacensÄ«bu":7426,"ĠapzÄ«mÄĵ":7427,"Ġrepublikas":7428,"Ġ1911":7429,"ĠÐº":7430,"Ġakciju":7431,"enciÄģl":7432,"Sat":7433,"ÄĵtajÄģ":7434,"Ġpretend":7435,"ĠsaimniecÄ«bas":7436,"ĠizraisÄ«ja":7437,"ĠPagaidu":7438,"ĠGustavs":7439,"Ġnoskaidr":7440,"ĠRos":7441,"ĠDiscipl":7442,"ĠPrix":7443,"ae":7444,"eses":7445,"Ġprojektu":7446,"ĠparÄģdÄģs":7447,"ĠVaÅ¡ingt":7448,"ire":7449,"ĠGo":7450,"kopÄģ":7451,"ĠSarkanÄģ":7452,"ilu":7453,"ĠDaba":7454,"inÄģÅ¡anÄģs":7455,"ĠcÄ«ÅĨÄģ":7456,"nam":7457,"ĠIt":7458,"ĠÅłeit":7459,"Ġaizviet":7460,"ĠmÅ«ra":7461,"ĠZelts":7462,"ĠstacijÄģ":7463,"ĠZviedrijÄģ":7464,"Ġiestud":7465,"Es":7466,"ĠEx":7467,"Ġneuz":7468,"ĠekspedÄ«cijas":7469,"Ġ''\"":7470,"ĠVad":7471,"Ġ250":7472,"ĠÅ¡obrÄ«d":7473,"ĠKalniÅĨÅ¡":7474,"iji":7475,"enda":7476,"ĠbrÄ«vÄģ":7477,"Pl":7478,"ford":7479,"ĠpatstÄģv":7480,"Ġlaukuma":7481,"ĠoperÄģcijas":7482,"ĠReiz":7483,"Ġastes":7484,"Ġmuzeja":7485,"Kur":7486,"nÄ«":7487,"ĠÅ¡Äģdas":7488,"Ġtermin":7489,"ĠGrupas":7490,"ĠstrÄģdnieku":7491,"Ġkarte":7492,"ĠkosmosÄģ":7493,"ĠAÄ¼":7494,"Äģze":7495,"Ġstudiju":7496,"ĠApbalvojumi":7497,"Ġlikums":7498,"ereti":7499,"ĠcentÄģs":7500,"dze":7501,"iskajos":7502,"Ġsastopami":7503,"ĠEdgars":7504,"Ġkvar":7505,"Ġarest":7506,"Ġiero":7507,"Ġapkopoti":7508,"out":7509,"Ġuzved":7510,"enim":7511,"och":7512,"ĠsÄģcis":7513,"ĠJev":7514,"ĠFerrari":7515,"gans":7516,".);":7517,"1991":7518,"ĠdaiÄ¼":7519,"ĠvecÄģki":7520,"ĠSlov":7521,"ĠHelsin":7522,"ÄģÅĨi":7523,"Ġ88":7524,"Ä«Ä¼":7525,"oloÄ£isko":7526,"ĠSpÄĵlÄĵtÄģjs":7527,"Gal":7528,"ĠPÄ«t":7529,"Ġsavai":7530,"ĠÅ¡tÄģ":7531,"ĠkopÄĵjais":7532,"krievu":7533,"audu":7534,"Ġapgabalu":7535,"ĠIvans":7536,"ĠKarjeras":7537,"eÅ¾isors":7538,"ĠRoma":7539,"ĠmÅ«Å¾a":7540,"Ġpersonas":7541,"ĠAugÅ¡":7542,"ĠOst":7543,"Ġ84":7544,"ĠvecÄģkais":7545,"Ġmuguras":7546,"ĠIedzÄ«votÄģju":7547,"eÄįu":7548,"jans":7549,"kur":7550,"Äĵga":7551,"Ġtill":7552,"urÄ£":7553,"ĠKas":7554,"ĠpusfinÄģl":7555,"ojuÅ¡i":7556,"agon":7557,"Ġrezid":7558,"ĠViÄ¼ÅĨas":7559,"ĠFel":7560,"ĠÄģrsts":7561,"oguÄ¼":7562,"Ġparlamenta":7563,"bs":7564,"Ġ96":7565,"ĠjoslÄģ":7566,"US":7567,"ĠlomÄģ":7568,"Ġ800":7569,"ĠtehnoloÄ£iju":7570,"ĠKomandu":7571,"Ġair":7572,"Ġpateicoties":7573,"Ġzivju":7574,"ĠRezultÄģti":7575,"ĠlabÄģ":7576,"aki":7577,"anna":7578,"amie":7579,"AF":7580,"eus":7581,"Ġnac":7582,"ĠVankÅ«v":7583,"Ġkungu":7584,"zÄĵl":7585,"ardu":7586,"ĠRaim":7587,"Ġapciet":7588,"Ġrietumiem":7589,"ĠpaziÅĨots":7590,"ĠenerÄ£ijas":7591,"Ġkamer":7592,"Ġiepl":7593,"Ġuzcelta":7594,"Ġkinor":7595,"ĠSaks":7596,"ĠMaur":7597,"ĠceÄ¼Äģ":7598,"Ġtaisn":7599,"ugu":7600,"ĠÐ¾":7601,"tics":7602,"ĠMaskava":7603,"vietas":7604,"Ġatzin":7605,"ĠKijevas":7606,"Ðŀ":7607,"avÄģr":7608,"Äģte":7609,"pi":7610,"anku":7611,"ante":7612,"ĠuzskatÄ«ta":7613,"Ġizrak":7614,"Ġstarptautiskais":7615,"Ġviduslaiku":7616,"ĠAlberts":7617,"Ġartil":7618,"âĪĴ":7619,"ĠVies":7620,"Äĵmu":7621,"ĠizmÄĵÄ£":7622,"izÄĵ":7623,"Ġfol":7624,"ĠAnat":7625,"Ġizmekl":7626,"Ð¸Ð¸":7627,"Ġpulc":7628,"ĠKn":7629,"ĠstarptautiskajÄģ":7630,"Ġos":7631,"iskus":7632,"Äĵmas":7633,"Ġkonstruk":7634,"ĠdzÄ«vnieki":7635,"Ġkonkursa":7636,"ĠfakultÄģtes":7637,"rid":7638,"ĠtÄ«m":7639,"Ġkauja":7640,"Tur":7641,"ĠLejas":7642,"ĠTukuma":7643,"Ġkoled":7644,"ĠpavadoÅĨi":7645,"Rob":7646,"ĠSÄĵl":7647,"Ġveidiem":7648,"Ġsasniedzot":7649,"ĠvienkÄģrÅ¡i":7650,"trauk":7651,"ĠdaÄ¼ai":7652,"encÄĵ":7653,"Ġproduktu":7654,"Ġtostarp":7655,"Ġpuse":7656,"Ġseptembra":7657,"Ġlidojuma":7658,"ĠautomÄģt":7659,"Ġsauszemes":7660,"jÄģs":7661,"Ġdivos":7662,"Ġkampa":7663,"ĠPazÄ«st":7664,"Äģkos":7665,"Ġvietne":7666,"Äģrd":7667,"ĠSvar":7668,"ĠLik":7669,"anders":7670,"ĠKarl":7671,"ĠiznÄģk":7672,"sen":7673,"ÄĴ":7674,"Äĵjusies":7675,"ĠMold":7676,"ozefs":7677,"ĠpanÄģkumus":7678,"''\"":7679,"anÄįu":7680,"grÄ«vas":7681,"ĠGold":7682,"ago":7683,"Ð¸Ð¼":7684,"ĠsalÄģs":7685,"ĠnacionÄģlais":7686,"Ġstipri":7687,"ĠJÅ«lija":7688,"ĠÅ¡au":7689,"ĠEsp":7690,"ĠComp":7691,"ĠValters":7692,"ĠkausÄģ":7693,"ĠvadÄ«tÄģji":7694,"jÅ«":7695,"ĠtreÅ¡ais":7696,"ĠIekÅ¡":7697,"astÄģv":7698,"dzas":7699,"ÄģdÄĵs":7700,"Ġintegr":7701,"Ġpilson":7702,"istÄģnas":7703,"ĠDalÄ«b":7704,"klÄģj":7705,"tis":7706,"ĠPus":7707,"mits":7708,"entÄģlÄģs":7709,"mÄģs":7710,"alna":7711,"ĠfakultÄģtÄĵ":7712,"ĠkaragÄģj":7713,"kiem":7714,"ises":7715,"ĠdemokrÄģt":7716,"ĠSistemÄģtika":7717,"ando":7718,"Ġsekoja":7719,"Ġietekmi":7720,"ĠSidneja":7721,"lases":7722,"ĠKarls":7723,"apt":7724,"ĠraksturÄ«ga":7725,"Ġarhitekts":7726,"ĠiekÄģrtas":7727,"ĠVÄĵ":7728,"ercedes":7729,"ĠmehÄģn":7730,"ĠDÅ¾ordÅ¾s":7731,"ektÄģ":7732,"iesma":7733,"ĠgleznotÄģjs":7734,"ĠkatrÄģ":7735,"ĠProfes":7736,"ett":7737,"Ġpagr":7738,"skai":7739,"Ġprocess":7740,"Ġsmadz":7741,"Ġ04":7742,"ĠpilsÄĵtÄģm":7743,"Ġuzbrukumu":7744,"Ġoperat":7745,"ĠSasnieg":7746,"ime":7747,"ĠâĢĵ":7748,"ieÅ¡anu":7749,"ĠLV":7750,"ĠEg":7751,"ardi":7752,"ĠLondonas":7753,"ĠapprecÄĵjÄģs":7754,"Ġ.":7755,"ĠArtÅ«rs":7756,"Äĵriju":7757,"inÄģties":7758,"ĠPremj":7759,"ĠpÄĵtÄ«jumi":7760,"ĠStarptautiskÄģs":7761,"Ġjoslas":7762,"ĠlÄ«deris":7763,"ĠsultÄģ":7764,"ofs":7765,"ĠMadon":7766,"che":7767,"Ġabu":7768,"ĠBÄĵrziÅĨÅ¡":7769,"Pas":7770,"Äģliem":7771,"Ġ600":7772,"kalna":7773,"ĠÅ¡Ä«m":7774,"ĠotrÄģs":7775,"Izst":7776,"Ä«Å¡a":7777,"ĠOgres":7778,"Ġdarboties":7779,"Ä«les":7780,"Ġdeklar":7781,"%)":7782,"ĠTikai":7783,"ĠÅłie":7784,"Ġciemam":7785,"Ð¶":7786,"ĠzinÄģtnieki":7787,"ĠRiÄįards":7788,"ĠTom":7789,"iÅĨus":7790,"enss":7791,"Ġ87":7792,"Ġvada":7793,"ĠlielÄģka":7794,"ĠTurnÄ«r":7795,"ĠatstÄģja":7796,"FK":7797,"apr":7798,"spÄĵles":7799,"akovs":7800,"Ġturku":7801,"ĠdaÄ¼Äģs":7802,"ĠiekÄ¼auj":7803,"ĠmÄģksliniec":7804,"Ġsaukta":7805,"Äģlos":7806,"Ġ95":7807,"ĠlabÄģkÄģ":7808,"ĠMarÅ¡":7809,"ĠlÄ«menÄ«":7810,"ĠnespÄĵja":7811,"ĠLigzd":7812,"Ġraib":7813,"ĠOto":7814,"ĠnodaÄ¼a":7815,"ĠvÄ«ru":7816,"Ġlapas":7817,"cer":7818,"Ġdim":7819,"Äģksl":7820,"Ġprim":7821,"agi":7822,"Ġ1903":7823,"ĠTartu":7824,"ĠJÄĵzus":7825,"adÄģ":7826,"ojama":7827,"ĠaizsÄģk":7828,"ĠmÅ«ziku":7829,"ĠblÄ«v":7830,"Ġfrontes":7831,"ĠSun":7832,"ĠMagn":7833,"burgu":7834,"Ġobjektu":7835,"ĠLabÄģkais":7836,"Ġkomiteja":7837,"Ġjebkur":7838,"icks":7839,"ĠkvalifikÄģcijas":7840,"ĠskaÅĨu":7841,"Ġrec":7842,"Ġkriti":7843,"ceÄ¼Å¡":7844,"ĠSarkanÄģs":7845,"okl":7846,"ĠHor":7847,"ĠlabajÄģ":7848,"turnÄ«r":7849,"Ġapkai":7850,"ĠMartins":7851,"ĠzemÄĵ":7852,"ĠSten":7853,"Ġvirsnieks":7854,"ĠkaujÄģs":7855,"ĠAtlanta":7856,"ĠAnnas":7857,"ĠÄĮer":7858,"Ġ),":7859,"Ġkoks":7860,"ĠNar":7861,"ĠkopÄĵjo":7862,"meÅĨu":7863,"Ġdem":7864,"ĠÅ¡ai":7865,"ĠAll":7866,"ĠSomijÄģ":7867,"Ġfilozofs":7868,"Il":7869,"Ġrest":7870,"ĠBiz":7871,"ĠpÄģrdÄĵvÄĵja":7872,"ĠBerg":7873,"azd":7874,"Ġlielo":7875,"Ġorient":7876,"ĠlielÄģku":7877,"Ġfrak":7878,"ĠDatums":7879,"AN":7880,"ÅĨÄ£Äĵl":7881,"anga":7882,"onia":7883,"Ġlieli":7884,"ĠKomun":7885,"Ġbasketbolists":7886,"Ġtornis":7887,"ĠDag":7888,"ĠDmitr":7889,"ĠgÄģzes":7890,"ĠÅ¡tata":7891,"ĠgrÅ«ti":7892,"ĠÃ":7893,"Ġpot":7894,"elÄĵ":7895,"Ġpierakst":7896,"istiskÄģ":7897,"ĠKras":7898,"ĠvÄģrdiem":7899,"Ġhercoga":7900,"ĠkreisajÄģ":7901,"ĠPols":7902,"ĠuzskaitÄ«jums":7903,"Ġvingr":7904,"antas":7905,"que":7906,"ĠsÄĵrijÄģ":7907,"Balt":7908,"ĠsvÄģrst":7909,"Ġtap":7910,"ĠÅ¡Ä·Äĵrso":7911,"ĠorÄ·estr":7912,"Ġnorit":7913,"ĠJug":7914,"ĠaprÄ«Ä¼a":7915,"ĠgrÄģmatÄģ":7916,"ĠsvÄĵtku":7917,"Ã¼r":7918,"sis":7919,"ĠMill":7920,"Ġatg":7921,"ÄĵnÄģ":7922,"ĠViÅĨi":7923,"ĠFord":7924,"ainis":7925,"ÐºÑģ":7926,"ĠPlesk":7927,"ĠÅ¡Å«nas":7928,"kovs":7929,"aska":7930,"enn":7931,"Ä«nÄģs":7932,"ĠÐĿ":7933,"Ġputniem":7934,"vedis":7935,"jus":7936,"Ġinf":7937,"ĠvairÄģkos":7938,"ĠÅªdens":7939,"IS":7940,"ĠzinÄģtniskÄģs":7941,"ĠieceÄ¼":7942,"Ġ1909":7943,"ĠIgors":7944,"ĠSaim":7945,"Ġbrig":7946,"ĠplÄģna":7947,"ĠpÄĵtÄ«jumu":7948,"Ġrekordu":7949,"Ġsaimniec":7950,"ESCO":7951,"Ġdzelten":7952,"Ġdebes":7953,"ĠuzstÄģdÄ«ts":7954,"Ġukr":7955,"ĠriÅĨ":7956,"auka":7957,"Ġ86":7958,"ĠturklÄģt":7959,"ĠattÄ«stÄ«ba":7960,"Äĵjus":7961,"atÄ«vÄģ":7962,"ĠMuiÅ¾":7963,"Ä«gÄģko":7964,"Ġ91":7965,"Ġpulks":7966,"Ġpagastiem":7967,"Ä·er":7968,"Ġkart":7969,"ĠviÅĨai":7970,"aunas":7971,"ĠlaukumÄģ":7972,"ĠÄįetri":7973,"ĠSasniegumi":7974,"Maz":7975,"Ġvirsp":7976,"ĠnacionÄģlÄģ":7977,"Ak":7978,"Blu":7979,"ĠsavÄģm":7980,"Ġpagasti":7981,"ikss":7982,"ĠKHL":7983,"ekÄ¼us":7984,"Ġnosaukts":7985,"Ġdeleg":7986,"Ġmusul":7987,"PS":7988,"à¤":7989,"ĠVoldem":7990,"Äģlie":7991,"unas":7992,"Ġrekon":7993,"Ġer":7994,"Ä«ÅĨas":7995,"ĠISO":7996,"Ġsavieno":7997,"ĠÄ«patn":7998,"kos":7999,"iles":8000,"ĠZar":8001,"ĠTriju":8002,"ĠSibÄ«rijas":8003,"ĠEurope":8004,"Ġieviet":8005,"ĠzÄģlÄĵ":8006,"ĠHav":8007,"Ġpirmajiem":8008,"ĠSavu":8009,"Ġkolh":8010,"Ġver":8011,"ĠdalÄ«jis":8012,"Ġupju":8013,"ello":8014,"ĠmilitÄģro":8015,"KP":8016,"zinÄģt":8017,"ĠÅłar":8018,"ĠiekÄ¼uva":8019,"ĠfiziÄ·is":8020,"aels":8021,"aida":8022,"andin":8023,"Ä«nija":8024,"ĠDzimta":8025,"ĠpakÄģpes":8026,"ĠHeinrihs":8027,"etÄģ":8028,"atori":8029,"Ġizt":8030,"ardo":8031,"ĠAtÅ¡Ä·irÄ«bÄģ":8032,"oup":8033,"Äª":8034,"opus":8035,"Äģne":8036,"ĠÐ´":8037,"Ats":8038,"inam":8039,"ĠnoÅ¡":8040,"ienos":8041,"ĠKanÄģdÄģ":8042,"ĠOktobr":8043,"pÄĵjams":8044,"ĠVj":8045,"ĠziemeÄ¼rietumos":8046,"vieta":8047,"ĠÐ¸":8048,"iÅ¡a":8049,"Ġ1907":8050,"ĠmÄģjaslap":8051,"raÅ¾":8052,"enb":8053,"ĠKe":8054,"ĠTies":8055,"ĠpÄģrvÄĵr":8056,"ĠÅ¡ahists":8057,"âĢł":8058,"Ġilga":8059,"ĠdÄģr":8060,"ĠTuv":8061,"ĠGan":8062,"ĠspÄĵkiem":8063,"ĠJÄĵkabs":8064,"ĠbrÄ«dÄ«":8065,"Ġlaikmeta":8066,"orizon":8067,"ĠOy":8068,"Ġ02":8069,"Ġieguvusi":8070,"ĠJaunzÄĵl":8071,"Ġbataljons":8072,"Ġsegumu":8073,"Äĵjoties":8074,"ome":8075,"Ġuzreiz":8076,"Ġkolek":8077,"ĠpieÅ¡Ä·irta":8078,"ĠRÅ«dolfs":8079,"')":8080,"ĠkustÄ«bu":8081,"Ġrajonu":8082,"Ġneliels":8083,"ĠgaiÅ¡i":8084,"ĠDem":8085,"Ġbalss":8086,"Ġtext":8087,"iklop":8088,"ĠmehÄģnis":8089,"IV":8090,"pÄĵt":8091,"ĠZemnieku":8092,"Ġformu":8093,"way":8094,"otnÄĵ":8095,"ollo":8096,"oÅ¡as":8097,"ices":8098,"ĠpriekÅ¡Äģ":8099,"Ġsavienota":8100,"ĠautoceÄ¼a":8101,"Ġklimats":8102,"Ġdubul":8103,"%,":8104,"GM":8105,"osmos":8106,"ĠRecords":8107,"ĠTalsu":8108,"Ġogl":8109,"Ġ92":8110,"iltenes":8111,"ĠtÄĵviÅĨÅ¡":8112,"Austr":8113,"onÄ«":8114,"elli":8115,"ojams":8116,"iÄģlÄģ":8117,"ĠkÄģdas":8118,"ĠdziedÄģtÄģja":8119,"ĠekspedÄ«cija":8120,"ĠpriekÅ¡me":8121,"ĠBaznÄ«cas":8122,"Pie":8123,"ĠSeb":8124,"ĠpreÄįu":8125,"Ġpasugas":8126,"ĠmeÅ¾u":8127,"ĠsaistÄ«ts":8128,"ĠHot":8129,"Ġasfal":8130,"ĠmÄģcÄ«tÄģjs":8131,"Ġvidusskolas":8132,"ĠApdzÄ«votÄģ":8133,"ĠLuk":8134,"ĠBrun":8135,"ĠmaÄį":8136,"ĠVispÄģr":8137,"Ġizraisa":8138,"De":8139,"Ġutt":8140,"Ġfos":8141,"ĠAustrÄģlijÄģ":8142,"Cel":8143,"ĠeÄ¼":8144,"Ġsaules":8145,"Ġtuks":8146,"ĠDisk":8147,"ĠSudrabs":8148,"ĠRas":8149,"Ġlaikos":8150,"ĠrezultÄģts":8151,"Ġprojekts":8152,"Ġapgr":8153,"Ġhum":8154,"ĠsaistÄ«ti":8155,"Ġuzdevums":8156,"Ġrotas":8157,"ĠRef":8158,"ĠNev":8159,"ĠHr":8160,"ĠIns":8161,"ĠsalÄģm":8162,"ĠziemÄģ":8163,"Ġpamata":8164,"ieb":8165,"eÄ¼iem":8166,"ĠbiedrÄ«ba":8167,"ĠDaugavpilÄ«":8168,"Ġhercogs":8169,"Ġoz":8170,"Ġdistr":8171,"ĠÅ¡Äģda":8172,"Ġkaram":8173,"bergas":8174,"ĠvÄģcbalt":8175,"ĠkultÅ«r":8176,"ĠUNESCO":8177,"ĠizÅ¡Ä·":8178,"ÄĵlÄģs":8179,"Ġdatub":8180,"iÄ·a":8181,"Äĵtos":8182,"Ġvidusskolu":8183,"ĠbÄĵgÄ¼u":8184,"ĠizdzÄ«v":8185,"otajiem":8186,"ĠBuk":8187,"Ġ01":8188,"Ġ1901":8189,"ĠglÄģb":8190,"ĠâĻ":8191,"ĠIedzÄ«votÄģji":8192,"att":8193,"anka":8194,"Ġveidots":8195,"ĠStÄ«v":8196,"ĠÄ·au":8197,"Ġizvair":8198,"Ġizveidojot":8199,"ĠnovÄĵrojumu":8200,"Ġbiedru":8201,"ĠpolitiÄ·i":8202,"Ġrokas":8203,"aga":8204,"ĠkaÅ¾":8205,"ikovs":8206,"ĠcÄ«kst":8207,"Ġstingr":8208,"Äĵdas":8209,"atur":8210,"ĠlÄĵn":8211,"ĠMol":8212,"Ġvienlaikus":8213,"ĠapdzÄ«votÄģs":8214,"ĠÅ«denskr":8215,"Ġserv":8216,"Ġtilp":8217,"ame":8218,"ames":8219,"ade":8220,"Äįes":8221,"ĠCD":8222,"Ġindustr":8223,"ĠjaunÄģs":8224,"ĠesoÅ¡o":8225,"ĠspÄģrnu":8226,"ĠTallinas":8227,"Ġby":8228,"Ġmemor":8229,"ĠVD":8230,"ÄĵtÄģjiem":8231,"ankt":8232,"Ġatjaunoja":8233,"VD":8234,"Ġizpr":8235,"ĠTurp":8236,"ĠNASA":8237,"\"),":8238,"Ġils":8239,"Ġpriek":8240,"Ġatsauces":8241,"ĠLosandÅ¾elosas":8242,"enÅ¡te":8243,"ĠAtrodas":8244,"Bul":8245,"zes":8246,"ĠLev":8247,"ovi":8248,"ĠProj":8249,"ĠFilm":8250,"Ġbeidzot":8251,"ĠÄįempionÄģtu":8252,"ĠÄ«paÅ¡umÄģ":8253,"ĠapvienÄ«bas":8254,"Ġmeistars":8255,"Ġmeistara":8256,"ĠkristÄģl":8257,"ON":8258,"Ñİ":8259,"ĠPubl":8260,"ĠgrÅ«t":8261,"Ġ83":8262,"ĠslÄĵpoÅ¡ana":8263,"Ġiecirk":8264,"ĠDisciplÄ«na":8265,"Ġnogul":8266,"Ġcikl":8267,"ĠAttÄĵlu":8268,"ĠapvienÄ«ba":8269,"Ġministra":8270,"ĠkaravÄ«ru":8271,"TP":8272,"eÅĨi":8273,"ĠVirs":8274,"celt":8275,"lig":8276,"Ã¨":8277,"ĠCent":8278,"glis":8279,"Ġlietots":8280,"Ġfrekven":8281,"ĠLosandÅ¾elosa":8282,"ĠaviÄģcijas":8283,"ĠÄĮikÄģgas":8284,"Ä«no":8285,"indows":8286,"Aleks":8287,"ĠpakÄ¼autÄ«bÄģ":8288,"cijÄģs":8289,"Ġneitr":8290,"Ġpref":8291,"Ġaugstu":8292,"ĠmÄĵrÄģ":8293,"ĠÄ£enerÄģl":8294,"ĠSlovÄģkijas":8295,"uts":8296,"Ġdaudzveid":8297,"Ġietekme":8298,"Ġfantastikas":8299,"amÄ«ba":8300,"ĠskaÅĨ":8301,"Ġpakalpojumu":8302,"Ġgalva":8303,"ĠdienÄģm":8304,"ĠnÄģvi":8305,"ĠatraÅ¡anÄģs":8306,"%.":8307,"Ġtank":8308,"ĠnogÄģd":8309,"Ġrub":8310,"Äĵrv":8311,"Äĵks":8312,"ĠaugÅ¡u":8313,"aÅĨas":8314,"Ġ00":8315,"Ä«Ä£":8316,"ilk":8317,"ostud":8318,"mann":8319,"Ġdati":8320,"ĠmarÅ¡ruta":8321,"Ġapg":8322,"Ġprop":8323,"egas":8324,"Å«dams":8325,"Ġizmantotas":8326,"jon":8327,"ry":8328,"Ġdv":8329,"ĠDre":8330,"Ġ98":8331,"Ġprocesu":8332,"ĠLo":8333,"andieÅ¡u":8334,"Ġapvieno":8335,"erdin":8336,"Lakers":8337,"Ġvulk":8338,"Ġatvas":8339,"ĠDeb":8340,"ĠNom":8341,"ĠÐ³":8342,"eniss":8343,"Ġprotest":8344,"Ġzivis":8345,"ĠAdr":8346,"dzis":8347,"aisti":8348,"Ġkarad":8349,"Ð¸Ðµ":8350,"ĠKurzemÄĵ":8351,"ĠatjaunoÅ¡anas":8352,"ĠKun":8353,"Ġiete":8354,"Ä«viem":8355,"ĠGod":8356,"Ġkomandai":8357,"Ġrezerves":8358,"omer":8359,"lase":8360,"ĠuzmanÄ«bu":8361,"Kon":8362,"ĠkÄģjas":8363,"ĠGol":8364,"Ġnepar":8365,"ingradas":8366,"ĠcenÅ¡as":8367,"Î½":8368,"ĠPo":8369,"emi":8370,"ĠportÄģl":8371,"ÅĨÅ¡":8372,"ĠÄ«paÅ¡nieks":8373,"ĠmateriÄģlu":8374,"ĠliteratÅ«rÄģ":8375,"ĠuzvÄģrds":8376,"tl":8377,"Ġtun":8378,"ĠarhipelÄģ":8379,"ĠavÄģr":8380,"ĠpakÄģpeniski":8381,"rup":8382,"ÏĤ":8383,"Ġlika":8384,"ĠFilips":8385,"ĠatseviÅ¡Ä·i":8386,"ĠÅħujorkÄģ":8387,"Ðĺ":8388,"Ġ1500":8389,"Ġaugusta":8390,"ĠdÄ«":8391,"Ä«nijas":8392,"Ġmodelis":8393,"Ġpapildu":8394,"Ġtuvu":8395,"hards":8396,"ĠÄ·eiz":8397,"Ġbiedri":8398,"eÅĨa":8399,"ĠÄģdas":8400,"ĠkompÄģnijas":8401,"Ġstarptautisko":8402,"ĠPamat":8403,"ĠMac":8404,"Ġnoteica":8405,"pret":8406,"ĠdzÄ«vÄĵ":8407,"Ġnopost":8408,"ĠPortugÄģles":8409,"jana":8410,"Ġii":8411,"ieÄ£":8412,"Ġsaul":8413,"ony":8414,"agm":8415,"ĠCetur":8416,"OR":8417,"ĠsÄĵrija":8418,"Ġlic":8419,"oloÄ£iskÄģ":8420,"ĠvÄĵsturi":8421,"ĠMc":8422,"ĠpolitiskÄģs":8423,"ĠNopelniem":8424,"Pol":8425,"Ġpalik":8426,"ĠSpÄģnijÄģ":8427,"kara":8428,"Ġbataljona":8429,"ĠveiksmÄ«gi":8430,"ĠSingl":8431,"ĠErnests":8432,"bi":8433,"Ġmak":8434,"Ġpretest":8435,"Ġpagaidu":8436,"ĠlielÄģkÄģs":8437,"vadr":8438,"ĠtÄģdas":8439,"ombard":8440,"ĠÅ¡osejas":8441,"uf":8442,"ĠstÄģvokli":8443,"ĠIzraÄĵlas":8444,"ĠVisas":8445,"ĠÅ½ans":8446,"ĠBerlÄ«nÄĵ":8447,"ĠpaÅ¡i":8448,"ĠgrÄģmat":8449,"Ġieviesa":8450,"ĠizvÄĵlÄĵjÄģs":8451,"ĠpaÅ¡as":8452,"ĠapriÅĨÄ·Ä«":8453,"Ġnelielu":8454,"ĠizsÅ«t":8455,"ĠLudv":8456,"Ġvizu":8457,"Ġaf":8458,"ĠSS":8459,"Ġgatv":8460,"ĠTurklÄģt":8461,"Ġoktobra":8462,"ĠfinÄģls":8463,"Ġdoktora":8464,"navas":8465,"Ġtvai":8466,"ĠÐ¢":8467,"olfa":8468,"ĠvÄĵj":8469,"grupas":8470,"ĠpÄģrkÄģp":8471,"ĠZig":8472,"Äĵdijas":8473,"ĠVisi":8474,"Ġ1897":8475,"ĠromieÅ¡u":8476,"ĠpozÄ«cijas":8477,"ĠimpÄĵrijÄģ":8478,"Wh":8479,"div":8480,"emd":8481,"ĠBruÅĨ":8482,"ĠlielÄģkoties":8483,"ĠAlfrÄĵds":8484,"ĠPe":8485,"ĠVeid":8486,"ejot":8487,"ĠvienlaicÄ«gi":8488,"Ġinici":8489,"Ġrepres":8490,"ĠdiÅ¾kun":8491,"ĠbÄ«skapa":8492,"Å«Å¡anas":8493,"ĠNer":8494,"ĠieguvÄĵjs":8495,"ĠElektr":8496,"ÄģÄįpl":8497,"last":8498,"ĠbieÅ¾Äģk":8499,"ĠformÄģ":8500,"Ġrekordi":8501,"HK":8502,"enÄĵm":8503,"ĠsÄĵnes":8504,"trets":8505,"Ġcip":8506,"evskis":8507,"Äĵniem":8508,"ĠOlimpisko":8509,"ĠMÄģcÄ«jÄģs":8510,"arus":8511,"oram":8512,"akmens":8513,"ĠdzimÅ¡anas":8514,"Ġpussal":8515,"ĠinstitÅ«ts":8516,"Ġposmu":8517,"ĠANO":8518,"ojumam":8519,"ĠGai":8520,"ĠaugstÄģko":8521,"iÅ¡s":8522,"ĠmÅ«sdienÄģm":8523,"Ġzirgu":8524,"ĠfederÄģcijas":8525,"ĠnomainÄ«ja":8526,"stam":8527,"ĠZied":8528,"Ġaktu":8529,"ĠorganizÄģciju":8530,"ĠOtrais":8531,"gaism":8532,"ĠKab":8533,"ĠIÄ¼":8534,"ĠIzveid":8535,"gol":8536,"ĠMÄĵr":8537,"ĠHok":8538,"Ġveidos":8539,"pusÄĵ":8540,"ĠVidzemÄĵ":8541,"ĠstÄģsts":8542,"Ġkontroli":8543,"Ġmusku":8544,"Ġvienam":8545,"Ġlabu":8546,"ĠspÄĵkÄģ":8547,"ĠaparÄģts":8548,"ĠpienÄģkumus":8549,"Ġ118":8550,"Ġfiks":8551,"oviÄįa":8552,"ĠteritorijÄģm":8553,"Ġbankas":8554,"Kl":8555,"Ġspir":8556,"Ġdecembra":8557,"ĠÅ¡Ä·iras":8558,"Äĵsl":8559,"ĠsÄģ":8560,"ĠbrÄģz":8561,"ĠakadÄĵmijÄģ":8562,"ĠmÄģju":8563,"Ġpurva":8564,"Äģjies":8565,"Ä·ed":8566,"Äģtes":8567,"ĠDÅ¾o":8568,"ĠizstrÄģdÄģja":8569,"ĠGeorgs":8570,"ĠnokÄ¼":8571,"Ren":8572,"Ġden":8573,"urk":8574,"uriem":8575,"ĠViet":8576,"ĠMis":8577,"Ġapglab":8578,"Ġaizmugur":8579,"Ġdaudzumu":8580,"ĠvietÄĵjo":8581,"Ġpilnvar":8582,"Ġnoteikt":8583,"ĠDziesma":8584,"ĠParlam":8585,"ĠpiemÄ«t":8586,"ĠvÄĵrtÄ«bas":8587,"Ġsarunas":8588,"ekm":8589,"ĠJurijs":8590,"ĠJevg":8591,"ĠKle":8592,"Ġparka":8593,"igh":8594,"1989":8595,"ĠZiemeÄ¼amerikÄģ":8596,"1938":8597,"ĠizplatÄ«bas":8598,"ĠolimpiÄģdÄĵs":8599,"ĠPÄ¼av":8600,"Ġret":8601,"Ġ99":8602,"ĠPoloc":8603,"ĠÄĵkÄģ":8604,"ĠTÄģdÄĵjÄģdi":8605,"ĠzemÄĵs":8606,"Ġflotes":8607,"ĠpareizticÄ«go":8608,"inoties":8609,"atÄ«vo":8610,"Ġindi":8611,"ĠAnglijÄģ":8612,"ĠNa":8613,"edo":8614,"Ġnega":8615,"Ġaizst":8616,"oÄ¼Å¡ev":8617,"mita":8618,"ĠBeÄ¼Ä£ijas":8619,"ĠIP":8620,"ĠEin":8621,"Ġaugstskol":8622,"ĠkompÄģnija":8623,"ĠprÄĵmiju":8624,"ĠOskars":8625,"dÅ¾":8626,"Ä«vo":8627,"Ġuzdevumu":8628,"fon":8629,"pes":8630,"ito":8631,"ehu":8632,"Ġkinoakt":8633,"Ãł":8634,"Ð¸ÑĢ":8635,"pilsÄĵtas":8636,"ĠEdm":8637,"Ġobjekt":8638,"ĠIzglÄ«tÄ«ba":8639,"ĠnepÄģrtrauk":8640,"Ġvain":8641,"Ġpier":8642,"1918":8643,"Ġdarbos":8644,"ĠolimpiÄģdÄĵ":8645,"Ġiebruka":8646,"Ġizzud":8647,"Re":8648,"uÄ¼a":8649,"ĠdzÄ«vniekiem":8650,"ĠArtur":8651,"ĠDÅ¾eks":8652,"ĠtÄģdi":8653,"ĠmÄģcÄ«bas":8654,"ertik":8655,"Äĵrijs":8656,"ĠziÅĨas":8657,"Ð²Ð°":8658,"Ġinterv":8659,"ĠdivÄ«zijÄģ":8660,"ĠPavad":8661,"ĠFormula":8662,"Ġatom":8663,"ĠRiga":8664,"etÄĵ":8665,"Ġ06":8666,"ĠuzvarÄĵtÄģji":8667,"Å«Å¡ana":8668,"Ġaptur":8669,"ĠGor":8670,"ÐµÐ»":8671,"luat":8672,"ĠizcÄ«not":8673,"1988":8674,"ĠÅłaha":8675,"Ġvisliel":8676,"Ġbaltu":8677,"Ġgrupai":8678,"ĠkapitÄģ":8679,"ĠapdzÄ«vota":8680,"ĠstÄģvoklÄ«":8681,"vÄĵstur":8682,"ĠraksturÄ«gs":8683,"Ġslaven":8684,"ĠkÅ«r":8685,"ĠBoh":8686,"ĠRit":8687,"ĠDor":8688,"skal":8689,"ĠizglÄ«tÄ«bu":8690,"ĠAugstÄģkÄģ":8691,"ĠvidÄĵjciems":8692,"ĠseviÅ¡Ä·i":8693,"Ġvic":8694,"ĠDur":8695,"ogres":8696,"nik":8697,"onio":8698,"ĠVor":8699,"Ġuzaic":8700,"ievieÅ¡u":8701,"ogi":8702,"aps":8703,"Äģmi":8704,"Ġmasas":8705,"ĠgalvaspilsÄĵtÄģ":8706,"!\"":8707,"Ðĵ":8708,"Ä«Å¡":8709,"eth":8710,"Äĵmijas":8711,"ĠOt":8712,"Ġpartiz":8713,"ĠPilsÄĵtÄģ":8714,"ĠVieglatl":8715,"Man":8716,"ĠBÄģr":8717,"iesm":8718,"ĠÄįetriem":8719,"Ġprodukt":8720,"ĠbagÄģtÄģ":8721,"ement":8722,"ĠatsÄģk":8723,"eÅ¾a":8724,"ĠraÅ¾oÅ¡ana":8725,"Ġsaukts":8726,"tal":8727,"urus":8728,"Ġdaudzu":8729,"ĠvÄģrtu":8730,"Ġpavisam":8731,"Ġotrs":8732,"ĠbaznÄ«cÄģ":8733,"ĠAlbums":8734,"Äģtus":8735,"Ġaizs":8736,"ĠSkolas":8737,"ĠzinÄģma":8738,"ĠDarba":8739,"ĠÅĨem":8740,"ĠRus":8741,"Ġjurid":8742,"ĠIzvietojies":8743,"ĠtÄ«mekÄ¼a":8744,"ĠBre":8745,"Ġrefer":8746,"Äģvas":8747,"ĠÄ£itÄģr":8748,"ĠkÄģdreiz":8749,"ecs":8750,"ĠkÄ¼uvusi":8751,"ĠPastÄģv":8752,"Ġpolitikas":8753,"ĠDivas":8754,"Ġvi":8755,"Ġligz":8756,"ĠKalnu":8757,"ĠJapÄģnÄģ":8758,"Ġimperatora":8759,"Amer":8760,"ĠsavvaÄ¼as":8761,"ĠDiskogrÄģfija":8762,"ĠiesÄģk":8763,"uÅ¡os":8764,"ĠgrÄģv":8765,"Ġpiesaist":8766,"Ġmasa":8767,"ĠromÄģns":8768,"ĠuzÅĨemta":8769,"ĠAS":8770,"Ġtrans":8771,"SKA":8772,"NK":8773,"over":8774,"ĠnacionÄģlÄģs":8775,"ĠÅłobrÄ«d":8776,"ĠastoÅĨ":8777,"Ġpussalas":8778,"aÅ¡u":8779,"atÅ«ras":8780,"any":8781,"Ġinvest":8782,"ĠÄ£imnÄģzijÄģ":8783,"ĠMoz":8784,"onso":8785,"Ġveikti":8786,"ĠtÅ«kstoÅ¡iem":8787,"ĠfestivÄģlÄģ":8788,"LA":8789,"Ä«Å¡anÄģ":8790,"Ġkari":8791,"iber":8792,"ĠzemÄĵm":8793,"ĠsadalÄ«ta":8794,"Ġiekaroja":8795,"ĠOÄ¼egs":8796,"Dauga":8797,"Åį":8798,"ĠRaiÅĨa":8799,"ĠÅ¡Ä·Äĵp":8800,"ĠkrÄģjums":8801,"Ġ//":8802,"ĠAfgan":8803,"bar":8804,"ãĤ":8805,"Ġenc":8806,"ĠLuks":8807,"Äģjusi":8808,"Ġaugsta":8809,"ĠmÅ«zika":8810,"ĠLudzas":8811,"ĠMÄģksl":8812,"ipt":8813,"inÄģto":8814,"Ġnovadu":8815,"auja":8816,"ĠmatemÄģtikas":8817,"Äĵtikas":8818,"ĠLatvijai":8819,"Ġ130":8820,"ĠfebruÄģra":8821,"ĠapakÅ¡dzimta":8822,"ĠMedaÄ¼u":8823,"Ġbaz":8824,"Ġpriest":8825,"ĠGren":8826,"efic":8827,"Ġnodib":8828,"ĠÄ£imeni":8829,"ĠattiecÄ«bÄģ":8830,"ĠplaÅ¡u":8831,"ĠvÄĵrtÄ«bu":8832,"Ġkoris":8833,"ĠArgentÄ«nas":8834,"Ġkombin":8835,"ĠAnatol":8836,"ĠpotenciÄģl":8837,"iras":8838,"ĠbÄ«st":8839,"ĠKrimas":8840,"ĠdalÄ«bnieku":8841,"ĠturpinÄģjÄģs":8842,"ĠdabÄģ":8843,"ĠSerbijas":8844,"Ïģ":8845,"angl":8846,"ĠTol":8847,"ĠapÅ¡":8848,"aini":8849,"ĠStar":8850,"ĠDzint":8851,"ĠplatÄ«bas":8852,"ĠDaÅ¾i":8853,"Sc":8854,"ĠØ":8855,"ĠsaÅ¡":8856,"enbergs":8857,"Ä«vÄģs":8858,"Ġaukst":8859,"Atsauces":8860,"Ñĳ":8861,"ĠSev":8862,"adi":8863,"iekas":8864,"Ġauguma":8865,"ĠindividuÄģlajÄģ":8866,"ĠierindojÄģs":8867,"ĠBostonas":8868,"ikla":8869,"Ġkonstr":8870,"ĠturnÄ«ru":8871,"ĠSvÄĵt":8872,"Ġdebijas":8873,"ĠÅ«denst":8874,"ĠBarselona":8875,"je":8876,"lava":8877,"ĠÄįÅ«":8878,"ĠklÄģta":8879,"Ġ1902":8880,"ĠparedzÄĵta":8881,"ĠprocesÄģ":8882,"ĠIndividu":8883,"Ġtras":8884,"ĠBronza":8885,"Ġvietnieks":8886,"augiem":8887,"Ġnodarbojas":8888,"ĠparlamentÄģ":8889,"orus":8890,"ilas":8891,"ĠLÄ«g":8892,"ĠlÄ«dzÄ«ga":8893,"vara":8894,"Ġnoraid":8895,"Ġseko":8896,"oÅ¡ajiem":8897,"Å«das":8898,"zu":8899,"ietÄģ":8900,"Ġizaug":8901,"ĠdaÅ¾iem":8902,"ĠLielbritÄģnijÄģ":8903,"ĠpÄģrtrauca":8904,"landes":8905,"iests":8906,"Ġkaim":8907,"Å¡o":8908,"ĠDec":8909,"Ġpraks":8910,"ĠStat":8911,"Ġoperas":8912,"EF":8913,"daÄ¼as":8914,"oslav":8915,"ĠFern":8916,"ĠplÄģks":8917,"ĠprogrammÄģ":8918,"ĠokeÄģnÄģ":8919,"Ġkonferences":8920,"Ġtolaik":8921,"oficiÄģl":8922,"ĠnodarbojÄģs":8923,"ĠÄ·ermenis":8924,"pal":8925,"Äĵru":8926,"Ġdarbinieku":8927,"ĠgrupÄģm":8928,"Ġministru":8929,"ĠÄĢfrikÄģ":8930,"ĠpÄģvesta":8931,"Ùħ":8932,"ĠGreg":8933,"iÄįi":8934,"eitn":8935,"ĠOpen":8936,"ĠatmosfÄĵras":8937,"UN":8938,"eku":8939,"ĠDel":8940,"Äģds":8941,"Ġ1899":8942,"Av":8943,"Ġsod":8944,"ĠDim":8945,"ulpt":8946,"Ġsports":8947,"Ġoblig":8948,"Ġsportists":8949,"ĠSezona":8950,"Ġvij":8951,"ĠLed":8952,"Ġlielgabal":8953,"1944":8954,"ĠaizvadÄ«jis":8955,"Ġiepaz":8956,"kaidr":8957,"Å¾iem":8958,"ĠDibinÄģ":8959,"Ġroka":8960,"Ġemigr":8961,"ĠvÄģcbaltieÅ¡u":8962,"ainÄģ":8963,"ializ":8964,"ĠjÄģs":8965,"uku":8966,"Ġ94":8967,"ĠrakstÄ«ja":8968,"ĠjapÄģÅĨu":8969,"Ġhorizon":8970,"ĠvÄģrti":8971,"ĠuniversitÄģte":8972,"ĠtehnoloÄ£ijas":8973,"ĠCentrÄģlÄģ":8974,"ĠapmeklÄĵja":8975,"ĠÅ¾urnÄģlists":8976,"Å«ka":8977,"tras":8978,"obsl":8979,"Ġdaudziem":8980,"ĠnodroÅ¡inÄģt":8981,"ĠmilitÄģrÄģ":8982,"entÄģlÄģ":8983,"ĠscenÄģrija":8984,"ĠSand":8985,"iete":8986,"ĠpriekÅ¡nieks":8987,"Ġmeteor":8988,"Ġostas":8989,"ĠmÄģjaslapÄģ":8990,"Ġrekl":8991,"Ġuzkr":8992,"grieÄ·u":8993,"Ġ3000":8994,"ĠKrim":8995,"ĠÐĶ":8996,"vadu":8997,"Ġlauka":8998,"ĠrÅ«pnÄ«ca":8999,"ĠatspoguÄ¼":9000,"sterd":9001,"ĠdzÄĵr":9002,"ĠJeÄ¼":9003,"ĠGrand":9004,"Ġizveidojusies":9005,"Ð½Ð°":9006,"Ġkrastu":9007,"ĠZviedrija":9008,"ĠtagadÄĵjÄģs":9009,"ĠGaujas":9010,"nese":9011,"Ð¸Ñģ":9012,"Ġuzturas":9013,"Ġrevolucion":9014,"dab":9015,"Ġizol":9016,"1980":9017,"ĠZviedru":9018,"ĠefektÄ«v":9019,"ĠVasara":9020,"ĠVÄģc":9021,"Ġreorganiz":9022,"plan":9023,"Ġturpina":9024,"ĠvieglatlÄĵts":9025,"ĠtelpÄģs":9026,"Ġtautu":9027,"idas":9028,"ĠgÅ«t":9029,"Ä«kÅ¡u":9030,"Ġklubam":9031,"mainÄ«ts":9032,"ĠiekÄģrtu":9033,"Ġredaktors":9034,"1920":9035,"Äģto":9036,"Ġaizvien":9037,"Ġperioda":9038,"ĠpriekÅ¡sÄĵdÄĵtÄģju":9039,"Ġmestr":9040,"ĠBavÄģr":9041,"Ġvirtu":9042,"ĠFranÄįu":9043,"ĠdibinÄģtÄģjs":9044,"Ġraksti":9045,"ĠreÄ£ionos":9046,"Ġnenot":9047,"ĠÐ¼":9048,"ĠKomp":9049,"ĠjÄģiz":9050,"ĠBulgÄģrijas":9051,"indu":9052,"Ġdiec":9053,"1919":9054,"Ġsavam":9055,"Ä«lis":9056,"inÄģjumus":9057,"Å«su":9058,"Ġpiesp":9059,"ĠÅ¡Å«nu":9060,"ĠiegÄģdÄģjÄģs":9061,"Î¹":9062,"ĠTek":9063,"ĠIeg":9064,"Ġgaruma":9065,"Äĵze":9066,"Ġmetod":9067,"Ġkilometrus":9068,"War":9069,"ĠVik":9070,"Ä·us":9071,"Ġnoveda":9072,"Ġteorija":9073,"ĠsaÄ«s":9074,"ĠNacionÄģlais":9075,"Ġlapu":9076,"ĠMÅ«sdienu":9077,"ertÄģ":9078,"ĠlÄģd":9079,"ĠSept":9080,"ĠPod":9081,"ĠpiekÄģp":9082,"Ġlejup":9083,"ital":9084,"Ġpieauga":9085,"ozi":9086,"Ġ97":9087,"Ġcentri":9088,"ĠaugstumÄģ":9089,"ĠBull":9090,"Ġposma":9091,"han":9092,"ya":9093,"ĠDieva":9094,"Ð¸Ð»":9095,"entam":9096,"ifr":9097,"dienu":9098,"ĠErn":9099,"ĠkÅĨazs":9100,"ĠIzglÄ«tÄ«bas":9101,"ÂŃ":9102,"ĠspÄ«d":9103,"ĠOS":9104,"uÅ¡ais":9105,"ĠligzdoÅ¡anas":9106,"ĠÄĢdolfs":9107,"ĠVirsl":9108,"ĠDailes":9109,"ĠspÄĵlÄĵtÄģja":9110,"Ġaizsargs":9111,"Ġkinof":9112,"ĠDienvidslÄģvijas":9113,".âĢĵ":9114,"ĠciemÄģ":9115,"Bronza":9116,"InformÄģcija":9117,"Ġend":9118,"ĠViest":9119,"Ð¾ÑģÑĤ":9120,"ĠDienvidÄģfr":9121,"ĠiesaistÄ«jÄģs":9122,"aila":9123,"ĠMind":9124,"Ġasp":9125,"ĠatseviÅ¡Ä·u":9126,"ĠGruzijas":9127,"vÄĵ":9128,"Ġtal":9129,"anus":9130,"Ġmais":9131,"Ġkonven":9132,"Ä«le":9133,"ĠsabiedrÄ«bÄģ":9134,"ĠZiemeÄ¼amerikas":9135,"ĠÄ¢ints":9136,"ĠprecÄ«z":9137,"ĠlikvidÄĵja":9138,"ĠnosÅ«tÄ«ja":9139,"ĠbudÅ¾":9140,"ĠCel":9141,"Ġdekor":9142,"ĠMarÅ¡ru":9143,"Bl":9144,"ex":9145,"asas":9146,"inn":9147,"Ġmalas":9148,"unÄģ":9149,"entos":9150,"ĠminÄĵts":9151,"Ġnoteiktu":9152,"Ġelementi":9153,"ĠÄ«sl":9154,"Ġnodal":9155,"ĠBj":9156,"ĠDis":9157,"Ġgalvu":9158,"Å«du":9159,"ĠDÅ¾er":9160,"Ġstrau":9161,"1984":9162,"ĠstadionÄģ":9163,"Ġteorijas":9164,"Ðĳ":9165,"Ġev":9166,"Ġvag":9167,"Ġvertik":9168,"Ġ89":9169,"Ð¾ÑĤ":9170,"Ġaltern":9171,"ĠgalvaspilsÄĵtas":9172,"ĠatgrieÅ¡anÄģs":9173,"ĠRumÄģnijas":9174,"ĠDes":9175,"ĠvadÄ«ba":9176,"ĠKov":9177,"ĠLaur":9178,"ĠuzskatÄ«t":9179,"ĠfiniÅ¡":9180,"Ġpamatskola":9181,"ieÅ¡ana":9182,"ĠDu":9183,"ĠJaunÄģ":9184,"stÄģÅ¾u":9185,"ĠUniversitÄģte":9186,"assvÄĵt":9187,"ĠmatemÄģtiÄ·is":9188,"nei":9189,"ĠJos":9190,"Ġ93":9191,"ĠGrÄģm":9192,"ciemi":9193,"1941":9194,"ĠpiedzÄ«voja":9195,"No":9196,"Ġdet":9197,"ĠAmsterd":9198,"Ġx":9199,"imi":9200,"ĠIer":9201,"empl":9202,"vÄģrds":9203,"ĠKlusÄģ":9204,"biedr":9205,"ĠtiesÄ«bÄģm":9206,"Ġversijas":9207,"Ġapliec":9208,"jo":9209,"Ġkron":9210,"Ġhol":9211,"Åłaha":9212,"ĠartilÄĵrijas":9213,"Ġcits":9214,"ĠvÄĵlÄĵjÄģs":9215,"Ġaplenk":9216,"Ġgubern":9217,"ĠnÄģca":9218,"ĠÄ·Äĵd":9219,"veda":9220,"ĠsadalÄ«jums":9221,"Ġuzbruka":9222,"ldis":9223,"ĠseriÄģlÄģ":9224,"eiropas":9225,"Ma":9226,"ĠstÄģj":9227,"Ġalk":9228,"Ġlietas":9229,"Ġavotos":9230,"Ġtilta":9231,"AC":9232,"ĠKaut":9233,"ĠCity":9234,"Ä«sies":9235,"eÅ¡a":9236,"Ġvaldnieks":9237,"ĠmÄĵÄ£inÄģja":9238,"ĠpriekÅ¡pilsÄĵta":9239,"zi":9240,"ster":9241,"ĠHC":9242,"ĠStep":9243,"ĠspÄĵks":9244,"ĠslimÄ«bu":9245,"ĠuzsÄģkta":9246,"ĠKristus":9247,"ĠsalÄ«dzinot":9248,"ĠPiedalÄ«jies":9249,"ĠreaÄ£":9250,"Ġhim":9251,"ĠpagÄģt":9252,"ĠpieminekÄ¼i":9253,"ĠhokejÄģ":9254,"ÐµÐ²Ð¸Ñĩ":9255,"Ġ:::*":9256,"LN":9257,"Ġspal":9258,"icÄ«l":9259,"ĠsvÄ«tr":9260,"tie":9261,"grÄģm":9262,"ĠOtrajÄģ":9263,"Ġpieteka":9264,"hr":9265,"izÄĵja":9266,"ĠLiet":9267,"ĠNozÄ«m":9268,"Ġraksturo":9269,"ĠKluba":9270,"Ġkosmonauts":9271,"Geor":9272,"ĠDin":9273,"erss":9274,"ĠAnn":9275,"ĠmÄģkslinieku":9276,"ĠnepiecieÅ¡ama":9277,"Ġobjekts":9278,"ĠtagadÄĵjÄģ":9279,"ĠnokÄ¼uva":9280,"kÄģj":9281,"uris":9282,"ÄģrajÄģ":9283,"aver":9284,"odÄģ":9285,"ĠHo":9286,"ĠdaÅ¾Äģda":9287,"ĠpakaÄ¼":9288,"Ġproducents":9289,"lic":9290,"atÄ«vu":9291,"1986":9292,"ĠViÅĨas":9293,"efa":9294,"su":9295,"indr":9296,"ĠLind":9297,"Ġveidota":9298,"ÐµÐ¼":9299,"ĠskolotÄģjs":9300,"augi":9301,"Ġnoteikta":9302,"1974":9303,"Ġneizdev":9304,"LabÄģkais":9305,"Ġstils":9306,"ĠlÄ«nijÄģ":9307,"ĠattiecÄ«gi":9308,"ĠpopulÄģcijas":9309,"ĠpiedÄģvÄģja":9310,"ĠjÄģt":9311,"Ġsavrup":9312,"Ġjaunatnes":9313,"Ä«kstes":9314,"ĠValdis":9315,"ÄĵÅĨ":9316,"Ġtoreiz":9317,"udmal":9318,"Ġtabula":9319,"fas":9320,"eltu":9321,"ĠpievÄĵr":9322,"ĠdzÄ«vok":9323,"valds":9324,"ĠpÄĵtÄ«jumiem":9325,"ĠIndijÄģ":9326,"formu":9327,"ĠÄĵrÄ£":9328,"aro":9329,"ĠPur":9330,"Ġiespaid":9331,"ĠapakÅ¡dzim":9332,"Ġbrauciens":9333,"ĠDarbi":9334,"Ġprefekt":9335,"ham":9336,"rist":9337,"ado":9338,"ĠRol":9339,"Ġzonas":9340,"ĠplÅ«st":9341,"ĠValent":9342,"Ġupi":9343,"ĠpiedÄģvÄģ":9344,"ĠatgÄģdina":9345,"Ġnereti":9346,"Ġgabal":9347,"ezn":9348,"Ġgalvenie":9349,"manu":9350,"ĠÄ¶Ä«m":9351,"ĠbarÄ«bu":9352,"ĠpazÄ«stam":9353,"Dzim":9354,"punk":9355,"ĠDir":9356,"ĠpÄģrz":9357,"ĠsÄģkums":9358,"ĠGrupu":9359,"Ġvaldnieku":9360,"Ġcitos":9361,"Ġ1895":9362,"Ġekspluat":9363,"skÄģbes":9364,"Ġpabeigta":9365,"Ġmor":9366,"ĠOb":9367,"ĠGrupa":9368,"ĠmedÄ«":9369,"Ġ05":9370,"Ġsadurs":9371,"Ġuzbrukuma":9372,"Ġelementu":9373,"ĠpÄģrvalde":9374,"adelf":9375,"ĠRam":9376,"ĠÄįetru":9377,"1970":9378,"ĠHermanis":9379,"ĠmÄ«lest":9380,"ĠvÄģj":9381,"iza":9382,"Ġzemju":9383,"ĠnovÄĵrot":9384,"ĠTÄģdÄĵÄ¼":9385,"ĠIzplatÄ«ba":9386,"ĠPremjerl":9387,"Sta":9388,"Sudr":9389,"izÄģcija":9390,"ĠSiÅ¾ets":9391,"ĠBieÅ¾i":9392,"ĠnozÄ«mi":9393,"ĠItÄģlija":9394,"ĠstÄģst":9395,"ĠNovgor":9396,"ĠPiln":9397,"ĠapsÅ«dz":9398,"Ġunik":9399,"oft":9400,"ĠuzvarÄĵtÄģju":9401,"Ð¸Ñħ":9402,"ĠvÄĵrtÄ«ba":9403,"Ġsapl":9404,"ĠmilitÄģrais":9405,"ĠMadonas":9406,"ĠEdvards":9407,"Ġenciklop":9408,"AL":9409,"Å¾Äĵl":9410,"ĠGen":9411,"OK":9412,"Ġsimp":9413,"Ġspektr":9414,"ĠdaudzÄģs":9415,"Ġpiesl":9416,"1962":9417,"KÄģr":9418,"ĠnÄģcÄģs":9419,"ĠkrÅ«":9420,"ĠreÄģl":9421,"Ġ07":9422,"Ġputns":9423,"ĠsvarÄ«g":9424,"ÑģÐºÐ°Ñı":9425,"ĠfinÄģlturnÄ«r":9426,"Ġapbalvots":9427,"John":9428,"ĠdiÅ¾kuniga":9429,"dauga":9430,"ĠTib":9431,"ĠOm":9432,"ĠpasÅ«t":9433,"Å«des":9434,"Ġdzirn":9435,"ahu":9436,"ĠStamb":9437,"ĠMadrid":9438,"ismÄģ":9439,"ĠVest":9440,"Ġatver":9441,"vedÄ«ba":9442,"ĠseÅ¡as":9443,"Ġiemeslu":9444,"gus":9445,"tif":9446,"ojuÅ¡ies":9447,"itÄģt":9448,"ĠplÄģt":9449,"ĠslÄģp":9450,"Ġlikuma":9451,"ĠmagnÄĵt":9452,"ĠLuksem":9453,"Ġtrau":9454,"ĠvidÄĵ":9455,"ĠdaÅ¾kÄģrt":9456,"eidzot":9457,"hu":9458,"Ġkait":9459,"ĠFebruÄģr":9460,"ĠpÄĵtniecÄ«bas":9461,"Ġskaitlis":9462,"ĠasociÄģcijas":9463,"ĠPÄĵterburgas":9464,"ĠzvÄĵr":9465,"ĠpÄģrbÅ«v":9466,"ĠHil":9467,"ĠaugstÄģkais":9468,"Ġpusl":9469,"ĠBulgÄģr":9470,"ĠIzvietojusies":9471,"eficien":9472,"lera":9473,"antÄģ":9474,"Ġlieg":9475,"ĠViÅĨu":9476,"ĠMo":9477,"Ġsimbols":9478,"ĠtÄ«klu":9479,"Ġbirojs":9480,"ÄĵÅ¡a":9481,"trÄ«c":9482,"ĠdienÄģs":9483,"tdaÄ¼":9484,"uÄ¼i":9485,"Ġpop":9486,"Ġdej":9487,"ĠKev":9488,"ako":9489,"Ġuzpl":9490,"ĠcilvÄĵkus":9491,"ĠuzÅĨemts":9492,"Ġfolkl":9493,"ĠÄ«slaic":9494,"PÄĵt":9495,"ĠloÄ£":9496,"ĠMaj":9497,"ĠNesk":9498,"azÄģm":9499,"meÅĨi":9500,"ĠmuzejÄģ":9501,"Ġbiatl":9502,"ĠiepriekÅ¡ÄĵjÄģ":9503,"ĠprofesionÄģls":9504,"ĠToronto":9505,"Met":9506,"rut":9507,"Ġielai":9508,"istus":9509,"Ġizmir":9510,"ĠdzÄ«vot":9511,"ĠradÄ«t":9512,"ĠFile":9513,"Ġnedr":9514,"ĠGlob":9515,"ĠPed":9516,"ĠDabas":9517,"ĠIepr":9518,"Ġreform":9519,"Ġnovirz":9520,"Äĵdu":9521,"zeme":9522,"ĠmÄĵnes":9523,"ĠlapÄģ":9524,"ĠlÄ«meni":9525,"Ġstafete":9526,"ĠÄªrijas":9527,"Ä«nÄģm":9528,"ĠiekÄ¼auti":9529,"Celtics":9530,"Renault":9531,"Ġkant":9532,"Å«ku":9533,"ĠLas":9534,"atorijÄģ":9535,"iesti":9536,"tiÅĨu":9537,"ĠNes":9538,"istikas":9539,"Ġslik":9540,"ĠkontrolÄĵ":9541,"ĠRobeÅ¾ojas":9542,"Lar":9543,"fur":9544,"ĠsveÅ¡":9545,"ĠStacijas":9546,"ĠJaunie":9547,"Ġkomplekss":9548,"ionÄģÄ¼a":9549,"Ġpietiekami":9550,"ezers":9551,"ĠLaika":9552,"Ġnozar":9553,"ĠsavstarpÄĵji":9554,"Cr":9555,"Ä«ÅĨ":9556,"ĠPop":9557,"tul":9558,"ĠProt":9559,"ĠProv":9560,"ĠLaikÄģ":9561,"Ġbalsu":9562,"'':":9563,"ĠSem":9564,"Ġstarts":9565,"ĠvasarnÄ«cu":9566,"ĠacÄ«m":9567,"astrukt":9568,"itÄģcijas":9569,"nieces":9570,"Ġvirziena":9571,"Ġtekst":9572,"ĠÄĢzijÄģ":9573,"Ġsapulces":9574,"ĠAlÅ«ksnes":9575,"IP":9576,"ĠFer":9577,"Ä£a":9578,"Ġkritu":9579,"ĠpÄģrstÄģvjiem":9580,"ĠÅ¡Ä·irnes":9581,"egu":9582,"Ġsens":9583,"oju":9584,"Ġsievu":9585,"Ġtrenera":9586,"Ġprospekts":9587,"ĠlÄĵc":9588,"ĠAus":9589,"ĠKlas":9590,"ĠMuh":9591,"ĠsekojoÅ¡":9592,"1987":9593,"ĠÅ¾urnÄģla":9594,"Ġnotikumi":9595,"Ziem":9596,"mon":9597,"nav":9598,"ecas":9599,"ĠPriek":9600,"Ġnosaukumi":9601,"Ġsinglu":9602,"etn":9603,"Ġskan":9604,"ĠuzÅĨÄĵmÄĵjs":9605,"ĠdziesmÄģm":9606,"Eur":9607,"ĠparkÄģ":9608,"Ġguvis":9609,"ĠdÄĵvÄĵ":9610,"ĠÄĴÄ£iptes":9611,"ĠsekretÄģrs":9612,"ĠkaravÄ«ri":9613,"mÄģju":9614,"Ġpens":9615,"ĠPag":9616,"Ġpilots":9617,"Ġatjaunota":9618,"ĠMetal":9619,"ĠsmilÅ¡":9620,"Ġmij":9621,"ĠWilli":9622,"ĠÄ£enÄĵt":9623,"asts":9624,"ĠMÄģjas":9625,"ĠDetro":9626,"ĠpÄģrst":9627,"ĠSpec":9628,"lÄĵkÅ¡ana":9629,"ĠFutbola":9630,"Ġsemin":9631,"ĠCÄ«r":9632,"ĠvÄĵsturnieks":9633,"ĠGalvenais":9634,"ĠizcÄ«ÅĨÄģ":9635,"Black":9636,"Vien":9637,"astu":9638,"Ġlidosta":9639,"ĠtreÅ¡ajÄģ":9640,"Ġpraktiski":9641,"Ġatd":9642,"tein":9643,"Ð°Ð¹":9644,"Ġfragm":9645,"ĠCentrÄģlÄģs":9646,"ĠGeorg":9647,"Sch":9648,"ikul":9649,"ĠZvaigz":9650,"ieriem":9651,"Ġ125":9652,"Ġkapi":9653,"kopÄ«bas":9654,"Ġkilometru":9655,"ĠNÄģkamajÄģ":9656,"ĠdÄģv":9657,"ĠFerdin":9658,"veidÄ«go":9659,"Ġkoeficien":9660,"ĠmÅ«ziÄ·i":9661,"Ġ1898":9662,"Ġsauca":9663,"Ġredzams":9664,"artu":9665,"ĠÐŀ":9666,"ĠÄ·ieÄ£":9667,"Ġmiljonu":9668,"Ġspiests":9669,"raudzÄ«bas":9670,"ĠDobeles":9671,"ĠTil":9672,"evu":9673,"neses":9674,"niecÄ«bai":9675,"ĠmazÄģks":9676,"Ġdatus":9677,"ĠreÄ£ionu":9678,"ĠpalÄ«dzÄĵja":9679,"ĠMaksim":9680,"EC":9681,"Lai":9682,"Med":9683,"vÄģm":9684,"Ġda":9685,"engu":9686,"ojam":9687,"ĠzÄģles":9688,"inÄģtÄģ":9689,"Ġgaru":9690,"ĠkolektÄ«v":9691,"ĠJÄĵkaba":9692,"ĠimpÄĵriju":9693,"ĠBosn":9694,"Vec":9695,"knÄģb":9696,"estra":9697,"ĠDo":9698,"Ġkarst":9699,"ĠCor":9700,"iÄģli":9701,"Ġbiznesa":9702,"ho":9703,"Ġizj":9704,"Äģvi":9705,"ĠnÄģvei":9706,"Ġapsar":9707,"itija":9708,"Ġaugi":9709,"Ġuzvara":9710,"ĠLiepÄģja":9711,"Ġsegm":9712,"itÄģlijs":9713,"ĠIespÄĵjams":9714,"'t":9715,"inska":9716,"ĠBas":9717,"ovan":9718,"ĠLielÄģs":9719,"iedarb":9720,"ĠorbÄ«tas":9721,"ĠpolÄģrstacijas":9722,"ĠTransp":9723,"Ferrari":9724,"fran":9725,"ĠNÄģciju":9726,"Ġskulpt":9727,"1978":9728,"ĠnogalinÄģja":9729,"ĠdziedÄģtÄģji":9730,"Ġapspalvojums":9731,"ĠVieglatlÄĵtika":9732,"ubil":9733,"Ġ700":9734,"ologi":9735,"ĠatklÄģÅ¡anas":9736,"ĠatÅ¡Ä·irÄ«bÄģ":9737,"ĠJÅ«rmalas":9738,"auns":9739,"Ġasist":9740,"ĠVÄĵstures":9741,"1982":9742,"ĠStaÅĨ":9743,"Ġidejas":9744,"ĠsadarbÄ«bÄģ":9745,"Ġmezgl":9746,"Ġizskaidr":9747,"Ġdzejas":9748,"ĠpÄģrÄĵjÄģs":9749,"ĠrokÄģs":9750,"ĠsociÄģlo":9751,"Ġfilmai":9752,"ĠproblÄĵmu":9753,"enieks":9754,"ĠAizsardzÄ«bas":9755,"ÄģÅ¡anai":9756,"ĠGir":9757,"ĠFiladelf":9758,"Ġglezna":9759,"Ġagres":9760,"ĠtÅ«risma":9761,"Ġstandarta":9762,"Äĵtiem":9763,"Ġtiesa":9764,"Ġ1890":9765,"ĠmazuÄ¼i":9766,"Ð»ÐµÐºÑģ":9767,"ĠKausa":9768,"ojumos":9769,"ejevs":9770,"ander":9771,"Ġgrun":9772,"ĠdibinÄģÅ¡anas":9773,"ĠTÄģpÄĵc":9774,"ĠieÅĨemt":9775,"Ġastero":9776,"Liep":9777,"enca":9778,"Ġlidojumu":9779,"ĠKazim":9780,"iÄ¼a":9781,"ĠboÄ¼Å¡ev":9782,"Ġstiep":9783,"Å«deÅĨ":9784,"ĠÄ·ir":9785,"ĠkuÄ£iem":9786,"1972":9787,"Ġmanev":9788,"ĠrunÄģ":9789,"ĠuzbrÅ«k":9790,"ĠtopÄģ":9791,"Lu":9792,"Ġsoda":9793,"ĠPiek":9794,"akar":9795,"ĠlÄ«dzÄ«gs":9796,"Ġkalnos":9797,"ĠkanÄģls":9798,"ĠkanÄģla":9799,"MS":9800,"nÄģc":9801,"iedza":9802,"ĠRei":9803,"ajevs":9804,"odis":9805,"Ġgaras":9806,"ĠmÄģr":9807,"Ġgroz":9808,"entas":9809,"Ġautori":9810,"Ġdraudze":9811,"ĠRegul":9812,"oÄ·":9813,"ĠÑĤ":9814,"arg":9815,"erus":9816,"ecu":9817,"ĠpÄĵdÄĵjÄģs":9818,"ĠmÄĵneÅ¡u":9819,"Ġatgriezties":9820,"ĠnominÄĵta":9821,"ĠRÅ«p":9822,"ĠlÄ«k":9823,"ĠÅłr":9824,"ĠBrand":9825,"Ġaugiem":9826,"ÄĵÅ¡anos":9827,"Ġkatrs":9828,"ĠnodroÅ¡inÄģja":9829,"Ġspecializ":9830,"ĠKaralistÄĵ":9831,"SAT":9832,"ĠDaudzi":9833,"ĠIepriekÅ¡":9834,"Ġkvadr":9835,"oniju":9836,"iver":9837,"ÐµÐ¹":9838,"Ġgalvenajiem":9839,"ĠnogalÄĵ":9840,"ĠMaÄ·ed":9841,"ĠLatgalÄĵ":9842,"lÄģ":9843,"ĠvidÄĵjais":9844,"ĠSavienÄ«ba":9845,"ĠDep":9846,"Ġ316":9847,"laÅ¡u":9848,"igas":9849,"ĠmeÅ¾i":9850,"ĠceltniecÄ«bas":9851,"ĠstruktÅ«ra":9852,"Ġzvaigznes":9853,"ĠSezonas":9854,"ÄģÄ¼a":9855,"Ġkup":9856,"ĠdÅ«":9857,"ĠSilv":9858,"Ġkru":9859,"Ġaugsts":9860,"ĠdaÄ¼Äģm":9861,"ĠpÄĵdÄĵjos":9862,"ĠEzera":9863,"ott":9864,"ĠLÄģÄįpl":9865,"oduk":9866,"ĠnodaÄ¼Äģ":9867,"ĠvÄĵsturiski":9868,"Ġromant":9869,"ĠLuiss":9870,"Ġshift":9871,"Äģriem":9872,"valific":9873,"ĠnacionÄģlo":9874,":(":9875,"ÐĶ":9876,"Äģlijas":9877,"Ä«juÅ¡ies":9878,"ĠJÄģz":9879,"ĠÄĮetr":9880,"ĠPirmie":9881,"ĠattÄĵlu":9882,"ĠEksp":9883,"ĠbibliotÄĵkas":9884,"ĠsfÄĵr":9885,"iskajai":9886,"Ġfonda":9887,"ĠkultÅ«ru":9888,"Ġpolitiku":9889,"1983":9890,"ĠparedzÄĵja":9891,"ĠatkÄģpÄģs":9892,"ward":9893,"agÄģ":9894,"ĠÅłv":9895,"Ġhal":9896,"ogn":9897,"atÄ«vas":9898,"ĠInternational":9899,"iÅĨai":9900,"iÄģlÄģs":9901,"ple":9902,"Äĵvs":9903,"ĠsakÄģva":9904,"zin":9905,"ĠKost":9906,"Äįenko":9907,"Ġdivreiz":9908,"ĠIzslÄĵgÅ¡anas":9909,"ĠZeme":9910,"Ġadvok":9911,"ĠJÅ«lijs":9912,"Ġapkaimes":9913,"ĠMen":9914,"ieÅ¡a":9915,"Ġjaunais":9916,"Ġideju":9917,"ĠpielÄģg":9918,"ĠPolockas":9919,"CP":9920,"Pirm":9921,"gÄģzes":9922,"ĠPast":9923,"Ġremon":9924,"ĠtirgÅ«":9925,"ĠPapild":9926,"ĠKonstantÄ«ns":9927,"ĠImants":9928,"Ġizslud":9929,"inta":9930,"trop":9931,"ĠBundes":9932,"Ġdziedz":9933,"abiedr":9934,"egov":9935,"Ġposmos":9936,"Hz":9937,"Ġbak":9938,"ĠrÄ«ta":9939,"odÄĵ":9940,"ĠDÅ¾en":9941,"ÄģzijÄģ":9942,"ĠPolija":9943,"ĠFederÄģcijas":9944,"ĠKalifornijas":9945,"Ð¢":9946,"ĠKurs":9947,"anto":9948,"oloÄ£iskÄģs":9949,"ĠiekÄ¼ÄģvÄģs":9950,"ĠapmetÄģs":9951,"ĠVidusjÅ«ras":9952,"eiropÄģ":9953,"Ġugunsgr":9954,"ĠÄ·Ä«nieÅ¡u":9955,"ley":9956,"ĠVÄ«rieÅ¡u":9957,"ĠDrÄ«z":9958,"ĠAntons":9959,"ĠbÄ«skapu":9960,"eif":9961,"Ġpast":9962,"ektoru":9963,"ĠLielo":9964,"Ġsacer":9965,"ĠnovÄĵrota":9966,"ĠmilitÄģrÄģs":9967,"Ġkodol":9968,"XX":9969,"Zelts":9970,"Ġnaba":9971,"ales":9972,"ĠPaula":9973,"Ġvispirms":9974,"Ġnevien":9975,"Ġnelielas":9976,"ĠÄ£intÄ«":9977,"ĠpilsÄĵtai":9978,"âĢ¢'''":9979,"net":9980,"Ġsienas":9981,"ĠGroup":9982,"Ġdoties":9983,"Ġgaita":9984,"ĠMiera":9985,"ĠTu":9986,"ĠjÄģn":9987,"ĠHim":9988,"Ġgriez":9989,"ube":9990,"vienÄ«bas":9991,"ihu":9992,"ĠFranciju":9993,"Ġobs":9994,"ĠdziedÄģtÄģjs":9995,"Ġrepublika":9996,"Ġlielmeistars":9997,"ĠkukaiÅĨiem":9998,"ĠpÄ¼":9999,"ĠÅ¡Äģv":10000,"Ġradies":10001,"ĠTagad":10002,"aukÄģza":10003,"ÃŁ":10004,"ĠKet":10005,"ĠLife":10006,"ĠEli":10007,"Ä«zijÄģ":10008,"bols":10009,"vÄģrdu":10010,"IN":10011,"Ìģ":10012,"Ġnob":10013,"ĠTik":10014,"ition":10015,"ĠspÄĵka":10016,"Ä«tÄģk":10017,"ĠAkt":10018,"Ã¡n":10019,"ĠFinÄģls":10020,"ĠpopularitÄģti":10021,"si":10022,"inda":10023,"orÄģ":10024,"Ġnost":10025,"Ġras":10026,"ĠValkas":10027,"Ġkrustne":10028,"ĠtemperatÅ«ru":10029,"ĠBlau":10030,"ĠHarijs":10031,"Ġlaikraksta":10032,"Ġzona":10033,"ulf":10034,"Ä«tajÄģ":10035,"ĠlielÄģkie":10036,"ĠabÄģm":10037,"Äģvests":10038,"Ġsvara":10039,"osport":10040,"Ġtrolejbusi":10041,"ĠbrÄģÄ¼i":10042,"ĠDmitrijs":10043,"vins":10044,"ÄģÅ¡":10045,"ĠLimb":10046,"ĠBarb":10047,"ĠDay":10048,"Äĵnija":10049,"ogress":10050,"Ġkaralistes":10051,"ĠSavienÄ«bÄģ":10052,"ĠtÄ«kls":10053,"ĠReizÄĵm":10054,"Ġrak":10055,"epa":10056,"ĠpirmsÄģk":10057,"Ġvisos":10058,"ĠBra":10059,"ĠmedaÄ¼a":10060,"ĠlielÄģkajÄģ":10061,"ĠUnited":10062,"enhof":10063,"polit":10064,"ĠPÄ«ters":10065,"ris":10066,"van":10067,"ores":10068,"ĠPort":10069,"ĠUldis":10070,"ĠaprÅ«p":10071,"Ġgarumu":10072,"ĠadministratÄ«vo":10073,"guns":10074,"pel":10075,"osÄĵ":10076,"ungas":10077,"ĠvietÄĵjÄģ":10078,"ĠFren":10079,"\"''":10080,"ĠteritorijÄģs":10081,"Ġreize":10082,"ĠApakÅ¡":10083,"ĠZiemassvÄĵt":10084,"ĠiegÅ«tu":10085,"ĠnÄģkamo":10086,"Ġpamet":10087,"ĠHamilt":10088,"Ġkinoaktieri":10089,"Ä«Å¡i":10090,"ĠSankt":10091,"ĠBir":10092,"ĠRomÄģ":10093,"Ġ'''âĢ¢'''":10094,"ĠzonÄģ":10095,"ĠEp":10096,"ĠattÄ«stÄģs":10097,"1975":10098,"Ġkoncep":10099,"ĠsaglabÄģja":10100,"Ġbeidzis":10101,"hi":10102,"mus":10103,"ĠvaÄ¼":10104,"otÄ«ba":10105,"eca":10106,"Ġklav":10107,"ĠEnd":10108,"ĠTour":10109,"Ġeksist":10110,"ĠbulvÄģris":10111,"Ac":10112,"ye":10113,"Ġeva":10114,"ĠdaÅ¾reiz":10115,"ifs":10116,"1964":10117,"ĠDaÅ¾as":10118,"ĠatbilstoÅ¡i":10119,"Bru":10120,"onovs":10121,"ĠSicÄ«l":10122,"ĠÄģrlietu":10123,"ĠAustroun":10124,"ĠsakÄģrt":10125,"ĠLietuva":10126,"Ġslepkav":10127,"ĠPoz":10128,"ĠBibli":10129,"ĠBalk":10130,"Ġavots":10131,"LatvieÅ¡u":10132,"Ġizteiks":10133,"Ġkalpoja":10134,"ĠSiguldas":10135,"ĠVoldemÄģrs":10136,"ĠnodaÄ¼u":10137,"bola":10138,"iropas":10139,"Ġkalni":10140,"1976":10141,"ĠfotogrÄģf":10142,"Ġtramvaju":10143,"Hy":10144,"Her":10145,"Ġtest":10146,"omo":10147,"ĠValstu":10148,"ĠattÄ«stÄ«jÄģs":10149,"Ġopt":10150,"Ġkontroles":10151,"ĠdÄĵl":10152,"ĠdÄĵlu":10153,"ĠÅ¡ajÄģs":10154,"andra":10155,"1945":10156,"ĠStacija":10157,"ĠPeters":10158,"ĠnodibinÄģta":10159,"ĠKaspars":10160,"tera":10161,"ĠLPSR":10162,"Ġparametr":10163,"Ġcuk":10164,"uÅ¡Äģ":10165,"maÅĨi":10166,"1937":10167,"ĠsadarbÄ«bas":10168,"ĠVentspilÄ«":10169,"Kn":10170,"ĠLam":10171,"osu":10172,"eita":10173,"Ġdaudzviet":10174,"Ġlatviski":10175,"ĠzemestrÄ«c":10176,"ĠplÄģnots":10177,"Ġkatram":10178,"Ġgrav":10179,"ĠBalvu":10180,"Ġvirsmu":10181,"Ġmatr":10182,"ĠAndreja":10183,"ĠlidmaÅ¡Ä«nas":10184,"ĠneizdevÄģs":10185,"Äĵjumos":10186,"ĠGB":10187,"Ä£Äĵrb":10188,"Ġneil":10189,"owiat":10190,"ĠbalstÄ«ta":10191,"ĠdiplomÄģt":10192,"'),":10193,"rÄ«":10194,"jÄģÅĨa":10195,"ĠatzÄ«ta":10196,"Ð³Ð°":10197,"ĠapstiprinÄģts":10198,"ĠdÄģrzs":10199,"len":10200,"ook":10201,"Ġmier":10202,"ĠVII":10203,"ĠKriss":10204,"andrs":10205,"ĠbeigÅ¡anas":10206,"Ġmodel":10207,"Ġilgi":10208,"Ġbater":10209,"Ġacis":10210,"ĠApvienotajÄģ":10211,"Ġkristiet":10212,"ĠlÄ«deri":10213,"ĠieroÄįu":10214,"ÄģrÅĨ":10215,"ĠZob":10216,"ĠaizmainÄ«ts":10217,"Ġmetode":10218,"Ġdump":10219,"Ä¼auj":10220,"Ġsaskar":10221,"inÄģÅ¡anÄģ":10222,"Ġpalai":10223,"diena":10224,"ĠbÅ«ves":10225,"ĠuzstÄģjÄģs":10226,"Ġsit":10227,"ĠSyst":10228,"ĠklÄ«n":10229,"ĠFrank":10230,"ĠÄ»ub":10231,"Kriev":10232,"ĠkandidÄģtu":10233,"Ġaptver":10234,"Ġspiediena":10235,"ĠVes":10236,"akti":10237,"ĠpÄģrdeva":10238,"Ġnozares":10239,"ĠHorvÄģtijas":10240,"hana":10241,"eme":10242,"ĠkrÄģt":10243,"Ä«za":10244,"Ġvecumu":10245,"ĠMartin":10246,"ĠnoslÄĵp":10247,"ĠLielbritÄģnija":10248,"valstis":10249,"ĠpedagoÄ£":10250,"Tor":10251,"Ä¢":10252,"urgas":10253,"ĠSeriÄģl":10254,"ĠMah":10255,"Ä£e":10256,"Ð°Ð²":10257,"ĠierÄĵd":10258,"ĠSaldus":10259,"Ġinfrastrukt":10260,"Mel":10261,"TM":10262,"edÅ¾":10263,"iva":10264,"ĠArÄģb":10265,"ingv":10266,"verp":10267,"Ġhipot":10268,"bÅ«t":10269,"Ġvik":10270,"Ġtau":10271,"ĠÅłl":10272,"ĠSpÄģnija":10273,"ĠâĢł":10274,"ĠTrans":10275,"Ġuzbrukums":10276,"ĠÅ«denstilp":10277,"oÄ¼i":10278,"avi":10279,"Ġlietoja":10280,"ĠMihaels":10281,"ĠautoceÄ¼Å¡":10282,"Äģdz":10283,"iln":10284,"Äįempion":10285,"gana":10286,"Ġmirusi":10287,"ĠspÄĵkus":10288,"ĠcÄ«ÅĨÄģs":10289,"Ġtituls":10290,"ĠievÄĵrojam":10291,"ĠnevarÄĵja":10292,"Ġpietekas":10293,"ains":10294,"ĠVils":10295,"Ä«tei":10296,"Å«rijas":10297,"ĠJaunais":10298,"ĠcietokÅ¡":10299,"ĠLabÄģkÄģ":10300,"Ġkrievi":10301,"Å«ts":10302,"ĠÄįempiones":10303,"ebs":10304,"ĠslÄ«p":10305,"ieÅ¡us":10306,"chen":10307,"Ġ1870":10308,"ische":10309,"Ġjurists":10310,"Ġrev":10311,"ĠNiks":10312,"ĠCit":10313,"Ġ5000":10314,"Ġgliem":10315,"ĠDaugavgrÄ«vas":10316,"ĠevaÅĨÄ£Äĵl":10317,"%),":10318,"sav":10319,"ĠungÄģru":10320,"ĠLÄ«ga":10321,"ĠVirz":10322,"ĠNez":10323,"1985":10324,"ĠvÄ«rieÅ¡i":10325,"ĠattiecÄ«bu":10326,"1973":10327,"Ġpiespie":10328,"Ġ1885":10329,"ĠCentra":10330,"Ġzvej":10331,"romieÅ¡u":10332,"aiÅĨÄģm":10333,"ĠGran":10334,"ĠlielÄģkajiem":10335,"ĠWindows":10336,"Äĵzi":10337,"Ġteoriju":10338,"ĠKand":10339,"ĠLad":10340,"ionu":10341,"krauk":10342,"Ġpieci":10343,"Ġfunkciju":10344,"Ġmun":10345,"ĠVitÄģlijs":10346,"aukts":10347,"itÄģru":10348,"Ġplank":10349,"aujÄģ":10350,"ĠcilvÄĵkam":10351,"ĠpÄģrstÄģvÄĵta":10352,"1977":10353,"Ġsudrab":10354,"Ġeirop":10355,"ĠkÄģjÄģm":10356,"ĠskaÅĨdarb":10357,"ĠLit":10358,"ical":10359,"1928":10360,"ĠOrganiz":10361,"ĠzÄ«me":10362,"ĠizcÄ«ÅĨas":10363,"ÏĦ":10364,"atoties":10365,"Ġcar":10366,"Ġapraksts":10367,"ĠmalÄģ":10368,"ĠizskatÄģs":10369,"ĠizpÄĵtes":10370,"ĠierÄ«ces":10371,"Ġparastais":10372,"ĠÐ½Ð°":10373,"ĠMedicÄ«nas":10374,"Ġgala":10375,"ĠmÄĵs":10376,"ido":10377,"edia":10378,"ĠHidr":10379,"ĠCan":10380,"Ġ180":10381,"neÅ¡a":10382,"Ġalg":10383,"ĠSalÄ«dz":10384,"ĠilgstoÅ¡":10385,"Ġsark":10386,"ĠSep":10387,"tip":10388,"Ġgult":10389,"ĠLielvÄģr":10390,"Ġdeta":10391,"Sen":10392,"ĠMot":10393,"ĠpÄģrstrÄģd":10394,"ĠIndon":10395,"ĠDaniels":10396,"Kings":10397,"ox":10398,"isijas":10399,"otni":10400,"Ġpasuga":10401,"ĠÄįehu":10402,"ĠpaÄģtr":10403,"1979":10404,"ĠpamazÄģm":10405,"ĠÄ£imnÄģzijas":10406,"Ġnaudu":10407,"ĠukraiÅĨu":10408,"ĠtÄ«Ä£":10409,"alg":10410,"omen":10411,"ĠÄ«paÅ¡u":10412,"ĠattÄĵlo":10413,"ĠAbd":10414,"ĠSÄģkot":10415,"ĠbÄģze":10416,"Ġdievn":10417,"endr":10418,"ezu":10419,"Ġpamatu":10420,"ĠAntverp":10421,"Ju":10422,"ĠcieÅ¡i":10423,"gress":10424,"ĠkomandÄģm":10425,"ĠsadalÄ«ja":10426,"krit":10427,"Ġkinostud":10428,"ĠDziesmas":10429,"Ġdegvielas":10430,"Ġastron":10431,"ĠPiet":10432,"Ġ101":10433,"ĠklÄģj":10434,"ĠslieÅ¾u":10435,"audas":10436,"ĠÄ¼aun":10437,"ĠpartijÄģ":10438,"ĠgaisÄģ":10439,"Cap":10440,"aub":10441,"Ġdig":10442,"Å«Å¾":10443,"Äģrta":10444,"ĠRost":10445,"Ġkred":10446,"ĠlielÄģki":10447,"Ġsportistu":10448,"ĠtradÄ«cijas":10449,"ĠNikolaja":10450,"ĠLeip":10451,"Ġpropor":10452,".â":10453,"Rock":10454,"lat":10455,"ĠKaÄ¼":10456,"ĠapdroÅ¡":10457,"Ġbalts":10458,"ĠsastÄģvÄĵja":10459,"ĠÄ«paÅ¡umu":10460,"ÅŁ":10461,"iÅĨos":10462,"Ġatris":10463,"ÅĨÄĵmums":10464,"1936":10465,"Ġkalpo":10466,"Canad":10467,"ĠRÅ«j":10468,"Å«tais":10469,"Ġnodeva":10470,"ĠSap":10471,"unu":10472,"ÑĢÑĥ":10473,"ĠvalodÄģm":10474,"ĠfilmÄģm":10475,"ĠtermiÅĨÅ¡":10476,"ĠatgrieÅ¾as":10477,"ĠPleskavas":10478,"Don":10479,"RT":10480,"not":10481,"Ã¬":10482,"Ġsir":10483,"stot":10484,"ĠAB":10485,"Ġuzr":10486,"Ġcilv":10487,"ĠFj":10488,"iÄģlo":10489,"pilsÄĵta":10490,"Ġmiljard":10491,"ĠStad":10492,"Ġkontak":10493,"DS":10494,"PN":10495,"Raksts":10496,"San":10497,"ning":10498,"yg":10499,"Ã§":10500,"anova":10501,"ĠSah":10502,"ĠGoda":10503,"ĠlÄ«cis":10504,"Ġgran":10505,"Ġtikpat":10506,"ĠminÅ«t":10507,"Ġprogramm":10508,"Ġbataljonu":10509,"Apollo":10510,"ĠPolitiskÄģ":10511,"Car":10512,"antes":10513,"inÅ¡u":10514,"Ġbakt":10515,"ĠLil":10516,"ĠBil":10517,"itam":10518,"Ġkrita":10519,"ĠCiti":10520,"Ġmetriem":10521,"ĠbijusÄ«":10522,"ĠMinskas":10523,"Ġtehnikas":10524,"ĠSkuj":10525,"lim":10526,"tru":10527,"Ġgadsimtam":10528,"ĠPaÅ¡reiz":10529,"ĠSkotijas":10530,",-":10531,"à¦":10532,"abil":10533,"ĠpiezÄ«mes":10534,"Ġslavas":10535,"ĠAtkl":10536,"Ġ1893":10537,"Ġpersonu":10538,"Ġpatv":10539,"iela":10540,"inÄģtÄģs":10541,"ĠvadÄ«bu":10542,"ĠBald":10543,"ĠkolÄĵÄ£":10544,"ĠpieÅ¡Ä·Ä«r":10545,"ĠDomin":10546,"ĠMehiko":10547,"ĠKristaps":10548,"yd":10549,"ĠâĢĶ":10550,"otÄģm":10551,"ĠJul":10552,"ĠdaÅ¾u":10553,"stÄģvu":10554,"Ġlidojums":10555,"Ġwith":10556,"ĠPerson":10557,"ĠVÄĵtra":10558,"Ġkaradarb":10559,"Pa":10560,"amÄ«bas":10561,"ilÄģ":10562,"ĠBill":10563,"Äģlam":10564,"Äģlus":10565,"etus":10566,"ĠNet":10567,"ĠEt":10568,"ovskas":10569,"Ä«diem":10570,"Ġdatoru":10571,"1981":10572,"ĠsamazinÄģs":10573,"Ġnopirka":10574,"ĠKrustpils":10575,"ĠsÄĵkl":10576,"Ġoksid":10577,"atÅ«ra":10578,"ogas":10579,"Ġkaraliste":10580,"ĠorganizÄĵja":10581,"Ġ1894":10582,"ĠstruktÅ«ras":10583,"ĠKriÅ¡jÄģÅĨa":10584,"ĠOla":10585,"uÅ¡a":10586,"Ġth":10587,"ĠpÄģrÅĨem":10588,"ĠmÄģjÄģm":10589,"ĠaugÅ¡ÄĵjÄģ":10590,"Ġmijiedarb":10591,"koda":10592,"ĠViÅ¡":10593,"ĠVÄ«nes":10594,"Ġfas":10595,"ĠbrÄģl":10596,"Ġvislab":10597,"ĠGrÄ«n":10598,"ĠGrob":10599,"ĠjaunÄģkais":10600,"Ġkated":10601,"ĠTren":10602,"ĠtÄģdÄģ":10603,"Ġklase":10604,"Ġ1880":10605,"ĠMazÄģ":10606,"filma":10607,"ĠTeodors":10608,"uda":10609,"Ġatdz":10610,"Ġspilg":10611,"Ġkravu":10612,"ĠkomÄĵdija":10613,"ĠGulbenes":10614,"ĠHelsinki":10615,"kurs":10616,"tuves":10617,"1922":10618,"1968":10619,"Ġnolikta":10620,"ĠkvalificÄĵjÄģs":10621,"ĠBudap":10622,"1924":10623,"Ġlaikiem":10624,"ĠaugstÄģk":10625,"ĠdomÄĵ":10626,"Ġkosmisko":10627,"ĠÄįetrÄģm":10628,"ĠÄ£eogrÄģfija":10629,"Ã¤r":10630,"Ġapbalvotie":10631,"ĠÅłveicÄĵ":10632,"ĠplanÄĵtas":10633,"ck":10634,"izglÄ«t":10635,"ĠBK":10636,"Äģno":10637,"Å«stot":10638,"ĠstÄģsta":10639,"ior":10640,"Ġdamb":10641,"ĠRok":10642,"ÐµÐ´":10643,"Ġpiespr":10644,"1969":10645,"Ġ1881":10646,"Ġaizvadot":10647,"forma":10648,"ĠdraftÄģ":10649,"ĠnedrÄ«kst":10650,"ĠSant":10651,"ĠKast":10652,"ĠVÄĵst":10653,"ĠTaur":10654,"Ġautor":10655,"ĠrobeÅ¾Äģs":10656,"1971":10657,"tiesÄ«bu":10658,"vili":10659,"ĠvakarÄģ":10660,"raÅ¾a":10661,"ĠStÄ«vens":10662,"onim":10663,"ĠKÄ¼":10664,"Ġatlai":10665,"ĠFe":10666,"1930":10667,"ĠPress":10668,"Ġ03":10669,"ĠattÄ«stÄ«bÄģ":10670,"Ġilgums":10671,"ĠRÄĵzeknÄĵ":10672,"tecÄĵ":10673,"Sudrabs":10674,"ĠRep":10675,"ĠlielÄģs":10676,"Ð¾Ðº":10677,"Ġekstr":10678,"ĠzÄ«mes":10679,"ĠpÄģrsniedz":10680,"ĠFinÄģlisti":10681,"Ġrekonstruk":10682,"cu":10683,"ĠLSD":10684,"ĠRaj":10685,"'');":10686,"Ġgaiss":10687,"ĠpolitiskÄģ":10688,"angÄ¼u":10689,"ĠpiesÄģrÅĨ":10690,"Ġiedala":10691,"ĠÅ¡Ä·ira":10692,"Ġfilozofijas":10693,"ĠcÄ«nÄ«jÄģs":10694,"ĠNapoleona":10695,"ĠÑĢÐ°":10696,"Ġportu":10697,"auÅ¡ana":10698,"Ġklaus":10699,"ĠPrei":10700,"aidas":10701,"ĠUzvedÄ«ba":10702,"Ġnotikumiem":10703,"bet":10704,"ÐĽ":10705,"Ġdaudzus":10706,"uck":10707,"ĠIrÄģnas":10708,"Ð»Ð°Ð²":10709,"ĠtelpÄģ":10710,"ĠsacÄ«kstes":10711,"ĠAzerbaidÅ¾Äģnas":10712,"jonÄį":10713,"ÄģÅ¾as":10714,"ĠtajÄģs":10715,"onijÄģ":10716,"ĠSum":10717,"ĠDeniss":10718,"ĠÐ¤":10719,"ĠlielÄģkas":10720,"Äģtra":10721,"ĠapstÄģkÄ¼i":10722,"ĠAivars":10723,"Ġpaaudzes":10724,"irb":10725,"Ġgaid":10726,"ĠzÄģl":10727,"Ä£u":10728,"Ġtikusi":10729,"ĠArv":10730,"Ġnoteikts":10731,"Ġ1860":10732,"ĠUkrainÄģ":10733,"ĠValdemÄģra":10734,"ĠSebasti":10735,"Ġreferend":10736,"ĠBibliogrÄģfija":10737,"Ġiv":10738,"Ġseksu":10739,"ĠPurv":10740,"ĠTMA":10741,"Ġprok":10742,"ildes":10743,"Ġcitur":10744,"ĠpastÄģvÄĵÅ¡anas":10745,"ĠMongol":10746,"1956":10747,"ĠRaimonds":10748,"ĠMadonna":10749,"ĠNeskatoties":10750,"Ġnodev":10751,"ĠVers":10752,"Ġoran":10753,"Ġass":10754,"ĠsabiedrÄ«ba":10755,"Ġpulkst":10756,"Ġrelj":10757,"Ġsapulc":10758,"Ġsaprot":10759,"ĠoglekÄ¼a":10760,"Nav":10761,"Ġista":10762,"ĠveÄ£":10763,"ĠdÄģÅĨu":10764,"ĠRon":10765,"Å«rai":10766,"ĠgÄģr":10767,"Ġtriec":10768,"Ä«rijÄģ":10769,"ĠbrÄ«":10770,"ogo":10771,"Ġsekundes":10772,"islava":10773,"ĠsevÄ«":10774,"ĠatskaÅĨ":10775,"icros":10776,"Ġkarb":10777,"ĠKrÅ«m":10778,"ogÄģ":10779,"ĠkreisÄģs":10780,"Ġstundu":10781,"Ġevaku":10782,"Å¡Äģ":10783,"ĠMS":10784,"ĠRoss":10785,"ÑĥÑĢ":10786,"Ġkonfeder":10787,"ĠaizstÄģvÄĵja":10788,"ĠdiriÄ£ents":10789,"ĠJuglas":10790,"Bar":10791,"ĠRac":10792,"Ġ1892":10793,"ĠbrÄ«vi":10794,"ĠTelev":10795,"ĠRenault":10796,"Ġtaur":10797,"stÅ«ra":10798,"Ġpretr":10799,"uth":10800,"ĠmuiÅ¾Äģ":10801,"Å«kstes":10802,"atÄ«vÄģs":10803,"ĠsastÄģva":10804,"ariem":10805,"dzies":10806,"ĠLar":10807,"ĠDok":10808,"ĠNol":10809,"ĠretÄģk":10810,"Ġlaikam":10811,"aÅ¡i":10812,"ograph":10813,"ĠuzvarÄĵtÄģjs":10814,"Ġpamatojoties":10815,"ĠizplatÄ«ta":10816,"ĠslimnÄ«cas":10817,"darbÄ«bas":10818,"ĠJelgava":10819,"ĠplaÅ¡Äģk":10820,"Ġnervu":10821,"Fl":10822,"islav":10823,"sties":10824,"ĠPot":10825,"ejÄģm":10826,"Ġreit":10827,"ÄĵkÅ¡":10828,"oloÄ£iski":10829,"Ġotras":10830,"tica":10831,"Ġsmar":10832,"ĠskrÄĵj":10833,"putes":10834,"ĠmaÄ£istra":10835,"vÄģcu":10836,"ĠKob":10837,"ides":10838,"ĠbÅ«tiski":10839,"ĠZemi":10840,"Ġgleznas":10841,"ĠiestÄģde":10842,"daÅ¾":10843,"pak":10844,"Ġmai":10845,"ĠPre":10846,"ĠRot":10847,"ĠHof":10848,"Ġneaiz":10849,"Ġvalstij":10850,"1931":10851,"Ġ1889":10852,"ĠpaÅ¡valdÄ«ba":10853,"Ġpacien":10854,"ĠCiems":10855,"ĠHercegov":10856,"ĠgaldiÅĨa":10857,"BL":10858,"Ur":10859,"lendas":10860,"metr":10861,"enbr":10862,"ĠSau":10863,"ainÄģs":10864,"ĠpiemÄĵrs":10865,"ĠnovÄĵrots":10866,"ĠmarÅ¡rutu":10867,"ĠÄĮehoslovÄģkijas":10868,"à¸":10869,"ĠPam":10870,"ĠLav":10871,"ĠRai":10872,"ĠzÄģle":10873,"ĠdaÅ¾us":10874,"Ġteles":10875,"Ġseno":10876,"ĠsaistÄ«bÄģ":10877,"Ġpurvs":10878,"Kosmos":10879,"bek":10880,"annes":10881,"ĠneÄ¼":10882,"ike":10883,"ĠatÅĨem":10884,"audzis":10885,"Ġ08":10886,"mani":10887,"ĠiesvÄĵt":10888,"ĠskatÄ«tÄģju":10889,"ĠstÄģvoklis":10890,"dÄģs":10891,"deg":10892,"ĠRek":10893,"Äģnam":10894,"andu":10895,"ĠkrÅ«m":10896,"ĠÅłÅ«":10897,"ĠnespÄĵj":10898,"Ġkaraliene":10899,"ĠtÄĵviÅĨiem":10900,"ĠpublicÄĵts":10901,"haw":10902,"ĠprovincÄĵ":10903,"ĠPhjonÄį":10904,"board":10905,"Gl":10906,"ĠVÄ«n":10907,"Ġjubil":10908,"ĠvienoÅ¡anÄģs":10909,"Ġplkst":10910,"Ġ1866":10911,"iÄ¼u":10912,"mÄĵram":10913,"ĠVels":10914,"Ġfirm":10915,"azz":10916,"audis":10917,"Ġgadsimtu":10918,"ĠmÄģtÄ«tÄĵm":10919,"1949":10920,"ĠlapÄģm":10921,"ĠsociÄģlÄģs":10922,"ĠneizÅ¡Ä·ir":10923,"mÄĵ":10924,"Äģrais":10925,"ĠRaf":10926,"ĠkopÄ«gi":10927,"ĠAustrumos":10928,"1960":10929,"ĠbijuÅ¡as":10930,"ĠSub":10931,"ĠLÅ«":10932,"eÄ¼us":10933,"ĠvÄĵlas":10934,"ĠStend":10935,"Ġpartn":10936,"ĠmateriÄģli":10937,"ietÄģm":10938,"atorija":10939,"ĠDeg":10940,"ĠÅłarl":10941,"igor":10942,"ÐºÐ¾Ð²":10943,"Ġsaraksti":10944,"ĠmainÄģs":10945,"ĠmarÅ¡rut":10946,"skÄģbe":10947,"ĠElizabete":10948,"Har":10949,"Ø±":10950,"Ġmand":10951,"ĠKÄģp":10952,"itz":10953,"ĠZh":10954,"Ġstumbr":10955,"ĠvidÄĵjo":10956,"dienÄģs":10957,"vilc":10958,"jat":10959,"Î»":10960,"ĠpeÄ¼":10961,"ĠKul":10962,"ovam":10963,"ĠdaÅ¾Äģm":10964,"Ġmaza":10965,"iedumu":10966,"ĠromÄģnu":10967,"ĠBoriss":10968,"ĠlÄģ":10969,"Ġmig":10970,"ĠSek":10971,"ĠPad":10972,"ĠKin":10973,"Ä£i":10974,"ĠOne":10975,"ĠUCI":10976,"Ġpiloti":10977,"ĠSavÄģ":10978,"ĠrezultÄģtus":10979,"ĠatpÅ«tas":10980,"ĠasociÄģcija":10981,"ĠsavvaÄ¼Äģ":10982,"ĠÄĮÄģrlzs":10983,"Lat":10984,"gadu":10985,"ĠnogÄģz":10986,"ĠLim":10987,"Äģtam":10988,"Äģtais":10989,"puses":10990,"1967":10991,"mÅ«z":10992,"ĠDek":10993,"ĠlÄ«dzi":10994,"ĠsavÄģs":10995,"turku":10996,"vert":10997,"ĠturpinÄģs":10998,"Ġguv":10999,"ĠpanÄģkumu":11000,"ĠMeksikas":11001,"ĠAbrenes":11002,"ael":11003,"kan":11004,"ĠKron":11005,"ĠdrÄģma":11006,"Ð¾Ð¿":11007,"ĠnolÅ«k":11008,"ĠpakÄģpe":11009,"Ã¼n":11010,"Ġosta":11011,"ĠmÄ«kst":11012,"Ġlielus":11013,"Ġgadsimts":11014,"ĠFrans":11015,"ĠSlokas":11016,"istÄģnÄģ":11017,"ĠuzvÄģrdu":11018,"ĠClub":11019,"Ab":11020,"Ġgaitas":11021,"ĠplÄģns":11022,"ĠgarÄ«dz":11023,"Ġkoal":11024,"ĠnedÄĵÄ¼u":11025,"Ġelements":11026,"Ġtiltu":11027,"ĠparalÄĵli":11028,"Die":11029,"rof":11030,"ĠHa":11031,"Å«rÄģm":11032,"ĠSpace":11033,"Ġraksta":11034,"inÄģjumiem":11035,"ĠÅ¡Ä·iedr":11036,"ĠuzÅĨÄĵmumÄģ":11037,"Ġizraudz":11038,"ĠAbi":11039,"Ġcilmes":11040,"Ġdiskus":11041,"Ġobserv":11042,"RS":11043,"kina":11044,"aria":11045,"uÅ¡s":11046,"ĠvidÄĵjÄģs":11047,"Ġgari":11048,"ĠStrad":11049,"undas":11050,"tekus":11051,"ĠnominÄĵts":11052,"Ġpremjerministrs":11053,"dir":11054,"Ã¥":11055,"ĠSievieÅ¡u":11056,"ĠraÅ¾oÅ¡anu":11057,"dom":11058,"aniÅĨu":11059,"Ġkarogu":11060,"Ġbeigu":11061,"gorit":11062,"alst":11063,"Ġstikla":11064,"Ġpiecu":11065,"Ġimperatoru":11066,"Ġsaslim":11067,"ĠLÄģÄįplÄĵÅ¡a":11068,"ĠBudapeÅ¡":11069,"ĠDaÄ¼a":11070,"ÄģmÄģ":11071,"ÐµÐ»ÑĮ":11072,"ĠizmantoÅ¡ana":11073,"ĠpalÄ«dzÄ«bas":11074,"ĠnorisinÄģs":11075,"ĠMelbur":11076,"ÄĵnÄģs":11077,"ĠpaÅĨÄĵm":11078,"iedes":11079,"ĠÅ¡Ä·Äĵr":11080,"Ġplatformas":11081,"ĠrÅ«pnÄ«cas":11082,"ĠnodroÅ¡inÄģtu":11083,"ĠUlmaÅĨa":11084,"Ġeksempl":11085,"Ġvojevodistes":11086,"ĠRihards":11087,"ĠAgl":11088,"ĠpÄģriet":11089,"ĠarmÄĵÅĨu":11090,"1966":11091,"zemi":11092,"ĠnezinÄģm":11093,"Ġsabruk":11094,"Sup":11095,"Ġeg":11096,"ĠSM":11097,"ĠViÅĨam":11098,"Ġatsl":11099,"ĠlabÄģkajiem":11100,"ĠKarol":11101,"ĠizlÅ«k":11102,"ĠAdministr":11103,"dots":11104,"mb":11105,"Ġaz":11106,"Ġnoma":11107,"ĠCSKA":11108,"ĠÄĢrlietu":11109,"heim":11110,"ekss":11111,"ĠXV":11112,"ĠesoÅ¡Äģs":11113,"emokrÄģtu":11114,"ĠpÄģrdÄĵvÄĵta":11115,"ĠpriekÅ¡u":11116,"maks":11117,"Ġkora":11118,"Ġnama":11119,"alt":11120,"ĠMiÅ¡":11121,"ĠcieÅ¡":11122,"aiziv":11123,"astas":11124,"ĠRakstur":11125,"LabÄģkÄģ":11126,"ĠziemeÄ¼rietumu":11127,"Ġkorpusa":11128,"ĠriteÅĨbraukÅ¡anas":11129,"ailu":11130,"otajÄģm":11131,"itis":11132,"okÄģ":11133,"Ð°Ñģ":11134,"Ġ1882":11135,"Ġaizvada":11136,"ĠÄ£eometr":11137,"ĠapzÄ«mÄĵjums":11138,"ĠAugusta":11139,"izÄģciju":11140,"ĠVo":11141,"ĠizslÄĵg":11142,"ĠBot":11143,"ojuÅ¡Äģs":11144,"ĠDist":11145,"opi":11146,"ĠziÅĨu":11147,"1950":11148,"ĠviÅĨus":11149,"ostÄģ":11150,"ĠTallinÄģ":11151,"ĠÄģrzemju":11152,"ĠStenlija":11153,"Laren":11154,"Lin":11155,"Mon":11156,"kv":11157,"lan":11158,"Ġo":11159,"Ġkav":11160,"ĠIelas":11161,"ĠOd":11162,"Ġ1891":11163,"ĠÄ»oti":11164,"ĠatmiÅĨas":11165,"ĠuzbÅ«vÄĵja":11166,"ĠArnolds":11167,"ÄģÄ¼i":11168,"ĠBek":11169,"okÄ¼u":11170,"ioni":11171,"ĠFilmÄģ":11172,"Ġizdevums":11173,"ĠKristof":11174,"ĠceltniecÄ«ba":11175,"Ġkonkurss":11176,"Ġtekstu":11177,"ĠsaglabÄģjusies":11178,"Rad":11179,"ny":11180,"uÄģ":11181,"ozÄģ":11182,"ĠliteratÅ«ra":11183,"Aut":11184,"Qu":11185,"dzied":11186,"ekul":11187,"ejai":11188,"mah":11189,"ĠMatÄ«s":11190,"ĠkreisÄģ":11191,"ĠHenrijs":11192,"ĠkaÄ¼":11193,"ĠSud":11194,"ĠBa":11195,"ĠDol":11196,"ĠGP":11197,"1917":11198,"ĠvÄģcieÅ¡i":11199,"Ġavoti":11200,"ĠapriÅĨÄ·i":11201,"ĠSarakst":11202,"Ġnumurs":11203,"ĠsÄģls":11204,"emts":11205,"ĠBah":11206,"1921":11207,"andas":11208,"ĠziemeÄ¼austrumu":11209,"Ġbasketbolisti":11210,"ĠuzbrucÄĵja":11211,"As":11212,"Ġboks":11213,"Ġaugustam":11214,"ĠÄįetrus":11215,"ĠsaistÄ«tas":11216,"Ð°Ð½Ð´":11217,"ĠSeula":11218,"ĠkinoreÅ¾isors":11219,"ĠVe":11220,"ĠHip":11221,"ĠlÄ«dzekÄ¼u":11222,"aÅ¡a":11223,"ute":11224,"Ġstab":11225,"Ġsmagi":11226,"RO":11227,"vel":11228,"ÄģÅ¾u":11229,"iskajam":11230,"Ä«gÄģkÄģ":11231,"Ġbaltas":11232,"Ġpasauli":11233,"Ġparlaments":11234,"ĠizstÄģjÄģs":11235,"ĠArturs":11236,"iedu":11237,"ĠlÄ«b":11238,"ĠJÅ«n":11239,"Ġ1888":11240,"Ã©r":11241,"ĠXX":11242,"Ġnotikumu":11243,"ĠDNS":11244,"ĠWar":11245,"ĠdalÄ«bniekiem":11246,"Ġ1876":11247,"ĠbasketbolÄģ":11248,"Ã¤n":11249,"ĠfrontÄĵ":11250,"ĠaizsardzÄ«bu":11251,"ĠÄ·ermeni":11252,"Ġbaseina":11253,"mÅ«zikas":11254,"ikam":11255,"Ġcir":11256,"ĠJum":11257,"ĠlÄ«dzÄ«gas":11258,"ĠCÄ«ÅĨas":11259,"ozas":11260,"ĠpusÄĵm":11261,"ĠpusmuiÅ¾a":11262,"1958":11263,"Ġsprieg":11264,"ĠzinÄģtnisko":11265,"ĠmarÅ¡rutÄģ":11266,"iceÄįempion":11267,"ĠLidojuma":11268,"Ġvilcienu":11269,"Ex":11270,"sas":11271,"ÅĦ":11272,"Ġdoc":11273,"ĠnospÄĵl":11274,"Ġuzz":11275,"Ġgvar":11276,"Ġalus":11277,"Ġziemo":11278,"oloÄ£iskie":11279,"Ġangl":11280,"kalpe":11281,"ĠPÄģrdauga":11282,"Ġsingli":11283,"ĠceremonijÄģ":11284,"Ġul":11285,"Ġnamu":11286,"idi":11287,"ĠIec":11288,"1929":11289,"atÄ«va":11290,"ĠbraucienÄģ":11291,"ĠpÄģrvietojas":11292,"Ġfaktiski":11293,"ĠLudvigs":11294,"For":11295,"ew":11296,"amos":11297,"Ġnogr":11298,"okomot":11299,"ĠtroÅĨa":11300,"Ġslov":11301,"ĠlielÄģkajÄģm":11302,"Ġabiem":11303,"ĠsavienÄ«bu":11304,"Ġtelpu":11305,"Ġilggad":11306,"ĠattÄĵla":11307,"ĠQu":11308,"ĠDetroitas":11309,"LC":11310,"vietu":11311,"acÄ«kstes":11312,"Ġpolitika":11313,"ĠOrb":11314,"ĠsaglabÄģjuÅ¡Äģs":11315,"ĠsaÅĨÄĵmusi":11316,"ĠVenÄĵc":11317,"mÄģc":11318,"otajÄģs":11319,"ĠSon":11320,"app":11321,"osip":11322,"ĠlÄ«dzekÄ¼iem":11323,"ipa":11324,"Ġpasta":11325,"stÄģÅ¡anÄģs":11326,"ĠdzinÄĵju":11327,"ĠDzelzs":11328,"ĠUniversity":11329,"angs":11330,"ĠSavas":11331,"egul":11332,"ĠmÅ«Å¾":11333,"Ġsimbolu":11334,"ĠpÄĵcnÄģc":11335,"ĠvaldÄ«bÄģ":11336,"ĠZiemeÄ¼Äģfr":11337,"ĠViteb":11338,"ÙĬ":11339,"grÄģv":11340,"Ġekr":11341,"ĠpÄģrstÄģvÄĵjis":11342,"Ġpulku":11343,"gÄģÄ¼u":11344,"Ġklasific":11345,"Ġpulkvedis":11346,"ĠvÄĵdera":11347,"ĠMonreÄģla":11348,"oo":11349,"isija":11350,"izÄĵts":11351,"Äĵjai":11352,"ĠMercedes":11353,"Ġnepat":11354,"ĠmoduÄ¼a":11355,"ĠattÄĵlots":11356,"ĠlÄ«vu":11357,"izÄĵt":11358,"ĠdzimuÅ¡i":11359,"Ġ105":11360,"Ġautosport":11361,"iniekus":11362,"Ġizpost":11363,"ĠÄĮehijÄģ":11364,"ĠloÅ¾met":11365,"ĠrelatÄ«vi":11366,"ĠÄ»eÅĨingradas":11367,"ĠklÄģtbÅ«t":11368,"Ġkolhoza":11369,"TT":11370,"iÄ·u":11371,"ĠAR":11372,"ĠKuÄ£":11373,"Ġritu":11374,"ĠFed":11375,"eits":11376,"ĠpriekÅ¡roc":11377,"1965":11378,"ĠYork":11379,"ĠAizkrauk":11380,"Ġstatistika":11381,"ĠBurt":11382,"ology":11383,"ĠpievÄĵrsÄģs":11384,"IX":11385,"ee":11386,"Ġai":11387,"Ġsist":11388,"Ġatcel":11389,"Ġprogres":11390,"ĠEP":11391,"Ġ1878":11392,"Ġpreces":11393,"ĠÄĵras":11394,"ĠArmÄĵnijas":11395,"AM":11396,"ĠdÄ«z":11397,"abi":11398,"ivas":11399,"ĠattÄĵls":11400,"Ġaugstas":11401,"Ġlocekli":11402,"ĠMinhene":11403,"Ð¾Ð³Ð¾":11404,"ĠKazahstÄģnas":11405,"Ġ3166":11406,"Ġpiena":11407,"ilda":11408,"Äģjumi":11409,"1925":11410,"Ġtiktu":11411,"ĠvecÄģkÄģ":11412,"Ġtiesu":11413,"ĠÅ½urn":11414,"ĠpusfinÄģlÄģ":11415,"Ġnabadz":11416,"cin":11417,"Ġkot":11418,"ĠSj":11419,"ĠTemp":11420,"ĠJÄģ":11421,"ĠveidoÅ¡anÄģs":11422,"eÅ¡s":11423,"Ġkatras":11424,"ĠsadzÄ«v":11425,"Ġneviens":11426,"Ġdienvidaustrumu":11427,"ĠElizabetes":11428,"Heat":11429,"ĠPiec":11430,"okol":11431,"ectr":11432,"Ð¾Ð±":11433,"1934":11434,"1959":11435,"atnÄĵ":11436,"ĠSP":11437,"ĠBog":11438,"ĠHan":11439,"ĠfiliÄģl":11440,"Ġ*'''":11441,"angers":11442,"ĠGrieÄ·ijÄģ":11443,"ĠmotÄ«viem":11444,"Ġciltis":11445,"ĠpieÅ¡Ä·Ä«rusi":11446,"ÄĵlÄģ":11447,"ĠJanvÄģr":11448,"Ġtrase":11449,"ĠPark":11450,"Ġnorv":11451,"Ġnozieg":11452,"Ġgatve":11453,"ĠGregora":11454,"EN":11455,"Ġzib":11456,"ĠkrÅ«Å¡u":11457,"Ä«des":11458,"ĠSavienoto":11459,"ÄĵjoÅ¡o":11460,"ĠnoslÄĵgts":11461,"ĠfakultÄģti":11462,"Ġmeitu":11463,"ĠDÄģvids":11464,"Aiz":11465,"ĠÄĢtr":11466,"iÄģlais":11467,"Ġlidl":11468,"ĠtradÄ«c":11469,"ĠZinÄģtn":11470,"piebal":11471,"ĠPic":11472,"ĠFol":11473,"ĠEUR":11474,"Äĵku":11475,"anses":11476,"ĠdienestÄģ":11477,"ĠpalÄ«gs":11478,"ĠuzÅĨÄĵmumam":11479,"ĠmÄĵra":11480,"Ġspecif":11481,"ĠizvÄĵles":11482,"ĠNATO":11483,"ĠWilliams":11484,"Rom":11485,"Vil":11486,"Ġtips":11487,"Ġbank":11488,"ĠMiÄ·":11489,"Ġapgaism":11490,"Ġlielais":11491,"Ġaste":11492,"1961":11493,"ĠbijuÅ¡o":11494,"Ġkonference":11495,"ĠareÄģls":11496,"ĠseptiÅĨas":11497,"mÅ«sdien":11498,"erti":11499,"ĠMasa":11500,"ĠpopulÄģrs":11501,"Ġatjaunot":11502,"ĠIkÅ¡Ä·":11503,"ikÄģs":11504,"Ġieejas":11505,"ĠNig":11506,"ĠHeid":11507,"ĠHart":11508,"ipi":11509,"Ġ160":11510,"ĠturpinÄģjums":11511,"ĠMont":11512,"ĠAizputes":11513,"ĠuzstÄģdÄ«ja":11514,"Ġdubultsp":11515,"icrosoft":11516,"Kal":11517,"Paul":11518,"Ġsoci":11519,"ÄĵrijÄģ":11520,"ĠspoÅ¾":11521,"ĠGaz":11522,"eces":11523,"Ä«dÄģ":11524,"ĠvecÄģkiem":11525,"ĠSkandin":11526,"ĠatkarÄ«gs":11527,"ĠApdzÄ«votÄģs":11528,"ĠstafetÄĵ":11529,"Lietu":11530,"Ä«las":11531,"alitÄģtes":11532,"Ġmaj":11533,"evÄģ":11534,"ival":11535,"ĠHj":11536,"Ġpirmos":11537,"ney":11538,"ĠcentrÄģl":11539,"ĠlielÄģkajos":11540,"ĠgalvenajÄģ":11541,"ĠsarÄ«k":11542,"Å«kas":11543,"ĠplaÅ¡a":11544,"ĠskaitÄ«Å¡anas":11545,"ĠadministratÄ«vi":11546,"ĠCiema":11547,"ĠVjetn":11548,"eet":11549,"ĠPopul":11550,"oslavs":11551,"astop":11552,"mana":11553,"ĠkanÄģlu":11554,"ĠSenÄģs":11555,"ĠÄ·Ä«miÄ·is":11556,"ĠStudÄĵja":11557,"ĠKuz":11558,"ĠKamp":11559,"ĠLet":11560,"Ġauk":11561,"eib":11562,"ĠslÄģ":11563,"Ġjaunus":11564,"ĠsabiedrÄ«bu":11565,"Ġfizikas":11566,"ĠatkarÄ«ga":11567,"Ġvariants":11568,"ĠbÄģr":11569,"itÄģs":11570,"ĠspÄĵju":11571,"ĠlÄ«cÄ«":11572,"Ġ1758":11573,"aides":11574,"erbonis":11575,"Ġministrija":11576,"ĠreÅ¾isore":11577,"Ġpedagogs":11578,"Ġaugsnes":11579,"Ġresursu":11580,"Ir":11581,"Mag":11582,"ft":11583,"ĠTj":11584,"ĠTab":11585,"ĠzinÄģÅ¡anas":11586,"ĠCH":11587,"Äĵka":11588,"ĠplÄģnu":11589,"Ġmirst":11590,"ĠzinÄģtnieks":11591,"ĠÄĢdams":11592,"ĠOzoliÅĨÅ¡":11593,"ĠPapildus":11594,"mÄģrs":11595,"Ġsien":11596,"ĠSÄ«rijas":11597,"unc":11598,"ĠpÄģrÄĵjie":11599,"ĠIzdev":11600,"okss":11601,"ĠSÄģkumÄģ":11602,"ĠdalÄ«bu":11603,"ĠpastÄģvÄĵt":11604,"Ġmetodi":11605,"ĠÄ¢im":11606,"ĠrÅ«pniec":11607,"ĠpakÄģpi":11608,"Ġtransports":11609,"Ġdepartamenta":11610,"ĠMusic":11611,"Å¡teins":11612,"don":11613,"ainais":11614,"ĠkÅĨazu":11615,"Ġdegun":11616,"ĠatvÄĵrta":11617,"ickis":11618,"ĠJek":11619,"Ġakcijas":11620,"ĠtÄģds":11621,"Ġkrustojuma":11622,"riors":11623,"Ġ1861":11624,"Ġintel":11625,"ĠKokneses":11626,"BM":11627,"ĠtÄģlu":11628,"ĠNod":11629,"Äįiem":11630,"ĠOstr":11631,"Ġgarn":11632,"Ġnodedz":11633,"ĠiekÄ¼aut":11634,"Ġmodeli":11635,"Ġviela":11636,"Ġapspr":11637,"ĠnorvÄĵÄ£":11638,"igu":11639,"Ġsega":11640,"Ġkori":11641,"ento":11642,"Ġhlor":11643,"ĠInc":11644,"Ġjauni":11645,"Ġlatvietis":11646,"ĠlidojumÄģ":11647,"ĠdzelzceÄ¼u":11648,"ĠtÄĵvu":11649,"ĠatÅ¡Ä·irÄ«bas":11650,"Ġebreji":11651,"ĠAugust":11652,"Ġzvaigzne":11653,"slidoÅ¡ana":11654,"Ġligzdu":11655,"ĠsavrupmÄģju":11656,"Meln":11657,"Ġen":11658,"Å¡ais":11659,"ĠsabiedriskÄģ":11660,"ĠkarjerÄģ":11661,"genskaln":11662,"Äĵgu":11663,"Ġserb":11664,"ĠGabr":11665,"ĠKatoÄ¼u":11666,"Ġlauksaim":11667,"elgavas":11668,"ĠskaitÄ¼u":11669,"Ġstandart":11670,"ĠTun":11671,"Äĵle":11672,"ĠizmantoÅ¡anu":11673,"ĠSkots":11674,"ĠTurcijÄģ":11675,"kopÅ¡":11676,"Ġnepiedal":11677,"Ġplast":11678,"ĠDiÅ¾":11679,"ĠIvars":11680,"Ð°Ð¼":11681,"ĠaugstÄģkÄģs":11682,"Ġradniec":11683,"ĠkvalitÄģtes":11684,"Ø§ÙĦ":11685,"ĠPatriks":11686,"ĠEuropean":11687,"LV":11688,"ĠsastÄģvdaÄ¼a":11689,"ĠWe":11690,"ieÅ¾ot":11691,"Ġplatums":11692,"Ġnoteikumi":11693,"ĠtreÅ¡Äģs":11694,"ĠmÄĵneÅ¡iem":11695,"ĠogÄ¼":11696,"ĠCompany":11697,"Pasaules":11698,"Îµ":11699,"idÅ¾":11700,"Ġatguva":11701,"ĠTÄ«r":11702,"1927":11703,"Ġgalu":11704,"Ġapraksta":11705,"Ġbanka":11706,"ĠFiladelfijas":11707,"ĠsÄģp":11708,"ĠToties":11709,"eidza":11710,"ĠatklÄģtÄģ":11711,"1935":11712,"Ġroku":11713,"Ġcilindr":11714,"ĠsÄ«kÄģk":11715,"joties":11716,"Ã±":11717,"Ġved":11718,"ĠKot":11719,"Ġizaugs":11720,"ĠJeru":11721,"Ġaizb":11722,"Äĵtajiem":11723,"ĠvietÄĵjÄģs":11724,"ĠDienvidkor":11725,"Ġidentific":11726,"ĠBizantijas":11727,"Åħ":11728,"iekst":11729,"ĠFiÅ¡":11730,"ipul":11731,"Ġgalam":11732,"Ġpludmal":11733,"Ġvirsnieku":11734,"vÄĵlÄģk":11735,"Ð²Ð°Ð½":11736,"Ġapmetne":11737,"Ġizmaksas":11738,"ĠVaÅ¡ingtonas":11739,"ĠsÄģnu":11740,"Ġ('''":11741,"ĠpÄģrejas":11742,"ipe":11743,"slieÅ¾u":11744,"iedrich":11745,"udas":11746,"ĠslimnÄ«cÄģ":11747,"ĠjÄģat":11748,"ĠsaldÅ«dens":11749,"aiÅ¡u":11750,"Ġuzglab":11751,"aji":11752,"ĠlÄ«dzs":11753,"ĠÅłtr":11754,"ĠAls":11755,"Ġuzvarot":11756,"ĠVisbieÅ¾Äģk":11757,"ĠKontin":11758,"ĠtuvÄģk":11759,"ĠAuto":11760,"ĠseriÄģla":11761,"Ñį":11762,"arch":11763,"Ġdur":11764,"oro":11765,"ĠAig":11766,"ĠspÄĵjas":11767,"ĠESP":11768,"1926":11769,"kaÅĨ":11770,"tures":11771,"Ġseptembrim":11772,"Ġmetropol":11773,"ĠapvienojÄģs":11774,"Ġkomisija":11775,"ĠPlatÄ«ba":11776,"UTC":11777,"del":11778,"ĠÅĨemot":11779,"angu":11780,"Ġland":11781,"ĠBand":11782,"icu":11783,"ĠpÄģrÄĵjiem":11784,"ĠklajÄģ":11785,"Sparta":11786,"ĠapstÄģkÄ¼iem":11787,"ĠTeritor":11788,"ĠÅ¡tÄģba":11789,"Ġber":11790,"ĠLen":11791,"ĠLej":11792,"Ġrakstos":11793,"ĠietekmÄĵja":11794,"Ġepiz":11795,"New":11796,"ĠkatedrÄģle":11797,"Ġizlaida":11798,"nijs":11799,"ĠtÄĵls":11800,"Ġdot":11801,"Ä«tus":11802,"ĠIgaunija":11803,"Ġmani":11804,"ĠGalvenÄģ":11805,"ĠaudzÄĵk":11806,"ĠjautÄģjumiem":11807,"auÅ¡anas":11808,"Ġmaiz":11809,"ĠTuk":11810,"ĠNem":11811,"Ġkolonijas":11812,"1963":11813,"Ġmikro":11814,"ĠpaaugstinÄģts":11815,"ĠsituÄģciju":11816,"Ġkareivju":11817,"ischen":11818,"#'''":11819,"orijas":11820,"ĠSw":11821,"ĠKlai":11822,"ĠBad":11823,"Ġparaz":11824,"Ġprez":11825,"ĠJers":11826,"Ġkaf":11827,"Ġvairums":11828,"ĠStju":11829,"Äģbs":11830,"ĠkapitÄģl":11831,"Ä«tÄģm":11832,"ĠsaglabÄģt":11833,"Ġteksts":11834,"ĠTokija":11835,"ĠBruno":11836,")\"":11837,"omm":11838,"ĠpÄģrÄĵjo":11839,"ĠvienÄ«go":11840,"ograf":11841,"ĠopozÄ«c":11842,"ĠPaÅ¡vald":11843,"ĠspÄĵcÄ«gi":11844,"Ġbumbas":11845,"ĠJun":11846,"Ġgul":11847,"Ġpaveid":11848,"afs":11849,"Ġ1887":11850,"ĠCentrs":11851,"1957":11852,"ĠuzbÅ«ve":11853,"ĠmusulmaÅĨu":11854,"ĠFjod":11855,"esp":11856,"aidu":11857,"gre":11858,"1923":11859,"ĠHist":11860,"Ġalgorit":11861,"ĠIzpild":11862,"ĠieroÄį":11863,"ĠÅħÅ«d":11864,"ĠinstitÅ«tu":11865,"ĠatbilstoÅ¡":11866,"Ġasfalta":11867,"zir":11868,"ĠnamÄģ":11869,"ĠKons":11870,"ĠIelÄģ":11871,"ĠvienÄ«bÄģs":11872,"Ġgalma":11873,"ĠizmÄĵra":11874,"ĠslÄģnis":11875,"Ġnavig":11876,"Ġ1873":11877,"ĠTeil":11878,"ĠGunÄģrs":11879,"ĠarhibÄ«skaps":11880,"ĠvÄģrtsargs":11881,"ĠdvÄĵs":11882,"Ġnej":11883,"tÄģra":11884,"ĠKing":11885,"ĠpalÄ«g":11886,"ĠpunktÄģ":11887,"astrof":11888,"ĠUzvaras":11889,"ĠidentitÄģ":11890,"ĠmedaÄ¼nieki":11891,"ĠatvaÄ¼":11892,"ĠIetek":11893,"ĠislÄģma":11894,"ĠNovgorodas":11895,"Dev":11896,"FI":11897,"Ä«la":11898,"osc":11899,"omÄģm":11900,"ĠDun":11901,"ĠkrÅ«t":11902,"ĠCap":11903,"ĠCaur":11904,"ĠWings":11905,"Ġupuri":11906,"Ġilgu":11907,"ĠPlan":11908,"ĠaustrieÅ¡u":11909,"ĠizplatÄ«ts":11910,"ĠSomija":11911,"ĠokeÄģns":11912,"Ġmelns":11913,"Ã¶r":11914,"ĠbalstÄģs":11915,"ĠenerÄ£iju":11916,"ĠÄ£imnÄģzija":11917,"ĠKup":11918,"ĠMes":11919,"ĠBlu":11920,"eza":11921,"Ġtropu":11922,"ĠuzÅĨÄĵmumiem":11923,"ĠnozÄ«mÄ«ga":11924,"Ġ1871":11925,"ĠOlimpiskÄģ":11926,"Ġtransport":11927,"ĠBerlÄ«ne":11928,"ĠstruktÅ«ru":11929,"ĠSalaspils":11930,"Fly":11931,"ĠsÄģr":11932,"ĠJam":11933,"Ġaugl":11934,"Å«ri":11935,"Ġdarbam":11936,"ĠValÄĵrijs":11937,"ektora":11938,"ĠmÄģkslinieka":11939,"ĠatzÄ«st":11940,"ĠteorÄĵt":11941,"ĠmazuÄ¼iem":11942,"ĠPÄĵdÄĵjÄģ":11943,"ĠvÄĵjÅ¡":11944,"Ġalkoh":11945,"LNNK":11946,"ĠLip":11947,"ĠVingr":11948,"ĠpÄģrkl":11949,"ĠCol":11950,"ĠÄĢb":11951,"Ġestr":11952,"Ġlaukumu":11953,"ĠesoÅ¡Äģ":11954,"Ġkomponisti":11955,"Ġpseid":11956,"Ġatdala":11957,"ĠKoz":11958,"Ġuzcel":11959,"ĠsÄģkumam":11960,"ĠspÄĵlÄĵtÄģjiem":11961,"Ġietekas":11962,"Ġ1863":11963,"ĠslÄĵgta":11964,"Dzimis":11965,"My":11966,"ean":11967,"ĠAHL":11968,"ĠSojuz":11969,"Ġautoru":11970,"ĠvecÄģ":11971,"ĠpaÅ¡n":11972,"naeus":11973,"Ġ1875":11974,"ĠatseviÅ¡Ä·as":11975,"ĠsamazinÄģjÄģs":11976,"ĠtorÅĨa":11977,"valstÄ«m":11978,"elle":11979,"oskop":11980,"ulti":11981,"ĠtobrÄ«d":11982,"ĠÐ±":11983,"eÅ¡as":11984,"efr":11985,"Ġrietum":11986,"ĠkanÄģlÄģ":11987,"ĠLis":11988,"ojami":11989,"ĠAnti":11990,"ĠAtm":11991,"adomju":11992,"ĠnozÄ«mÄ«gu":11993,"Ġturpm":11994,"ĠÄ«su":11995,"ĠkandidÄĵja":11996,"ĠvÄģrtiem":11997,"Gads":11998,"doÅ¡anas":11999,"iÄ¼i":12000,"Ġtat":12001,"usas":12002,"ĠVern":12003,"Ġaplis":12004,"ĠHon":12005,"oÅ¡os":12006,"Ġtiesnesis":12007,"Ġapvienojot":12008,"ĠpapÄ«ra":12009,"laikos":12010,"ĠÄģtrÄģk":12011,"ĠbruÅĨur":12012,"ĠabsolÅ«tais":12013,"Canadiens":12014,"arks":12015,"ato":12016,"izÄĵta":12017,"tavas":12018,"arbÅ«t":12019,"ĠezerÄģ":12020,"Ġkalna":12021,"1946":12022,"ĠiemÄģc":12023,"irgus":12024,"Ð½ÑĭÐ¹":12025,"Ġtanku":12026,"stas":12027,"ave":12028,"ĠDab":12029,"ĠIeva":12030,"ĠvienÄ«bÄģ":12031,"inÄģÅ¡anos":12032,"inae":12033,"ball":12034,"Ġstarpz":12035,"gano":12036,"ÄĵÅ¡anÄģm":12037,"ĠSkol":12038,"Ġekv":12039,"ĠlaukÄģ":12040,"ower":12041,"ĠSalac":12042,"ĠsimbolizÄĵ":12043,"ĠPateicoties":12044,"ĠplaÅ¡s":12045,"Ġizteikti":12046,"ĠPÄģrstÄģvÄĵjis":12047,"Ġtuk":12048,"entes":12049,"ĠBÄ«b":12050,"ĠpÄģrnes":12051,"istisko":12052,"ĠizrÄģdÄĵ":12053,"Ġpasaule":12054,"Ġpaman":12055,"Ġportr":12056,"Bruins":12057,"ÑĬ":12058,"Ġy":12059,"Å¡ÅĨu":12060,"Ġvab":12061,"ĠJord":12062,"ĠÄįempioniem":12063,"Ġpamatlic":12064,"mirusi":12065,"ĠEng":12066,"ĠredzÄĵt":12067,"ĠAlbÄģnijas":12068,"ĠSportisti":12069,"ĠNÄ«derlandÄĵ":12070,"ĠenerÄ£ija":12071,"austrumos":12072,"Sar":12073,"ww":12074,"Ä«sp":12075,"atÅ«ru":12076,"ĠTal":12077,"Äģjumus":12078,"ĠFet":12079,"ĠEti":12080,"ĠÄ¶er":12081,"Ġveicot":12082,"Ġprofesoru":12083,"1942":12084,"ĠneatkarÄ«gi":12085,"ĠpanÄģkt":12086,"Ġtermins":12087,"ĠaktivitÄģtes":12088,"110":12089,"irts":12090,"Ġnoform":12091,"ojÄģ":12092,"Ä·im":12093,"Ġdarbojies":12094,"ĠArÄģbu":12095,"Ġpavada":12096,"ambl":12097,"ĠilgstoÅ¡i":12098,"Ġmisijas":12099,"ĠKval":12100,"ĠZol":12101,"Ġskel":12102,"ensons":12103,"ĠÐ·":12104,"ĠmÅ«Å¾u":12105,"ĠSpÄģr":12106,"ĠsacÄ«kÅ¡u":12107,"Ġsieviete":12108,"Ġkareivji":12109,"ĠPortrets":12110,"ĠriteÅĨbraucÄĵjs":12111,"ĠStaÄ¼ina":12112,"ĠNezinÄģms":12113,"ury":12114,"Ġgraud":12115,"Ġolbalt":12116,"Ġ09":12117,"ostu":12118,"elsons":12119,"Ġilustr":12120,"ĠraÅ¾o":12121,"ĠKaraliste":12122,"kapi":12123,"ĠkongresÄģ":12124,"Ġterminu":12125,"ET":12126,"mor":12127,"ĠPeld":12128,"ĠpÄģrskat":12129,"Ġdzimum":12130,"ĠjÅ«lijam":12131,"fÄ«l":12132,"ram":12133,"ĠVesel":12134,"ĠDuk":12135,"Ġ1886":12136,"ĠpÄģrdots":12137,"ĠiepriekÅ¡Äĵjo":12138,"rietumos":12139,"ĠatbrÄ«voÅ¡anas":12140,"ĠÄĮempionu":12141,"Con":12142,"Ġsolo":12143,"ĠÅ¡elf":12144,"ĠÅłÄį":12145,"ĠdzÄ«vnieks":12146,"Ð½Ð¸Ðº":12147,"Ġattiecas":12148,"Ġfunkcija":12149,"ĠKrÄģslavas":12150,"ilers":12151,"ĠServ":12152,"Ġrat":12153,"ĠsavÄģk":12154,"ĠSports":12155,"Ġnepiet":12156,"ĠOlga":12157,"ĠMaiks":12158,"ĠlidmaÅ¡Ä«nu":12159,"ĠVarÅ¡avas":12160,"ĠNeatkarÄ«bas":12161,"MÄģr":12162,"ret":12163,"erÄ£":12164,"izveid":12165,"Ġiztek":12166,"ĠMÄģra":12167,"ĠFranc":12168,"Ġministri":12169,"ÑĥÑģ":12170,"ĠnelielÄģ":12171,"ĠievÄĵlÄĵta":12172,"Ġelektronu":12173,"Ġ1879":12174,"ĠKristÄ«ne":12175,"skÄģbi":12176,"Ġceremonija":12177,"Ġsumma":12178,"ĠBranden":12179,"Ġbakal":12180,"CH":12181,"Ä«Ä¼u":12182,"ÅĨai":12183,"tain":12184,"ĠVIII":12185,"Ġatnes":12186,"ĠapÄ£Äĵrb":12187,"Ġgalakt":12188,"Ġveidoties":12189,"ĠInform":12190,"ĠAustrijÄģ":12191,"ĠoperÄģ":12192,"ÄĵjoÅ¡Äģ":12193,"Ġdepartaments":12194,"Ġsabrukuma":12195,"Ġzonde":12196,"Ġ'''(":12197,"Ġcenu":12198,"Ġdzel":12199,"ĠApraksts":12200,"ĠmaÄįÄģ":12201,"ger":12202,"Ä«gumu":12203,"itijas":12204,"ĠsÄģkumu":12205,"Ð¸Ð·":12206,"Ġattiek":12207,"Ġasi":12208,"Ġsuver":12209,"ĠatjaunoÅ¡anu":12210,"Ġizliek":12211,"ĠVasiÄ¼":12212,"ĠParlamenta":12213,"ermÄģ":12214,"ego":12215,"ĠÄĢgenskaln":12216,"ĠÐ»":12217,"ĠPriv":12218,"Ġizveidotas":12219,"ĠmazÄģka":12220,"Ġnekust":12221,"ĠkompÄģniju":12222,"Ġfunkcion":12223,"ĠdekÄģdes":12224,"ĠlaureÄģti":12225,"Ġlogo":12226,"echn":12227,"ĠsmadzeÅĨu":12228,"ĠMarÅ¡ruts":12229,"piem":12230,"Ø¯":12231,"aids":12232,"ĠKarp":12233,"ĠMun":12234,"ĠFac":12235,"Ġbalti":12236,"Ġversiju":12237,"Ġkods":12238,"ĠnominÄģl":12239,"Ġpretendentu":12240,"ĠpieslÄĵg":12241,"virs":12242,"Ġplata":12243,"Ä«tajiem":12244,"ĠEiropa":12245,"ĠAttÄ«st":12246,"ĠSigism":12247,"Sarkan":12248,"ff":12249,"Ä«ka":12250,"Å«kl":12251,"ĠBasketbol":12252,"ĠtraÄ£":12253,"itÄģtÄĵ":12254,"ĠspeciÄģli":12255,"ĠmedicÄ«n":12256,"ĠbrÄ«di":12257,"inÄģtÄģju":12258,"ĠprogrammatÅ«ras":12259,"KÄģrlis":12260,"Su":12261,"my":12262,"erÄ«":12263,"tup":12264,"ĠHÄģr":12265,"uÅ¡Äį":12266,"ĠUS":12267,"ĠspÄĵlÄĵjot":12268,"ologu":12269,"ymp":12270,"ĠMarsa":12271,"ĠkorporÄģcijas":12272,"latvijas":12273,"kam":12274,"red":12275,"wo":12276,"ĠvÄĵlreiz":12277,"ĠmÅ«ziÄ·":12278,"ĠvÄ«rs":12279,"All":12280,"ations":12281,"ĠsacÄ«kstÄĵs":12282,"ĠÅ«denskrÄģtu":12283,"ĠpartizÄģnu":12284,"Ġkonstrukt":12285,"Mad":12286,"arovs":12287,"ĠSTS":12288,"ĠJura":12289,"ĠcentrÄģlÄģs":12290,"Ġietekmes":12291,"ĠIlg":12292,"hawks":12293,"CD":12294,"Powiat":12295,"ankas":12296,"ille":12297,"ĠrÄģdi":12298,"ĠÅ¡aut":12299,"agl":12300,"Ġinfic":12301,"Ä«lija":12302,"Ġdirektoru":12303,"ĠuzskaitÄ«jumÄģ":12304,"Ġkakla":12305,"ĠbrÄģzmas":12306,"ĠMetalurgs":12307,"PP":12308,"ÙĦ":12309,"Ġkub":12310,"Ġmen":12311,"ose":12312,"antiem":12313,"ĠÄ£itÄģra":12314,"ĠaltÄģr":12315,"eÅĨÄ£":12316,"Ġciemats":12317,"ĠpopulÄģcija":12318,"ĠGalvenie":12319,"Â».":12320,"Ġvelosip":12321,"ĠkoncentrÄģcijas":12322,"Bor":12323,"ĠtÄģr":12324,"Ġrota":12325,"ĠKarte":12326,"ĠpÄĵdas":12327,"ĠmÄģksla":12328,"Ġsasniegums":12329,".;":12330,"Be":12331,"ket":12332,"ĠÄĵt":12333,"ĠPul":12334,"ĠDam":12335,"aisa":12336,"ieres":12337,"ugo":12338,"andrÄ«z":12339,"ĠveicinÄģja":12340,"ĠDienvidamerikas":12341,"ances":12342,"ĠbiogrÄģfija":12343,"ĠsadarbÄ«bu":12344,"ĠtrimdÄģ":12345,"Ġ%),":12346,"ĠÄĮempioni":12347,"Ġmolekul":12348,"iÅ¡u":12349,"ures":12350,"ĠLem":12351,"anth":12352,"ĠÄįempione":12353,"ĠmÄĵrÄ·iem":12354,"evolÅ«":12355,"ĠpieÅĨemt":12356,"Ġligzdas":12357,"ĠuzbÅ«vÄĵta":12358,"ĠnominÄģcijÄģ":12359,"Ġrepubliku":12360,"ĠcilvÄĵc":12361,"anam":12362,"Ġdikt":12363,"Ġnojauk":12364,"ĠMust":12365,"Ġapd":12366,"Äģrtas":12367,"ĠdzÄ«vÄ«bas":12368,"ĠstÄģstu":12369,"Ġkrastiem":12370,"Ġugun":12371,"Ġsuper":12372,"Aleksandrs":12373,"Co":12374,"aÅĨa":12375,"dinÄģl":12376,"fin":12377,"Ä»":12378,"Ġis":12379,"ĠHum":12380,"ĠlÄ«dzekÄ¼us":12381,"ĠneoficiÄģl":12382,"Ġpatri":12383,"Ġmanipul":12384,"ĠÅ¡aurums":12385,"Ġredak":12386,"ĠBaltkrievijÄģ":12387,"ĠpÄģrdÄĵvÄĵts":12388,"awks":12389,"enieku":12390,"ĠTreÅ¡Äģ":12391,"ĠAss":12392,"ĠKandid":12393,"ĠRev":12394,"ĠJauk":12395,"Ġ108":12396,"ĠzaudÄĵjis":12397,"ĠRepubliku":12398,"ĠslimnÄ«ca":12399,"ĠvienÄģds":12400,"ĠPrÄģgas":12401,"base":12402,"ound":12403,"Ġ).":12404,"ĠKamer":12405,"ĠdaudzÄģm":12406,"Ġsavienojumu":12407,"ĠKonf":12408,"Ġvirzienu":12409,"ĠpulkÄģ":12410,"ĠsengrieÄ·u":12411,"Ġekonomisko":12412,"ĠMaltas":12413,"Ġemoc":12414,"ĠRakstos":12415,"Ġkomunistu":12416,"ĠÄ«patÅĨi":12417,"ĠStefans":12418,"kub":12419,"ĠTos":12420,"Ä«gÄģkais":12421,"ĠZaud":12422,"ĠPrinc":12423,"âĢĻ)":12424,"Ġapkalpo":12425,"SM":12426,"ĠuzrÄģd":12427,"ĠzÄģÄ¼u":12428,"Äĵnes":12429,"ĠjaunÄģko":12430,"Ġizveidi":12431,"ĠÄģrvalstu":12432,"ĠDroÅ¡":12433,"ĠsaglabÄģjies":12434,"ĠdiecÄĵzes":12435,"Pac":12436,"ĠLuc":12437,"Ġaus":12438,"upit":12439,"igo":12440,"Ġplau":12441,"Ġrakstniece":12442,"ĠizceÄ¼":12443,"Ġmartam":12444,"Å«lija":12445,"ĠspÄĵcÄ«gs":12446,"ĠticÄ«bas":12447,"ĠaÄ£entÅ«ras":12448,"dorf":12449,"pÅ«":12450,"uch":12451,"ĠsistemÄģt":12452,"ĠGom":12453,"ĠsÄģkt":12454,"ĠKarÄ«bu":12455,"ĠdekÄģdÄĵ":12456,"cÄ«ÅĨa":12457,"ĠJaroslav":12458,"ĠplÅ«smas":12459,"Ġizzudis":12460,"Var":12461,"bul":12462,"Ġlim":12463,"ienam":12464,"Ġtrop":12465,"ĠTrad":12466,"encs":12467,"ÑģÐºÐ¾Ð¹":12468,"Ġikgad":12469,"izglÄ«tÄ«bas":12470,"ĠJeruz":12471,"You":12472,"udz":12473,"ĠSur":12474,"Ġizmain":12475,"ĠHai":12476,"ĠUs":12477,"aÅ¡s":12478,"valodÄģ":12479,"Ġkatastrof":12480,"ĠÄ¶Ä«na":12481,"Ġveikts":12482,"ĠpÄĵtÄ«jumus":12483,"Ġfizi":12484,"ĠatmosfÄĵrÄģ":12485,"ĠLedus":12486,"Op":12487,"kol":12488,"mÄģtes":12489,"Ġbin":12490,"Ġizkr":12491,"ĠvienoÅ¡anos":12492,"ipu":12493,"ĠizcÄĵlÄģs":12494,"ĠabÄģs":12495,"allurg":12496,"eitas":12497,"ĠSlim":12498,"Ġiesnieg":12499,"ĠVladislavs":12500,"Ġelementiem":12501,"ĠStokholmÄģ":12502,"ĠBundesl":12503,"kad":12504,"Ġpalaisti":12505,"ĠTram":12506,"uzvar":12507,"Ġprezidenti":12508,"ĠÅħÅ«":12509,"Ġrindas":12510,"ĠseriÄģls":12511,"Ġpieejams":12512,"ĠSatiks":12513,"ĠreÅ¾Ä«ma":12514,"ĠaizsardzÄ«ba":12515,"VÄĵstur":12516,"ĠRodr":12517,"Ġuzd":12518,"ĠbruÅĨu":12519,"neta":12520,"ĠpiedalÄ«Å¡anos":12521,"Ġklubos":12522,"ĠuzskaitÄ«jumi":12523,"Ġiedves":12524,"Vol":12525,"Willi":12526,"gari":12527,"Ġsel":12528,"Ġtajos":12529,"Ġnam":12530,"ĠSir":12531,"ĠsÄģkta":12532,"ĠvÄĵlÄĵÅ¡anÄģm":12533,"Ġasin":12534,"ĠFreder":12535,"ĠkanÄģd":12536,"ĠnacionÄģlajÄģ":12537,"ĠpozÄ«ciju":12538,"VID":12539,"Ġcietoksni":12540,"Ġrestaur":12541,"mÅ«r":12542,"Å³":12543,"ÙĪ":12544,"Ġtauk":12545,"enos":12546,"enei":12547,"enberga":12548,"Ġly":12549,"ĠmoÅ¡":12550,"Ġiegr":12551,"gram":12552,"ĠzÄ«l":12553,"ĠFar":12554,"lah":12555,"Ġ1848":12556,"ĠskolotÄģja":12557,"ĠAustrija":12558,"ĠÄįetrÄģs":12559,"ĠuniversitÄģti":12560,"ĠkristieÅ¡u":12561,"ycl":12562,"Ġmestrs":12563,"bit":12564,"akl":12565,"ĠBob":12566,"Ġvidi":12567,"Äĵzija":12568,"skolÄģ":12569,"ĠraksturÄ«gi":12570,"ĠapdzÄ«votÄģ":12571,"ĠsagrÄģb":12572,"Ġpaugur":12573,"dan":12574,"ĠÄ«r":12575,"inskas":12576,"alÄģ":12577,"ĠlÄģcis":12578,"orks":12579,"ilijs":12580,"ĠPits":12581,"ĠLand":12582,"ĠLaura":12583,"Ġfen":12584,"ĠNight":12585,"ĠJÄģni":12586,"Äįas":12587,"ĠOks":12588,"Ä«ras":12589,"Ġveidoti":12590,"Ä«zija":12591,"Ġuzskats":12592,"ĠKongo":12593,"ĠbÄĵrns":12594,"ĠizpildÄ«ja":12595,"ĠReÅ¾is":12596,"120":12597,"med":12598,"oÅĨus":12599,"ĠsÅ«k":12600,"Ġtoties":12601,"ĠNel":12602,"eviÄįa":12603,"under":12604,"ĠZa":12605,"eckas":12606,"igur":12607,"togrÄģf":12608,"udi":12609,"ugh":12610,"ĠcentrÄģlÄģ":12611,"erators":12612,"Ġfonds":12613,"Ð¸ÑĨ":12614,"ĠEndr":12615,"ĠÅ«deÅĨraÅ¾a":12616,"Bulls":12617,"Kop":12618,"nera":12619,"ĠdÄĵli":12620,"ĠjÄģv":12621,"Äģdo":12622,"ĠslÄĵdz":12623,"iÅ¾u":12624,"ĠInformÄģcija":12625,"Ġbeigas":12626,"ĠdalÄ«Å¡anas":12627,"ĠuzÅĨÄĵma":12628,"Ġkapitu":12629,"celona":12630,"ĠGrieÄ·ija":12631,"ĠKrusta":12632,"Ġbazil":12633,"ĠZvaigzne":12634,"ĠgaitÄģs":12635,"Ġtrak":12636,"Ġhi":12637,"slo":12638,"Ġ115":12639,"Ġaugstskolas":12640,"Ġnormu":12641,"ĠKlim":12642,"Ġdienvidrietumu":12643,"ĠstudijÄģ":12644,"ĠromÄģna":12645,"Ġex":12646,"Ġdokumentu":12647,"ogle":12648,"Ġjosla":12649,"eprezid":12650,"Ġkrusts":12651,"jers":12652,"Ġvitam":12653,"ĠVolf":12654,"emas":12655,"Å¡anÄģm":12656,"ĠlÄ«dzÄ«gu":12657,"Ġstie":12658,"ifer":12659,"ĠfizikÄģ":12660,"DB":12661,"do":12662,"esu":12663,"ĠnoskaÅĨ":12664,"ĠPs":12665,"ĠMÄģl":12666,"ÄĵkÄģ":12667,"Ġ1830":12668,"ĠpirmajÄģm":12669,"ĠAlÅ¾":12670,"inÄģjies":12671,"Ġoktobrim":12672,"Ġkrasts":12673,"Space":12674,"Char":12675,"Ã¶n":12676,"zas":12677,"auÅ¾u":12678,"organ":12679,"ĠManu":12680,"Ġ900":12681,"ĠDrÄģmas":12682,"ĠSalu":12683,"ĠvajadzÄĵja":12684,"Ġizgatavoja":12685,"ĠjautÄģjumu":12686,"ĠjautÄģjumos":12687,"ĠTime":12688,"ĠPÄģvels":12689,"ĠSoÄįi":12690,"ĠmÄģsa":12691,"ĠSofija":12692,"ĠZaÄ¼o":12693,"ĠapglabÄģts":12694,"ĠJevgeÅĨ":12695,"ĠAntverpene":12696,"nija":12697,"sons":12698,"ash":12699,"umtaut":12700,"ĠmuÅ¡":12701,"Ġlaiki":12702,"Ġins":12703,"Ġkopienas":12704,"Ġieguves":12705,"1933":12706,"ĠÄ»eÅĨina":12707,"ĠUzÅĨÄĵmums":12708,"enguins":12709,"ĠHamiltons":12710,"Ġpieciem":12711,"ĠkurÅ¡u":12712,"ĠParal":12713,"Ġmaijam":12714,"atÄ«vs":12715,"ĠmÄģkslu":12716,"ĠVideo":12717,"ĠÄ«si":12718,"ĠPavl":12719,"ĠPiemin":12720,"ĠorgÄģnu":12721,"Eiropas":12722,"IT":12723,"tai":12724,"anh":12725,"ĠPoÄ¼u":12726,"ĠBus":12727,"Äĵlija":12728,"Ġintr":12729,"ĠKatru":12730,"Ġgaismu":12731,"ĠattÄ«stÄ«bai":12732,"ĠJaunÄģs":12733,"Ġpieejama":12734,"ĠnometnÄĵ":12735,"ĠPreiÄ¼u":12736,"yth":12737,"eksp":12738,"Ä·Ä«m":12739,"ĠpÄģrcel":12740,"ĠCer":12741,"Ġizveido":12742,"ÑĢÐ¸":12743,"Ġatsauc":12744,"Ġamatpers":12745,"1947":12746,"Ġwww":12747,"ĠstÄģvokÄ¼a":12748,"Ġnemain":12749,"ĠsaglabÄģjuÅ¡ies":12750,"SKP":12751,"cilvÄĵk":12752,"ĠsiÅ¾":12753,"gala":12754,"akÅ¡u":12755,"Ġparku":12756,"Ġpreses":12757,"inss":12758,"Ġkatal":12759,"Ġpamats":12760,"frÄ«ds":12761,"ĠYour":12762,"Ġbiot":12763,"kalnu":12764,"ĠmedicÄ«nÄģ":12765,"VÄģcu":12766,"giem":12767,"maiÅĨas":12768,"ĠvÄĵs":12769,"Ġliber":12770,"aven":12771,"Ġzo":12772,"otÄģjam":12773,"ĠÄįempionÄģti":12774,"Ġanti":12775,"ĠtÄĵlu":12776,"Ġkinofestiv":12777,"Kap":12778,"Å¡Äģs":12779,"Ġvj":12780,"Ġnobals":12781,"ĠRock":12782,"odien":12783,"Ġkaroga":12784,"ĠpavÄĵli":12785,"endorf":12786,"ĠAndre":12787,"Ġpamest":12788,"Ġ1872":12789,"Ġzirgs":12790,"ĠaparÄģtu":12791,"Ġlielmeistara":12792,"NASA":12793,"Sm":12794,"atis":12795,"ĠVat":12796,"ĠZir":12797,"ĠZÄģl":12798,"Ġ1812":12799,"Ġstep":12800,"Ġteror":12801,"Ġdatumu":12802,"ĠmÄģkslÄģ":12803,"ĠvÄģrdus":12804,"ĠnogalinÄģt":12805,"ĠprecÄ«zi":12806,"Ġiecien":12807,"angliski":12808,"Ġbakalaura":12809,"Isl":12810,"ziv":12811,"ÅĨÄģm":12812,"Ġbobsl":12813,"izl":12814,"Ġarist":12815,"ĠBaku":12816,"Ġprom":12817,"ĠHÄĵr":12818,"Ġauga":12819,"ĠtrijÄģs":12820,"ĠKrasti":12821,"Ġveikals":12822,"ĠklasÄĵ":12823,"Ġsaukt":12824,"enhÄģg":12825,"ĠFrÄ«driha":12826,"ĠIekÅ¡lietu":12827,"Ġmom":12828,"ĠmaiÅĨas":12829,"ĠVEF":12830,"ĠiestÄģÅ¾u":12831,"ĠHab":12832,"oÅ¡ajÄģm":12833,"galÄģ":12834,"Å«lÄ«t":12835,"ĠceÄ¼i":12836,"ĠlocekÄ¼iem":12837,"ĠAkadÄĵm":12838,"Ġtitul":12839,"Ġnopirk":12840,"ĠcietumÄģ":12841,"ĠPalest":12842,"ĠmeklÄĵ":12843,"ĠanalÄ«zes":12844,"ĠkapsÄĵta":12845,"ĠSacensÄ«bas":12846,"ĠLielvÄģrdes":12847,"son":12848,"Ġvolej":12849,"ekÄ¼":12850,"ender":12851,"ĠPoliju":12852,"Ġapvienoja":12853,"ĠrobeÅ¾Äģm":12854,"1932":12855,"ĠBarÄ«ba":12856,"ĠSchw":12857,"ĠMuham":12858,"ĠBart":12859,"Ġreg":12860,"ĠLielÄģko":12861,"ĠLÄ«dzÄ«gi":12862,"ĠZiemeÄ¼amer":12863,"ĠÅ¾urnÄģlÄģ":12864,"ĠDievs":12865,"OH":12866,"ĠBris":12867,"ĠturpinÄģt":12868,"ĠGalerija":12869,"ĠIlÅ«kstes":12870,"ĠMeier":12871,"ĠMilitÄģr":12872,"ĠDombr":12873,"ĠlaikrakstÄģ":12874,"ĠBrazÄ«lijÄģ":12875,"ĠsmilÅ¡u":12876,"ĠKristians":12877,"Ġdiametrs":12878,"ĠpazÄ«mes":12879,"Ã¸":12880,"Ġarod":12881,"Ġizk":12882,"upÄ«te":12883,"ĠdienÄĵja":12884,"ĠÄ¶em":12885,"Ġbarj":12886,"Ġsimfon":12887,"Ġ1883":12888,"Ġ1884":12889,"ĠekonomiskÄģs":12890,"Ġklimata":12891,"ĠmaÅ¡Ä«n":12892,"ĠPÄĵrnavas":12893,"Knicks":12894,"ertr":12895,"Ġmorf":12896,"elÅ¡anos":12897,"ield":12898,"ĠUm":12899,"Ġaer":12900,"ĠLietuvu":12901,"Ġrakstura":12902,"Ġatjaunots":12903,"ĠiekÅ¡Äĵjo":12904,"ĠpieprasÄ«ja":12905,"ĠsezonÄģs":12906,"AB":12907,"ĠspÄ«ti":12908,"ĠlÄ«dzÄģs":12909,"ĠÅłÄģda":12910,"ganas":12911,"ĠkosmiskÄģ":12912,"ĠZviedriju":12913,"ĠiedalÄģs":12914,"ĠPiedalÄ«jÄģs":12915,"ĠFernando":12916,"Nik":12917,"Ġdzird":12918,"ĠGandrÄ«z":12919,"bruÅĨ":12920,"Ġkri":12921,"aca":12922,"Ġapgabali":12923,"ĠJauno":12924,"Ġ1865":12925,"Ġprovinci":12926,"ĠautoceÄ¼u":12927,"ĠpussalÄģ":12928,"Ãº":12929,"gads":12930,"stein":12931,"ĠAtra":12932,"Ġspons":12933,"ĠvienÄ«bÄģm":12934,"ĠbaltÄģ":12935,"Ġbalto":12936,"Äģtrija":12937,"Â»,":12938,"ĠtÅ«kst":12939,"Ġmikros":12940,"xe":12941,"ĠReik":12942,"ĠNord":12943,"ensa":12944,"ĠbrÄģli":12945,"Ġalians":12946,"plÅ«d":12947,"bergu":12948,"Ġvaldnieki":12949,"Ġradik":12950,"Ġpersona":12951,"ĠTeam":12952,"ĠVÄģrti":12953,"ĠatÄ¼Äģva":12954,"ĠAnders":12955,"ĠgÅ«stÄģ":12956,"VÄ«r":12957,"Ġves":12958,"ĠLes":12959,"ĠMerk":12960,"ĠGord":12961,"ĠpretÄ«":12962,"ingas":12963,"Ġaugstumu":12964,"ĠraÅ¾oja":12965,"''''',":12966,"ĠKanÄģda":12967,"ĠtÅ«res":12968,"Ġpakalpojumus":12969,"ĠSuperl":12970,"âĢ²âĢ²":12971,"ĠaicinÄģja":12972,"Warriors":12973,"ĠÅħÅ«dÅ¾ers":12974,"Ñī":12975,"ĠPÄĮ":12976,"ĠKoÅ¡":12977,"Å¾ot":12978,"omÄģt":12979,"Ġcon":12980,"ĠNam":12981,"Äģnus":12982,"ejiem":12983,"ĠCitas":12984,"Ġautore":12985,"Ġpadomi":12986,"Ġlocekl":12987,"Ġ1868":12988,"Ġbalstoties":12989,"ĠsarkanÄģ":12990,"Ïĥ":12991,"Ġku":12992,"inka":12993,"aig":12994,"ĠrÄ«tÄģ":12995,"ody":12996,"ĠIedz":12997,"ĠLatvia":12998,"ĠCK":12999,"Ġsasauk":13000,"Ġhier":13001,"ĠPrÄģta":13002,"ĠNeil":13003,"ĠmonÄĵtas":13004,"ĠBÄĵrnu":13005,"ĠceturtÄģ":13006,"ĠbagÄģtie":13007,"Ġmilzu":13008,"ĠpildÄ«ja":13009,"gaidÄģm":13010,"ĠUngÄģrijÄģ":13011,"Ġvideokl":13012,"ĠEkonomikas":13013,"ĠTurpmÄģk":13014,"Pal":13015,"Zelta":13016,"iew":13017,"alitÄģti":13018,"ĠSn":13019,"ojamas":13020,"ÄģjuÅ¡i":13021,"utas":13022,"ĠAlonso":13023,"Ä«gai":13024,"ĠizveidoÅ¡anu":13025,"ĠnevÄĵl":13026,"ĠNeap":13027,"ĠokeÄģnu":13028,"ĠMillers":13029,"ĠTransports":13030,"ikÄģciju":13031,"akÄģs":13032,"ĠJust":13033,"ĠAtseviÅ¡Ä·":13034,"Ġkoordin":13035,"ĠIrÄģkas":13036,"Ġ1867":13037,"ĠmainÄ«ja":13038,"Ġiemesls":13039,"ĠLiber":13040,"ĠSaksijas":13041,"ĠGrobiÅĨas":13042,"ĠatcÄĵla":13043,"ĠEva":13044,"Ġvienai":13045,"Ġstatu":13046,"Ġvaivad":13047,"ĠvairoÅ¡anÄģs":13048,"Ġ107":13049,"aster":13050,"meÅĨiem":13051,"ange":13052,"Ġpadara":13053,"Ġdelf":13054,"ĠizrÄģdÄ«jÄģs":13055,"Ġdistrikts":13056,"Ġolbaltum":13057,"Bill":13058,"Penguins":13059,"pektÄ«v":13060,"ĠmÄ«Ä¼":13061,"ĠKell":13062,"ekcija":13063,"''';":13064,"Ġ106":13065,"ĠgarÄģm":13066,"Ġvaldnieka":13067,"Ġabs":13068,"desmita":13069,"ĠÅ¾ir":13070,"ĠguÄ¼":13071,"1955":13072,"ĠknÄģbis":13073,"ĠPhjonÄįhana":13074,"Tim":13075,"vers":13076,"Ġsver":13077,"ongs":13078,"izz":13079,"ĠLiga":13080,"adÅ¾":13081,"Ä«gÄģkÄģs":13082,"ĠpÄģrcÄĵla":13083,"ĠÅłm":13084,"uki":13085,"ĠAnrÄ«":13086,"valdes":13087,"iede":13088,"Ġelp":13089,"Ġorganismu":13090,"rÄģds":13091,"ĠIlze":13092,"Ġfilozofi":13093,"ĠModern":13094,"ĠKolumbijas":13095,"Ġstiepjas":13096,"Ġmark":13097,"amies":13098,"tuÄ¼":13099,"ĠRel":13100,"evska":13101,"undz":13102,"ĠHant":13103,"Ġkrim":13104,"Ġdraugs":13105,"ĠziemeÄ¼austrumos":13106,"ĠzaudÄĵjusi":13107,"ĠLuijs":13108,"Ġarhitekta":13109,"Ġceturtais":13110,"ĠOke":13111,"ĠNorvÄĵÄ£ijÄģ":13112,"ĠArhit":13113,"ĠapvÄĵrsuma":13114,"Real":13115,"AT":13116,"cilt":13117,"kona":13118,"Äĵrt":13119,"agask":13120,"ĠHÄģbs":13121,"iedis":13122,"ĠÅ¾ag":13123,"ĠRepublikÄģ":13124,"Ġperiodu":13125,"1951":13126,"ĠprofesionÄģlÄģ":13127,"Ġstilu":13128,"ĠDavid":13129,"ĠLimbaÅ¾u":13130,"ĠZiemassvÄĵtku":13131,"ĠEtiop":13132,"Col":13133,"Mal":13134,"Ġmie":13135,"amÄģk":13136,"ĠjÅ«t":13137,"Ġdinam":13138,"ĠRomÄģns":13139,"Ġkaravad":13140,"ĠmitoloÄ£ijÄģ":13141,"ĠAtraÅ¡anÄģs":13142,"iu":13143,"sudr":13144,"urr":13145,"ĠMHz":13146,"ĠDund":13147,"Ä·os":13148,"ĠProgram":13149,"ÄĵviÄįs":13150,"Ġnodarboties":13151,"ĠaparÄģta":13152,"Ġceturto":13153,"ĠdibinÄģtÄģjiem":13154,"ĠtradicionÄģli":13155,"virz":13156,"ĠLeik":13157,"Ġatkrit":13158,"ĠRes":13159,"oko":13160,"Ġnoties":13161,"Ġkaralim":13162,"Ġnoteikumiem":13163,"oÄ¼es":13164,"entÄģr":13165,"ĠatstÄģjot":13166,"ĠÅ¡Äģds":13167,"ĠlÄĵmums":13168,"ĠnÄģkamÄģs":13169,"inÄģtÄģjs":13170,"ĠmÄģsas":13171,"ĠUngÄģrija":13172,"ĠieÅĨÄĵmis":13173,"ĠeÄ¼Ä¼as":13174,"ĠstÄģjÄģs":13175,"ĠAglonas":13176,"ĠpaÅ¡nÄģv":13177,"FR":13178,"aiÅĨi":13179,"Ġ210":13180,"Ġdrupas":13181,"ĠSkonto":13182,"Ġsaknes":13183,"ĠFrei":13184,"ÑĥÐ´":13185,"ĠoperÄģciju":13186,"ĠatbrÄ«voja":13187,"ĠdziÄ¼umÄģ":13188,"Ð»Ð°Ð´":13189,"Ġepid":13190,"ĠMcLaren":13191,"ĠDie":13192,"Ġparad":13193,"ĠvienÄģdi":13194,"ĠArena":13195,"aino":13196,"ĠIng":13197,"ĠLielÄģkais":13198,"ĠMargar":13199,"ĠAbas":13200,"Spurs":13201,"Ġkursu":13202,"CilvÄĵk":13203,"cil":13204,"ml":13205,"ĠmÄģti":13206,"ĠTamp":13207,"Ġlielums":13208,"Ġraksts":13209,"ÄĵtÄģk":13210,"Ġdatora":13211,"ĠizvÄĵlas":13212,"ĠbruÅĨoto":13213,"ĠStarptautiskajÄģ":13214,"ĠmazÄģkumtaut":13215,"ĠpÄģrvaldÄ«ja":13216,"ĠpasÄģkumi":13217,"Ġkorpuss":13218,"Ġspiediens":13219,"ĠAizkraukles":13220,"ĠnorvÄĵÄ£u":13221,"ZS":13222,"unt":13223,"ĠraÅ¾oÅ¡anÄģ":13224,"ĠrisinÄģjums":13225,"ĠdisertÄģ":13226,"ĠvislabÄģk":13227,"Ġmums":13228,"ĠgrÄĵdas":13229,"Ġ103":13230,"Ð¾Ðµ":13231,"ĠslÄģÅĨa":13232,"ĠAtkar":13233,"galvas":13234,"ĠÄģrÄĵjÄģ":13235,"Ġfondu":13236,"Ġ1877":13237,"ojoÅ¡o":13238,"Latvija":13239,"entÄģls":13240,"pasaules":13241,"ĠGunter":13242,"Ġbiezums":13243,"ĠdzinÄĵjs":13244,"Ġcikla":13245,"avaliers":13246,"ĠabsolvÄĵja":13247,"FSR":13248,"Ġpian":13249,"apaÄ¼":13250,"ĠId":13251,"gale":13252,"Ġapmier":13253,"ĠattÄĵli":13254,"Ġ1864":13255,"âĢĻ,":13256,"ĠspÄģrni":13257,"ĠpÄģrbaudes":13258,"ĠÄģrkÄģrtas":13259,"fu":13260,"Ġlugas":13261,"ekciju":13262,"ĠDa":13263,"ĠIX":13264,"Ġminor":13265,"Ġielejas":13266,"Ġpievienota":13267,"ĠpanÄģca":13268,"ĠpÄģrvalda":13269,"ĠveltÄ«ta":13270,"ĠPolitehn":13271,"Ġsiltuma":13272,"Ġviceprezid":13273,"ĠFrankfur":13274,"Rangers":13275,"ikova":13276,"amil":13277,"ĠKai":13278,"ĠKÄĵn":13279,"Ġ102":13280,"ĠÄĮakst":13281,"ĠpriekÅ¡met":13282,"ĠÄ¶ek":13283,"ĠnozÄ«mÄ«gs":13284,"ango":13285,"ĠbÅ«vÄĵta":13286,"Ġ1874":13287,"ĠmainÄ«ts":13288,"Ġprincips":13289,"Ġmalu":13290,"ĠpierobeÅ¾":13291,"Ġgarniz":13292,"ĠÄ¶ermeÅĨa":13293,"Ġaristokr":13294,"IC":13295,"On":13296,"ĠvÄģk":13297,"ĠPro":13298,"Ġalu":13299,"ausu":13300,"Ġasti":13301,"andro":13302,"ĠmeÅ¾Äģ":13303,"Ġieviest":13304,"ĠnoslÄĵguma":13305,"ĠkapteiÅĨa":13306,"ĠportÄģlÄģ":13307,"BS":13308,"hal":13309,"mel":13310,"Å«dza":13311,"ĠMit":13312,"ĠZel":13313,"ozu":13314,"Ġnoteiktas":13315,"ĠgrÄģfs":13316,"ĠdisciplÄ«nÄģs":13317,"ĠautomaÅ¡Ä«nu":13318,"ĠBohÄĵmijas":13319,"vec":13320,"ĠKuk":13321,"ekr":13322,"ĠTan":13323,"oÅ¡ajÄģ":13324,"Ġinsp":13325,"ĠgarÄģ":13326,"ples":13327,"Ġpussar":13328,"ĠGalvas":13329,"ĠkÄģrtu":13330,"ĠpakÄ¼auta":13331,"ĠievÄĵrojamu":13332,"ĠNÄ«derlande":13333,"Ġjunioriem":13334,"ĠIzmantoÅ¡ana":13335,"OL":13336,"enÄįu":13337,"ĠKipr":13338,"Ġpiestipr":13339,"Ġaizr":13340,"Ä«dus":13341,"ĠtÄģdÄģs":13342,"ĠjÅ«nijam":13343,"ĠvidusdaÄ¼Äģ":13344,"Ġavotu":13345,"ÑģÑĤÐ²":13346,"ĠspÄģrniem":13347,"Ġbanku":13348,"ĠMakss":13349,"ĠKauÅĨas":13350,"Ġsimpt":13351,"ĠVitebskas":13352,"Go":13353,"ĠSmits":13354,"ĠHall":13355,"Ġ1859":13356,"aÅ¡k":13357,"Ġklint":13358,"ĠsaraÅ¾":13359,"Ġvirsdzimta":13360,"ĠraÅ¾ot":13361,"ĠJapÄģna":13362,"Ð¸ÑĩÐµ":13363,"ĠprasÄ«bas":13364,"eckis":13365,"ĠabsolvÄĵjis":13366,"eitnants":13367,"Ġtemat":13368,"ĠnÄ«derl":13369,"alb":13370,"orum":13371,"ÄģtÄģs":13372,"ĠlÄ«dzekÄ¼i":13373,"stru":13374,"ĠizmaiÅĨÄģm":13375,"nets":13376,"Ġalas":13377,"enesanses":13378,"iÄ¼as":13379,"Ġveicina":13380,"ikties":13381,"ĠzÄ«mi":13382,"ĠakadÄĵmija":13383,"ĠokupÄĵja":13384,"Ġmelno":13385,"Ġpiekrasti":13386,"ĠsmagÄģ":13387,"ĠKevins":13388,"Ġuzplauk":13389,"inais":13390,"aip":13391,"Ġbot":13392,"ĠÅłvar":13393,"Ġgaler":13394,"ĠnodÄĵv":13395,"ĠÅħik":13396,"ĠKalgari":13397,"Ġizlaists":13398,"ĠÅ¾urnÄģls":13399,"ĠAdams":13400,"ĠEkstr":13401,"ĠIvanovs":13402,"ĠApvienotÄģ":13403,"ĠprÄĵmija":13404,"ĠatvÄĵra":13405,"ĠVilhelma":13406,"ĠnodokÄ¼u":13407,"ĠkÄģju":13408,"ĠMend":13409,"ĠÅłp":13410,"Ġneiek":13411,"ĠÐ°":13412,"ĠcentrÄģlo":13413,"ĠÄĵkÄģm":13414,"ĠLiepiÅĨÅ¡":13415,"Ġideja":13416,"ĠtÄ«klÄģ":13417,"ĠOktobra":13418,"ĠmÄĵnesÄ«":13419,"ĠcietokÅ¡ÅĨa":13420,"ĠSauber":13421,"Ġnark":13422,"usÄģ":13423,"Ġizej":13424,"Ġpres":13425,"uÅ¡ajiem":13426,"Ġlieluma":13427,"Ġkopa":13428,"Ġopera":13429,"1954":13430,"Ġautomobi":13431,"ĠnedÄĵÄ¼Äģ":13432,"Ġdolom":13433,"ĠMÄģcÄ«jies":13434,"Ġ%)":13435,"ĠdzimtenÄĵ":13436,"ĠBolder":13437,"ĠKrasn":13438,"ĠbrigÄģdes":13439,"ĠsaÅ¡Ä·":13440,"Ġgrunts":13441,"Ġbombard":13442,"ĠLÅ«s":13443,"ĠrÄģp":13444,"akÄ¼":13445,"ĠBirz":13446,"Ġ104":13447,"ĠJaunajÄģ":13448,"1953":13449,"Ġautobusi":13450,"ĠPetrogr":13451,"Ġizdala":13452,"opagan":13453,"ĠDienvidslÄģv":13454,"ÄĴr":13455,"Ġloka":13456,"ĠDaiÄ¼":13457,"Äģjams":13458,"odot":13459,"aza":13460,"Ġgot":13461,"Ġgrants":13462,"ĠbrÄģÄ¼u":13463,"Ä«tÄģjus":13464,"Ġsaturs":13465,"ĠBarona":13466,"viela":13467,"ĠÄ·Ä«mijas":13468,"Map":13469,"dis":13470,"miÅĨa":13471,"Ġtend":13472,"Ġrob":13473,"ektiv":13474,"ejam":13475,"ĠBrauns":13476,"aujot":13477,"endÅ¾":13478,"ĠsakÄģves":13479,"Ġsabiedriskais":13480,"ĠreÅ¾isori":13481,"kÄģrta":13482,"Ġstarpzonu":13483,"Mat":13484,"ĠLotus":13485,"ĠRik":13486,"Ġkrup":13487,"ĠOslo":13488,"ĠAlf":13489,"berl":13490,"raga":13491,"Ġspecial":13492,"ĠmainÄ«t":13493,"ĠpalielinÄģs":13494,"felds":13495,"ĠSaimniecÄ«ba":13496,"ĠVDR":13497,"Ġleg":13498,"Ġdivdesmit":13499,"Ġjaunizveid":13500,"iksas":13501,"ĠSkul":13502,"ĠFrancis":13503,"ĠKosmosa":13504,"ĠteritoriÄģlÄģs":13505,"Blue":13506,"Metallurg":13507,"tulk":13508,"Ġsejas":13509,"Ġdie":13510,"ikÄģm":13511,"ĠjÅ«d":13512,"ĠGet":13513,"iae":13514,"Ġnolemts":13515,"ĠaplÅ«k":13516,"Ġkreisi":13517,"Ġbiroja":13518,"yll":13519,"koku":13520,"vÄ«ns":13521,"Ġsing":13522,"Ġkeram":13523,"ĠSul":13524,"Ġatvien":13525,"Ä«gums":13526,"ĠJer":13527,"Ġhist":13528,"ĠzinÄģtnieku":13529,"ĠdzelzceÄ¼Å¡":13530,"ĠSaeima":13531,"ĠcilÅ¡u":13532,"ĠsignÄģlu":13533,"Ġdrafta":13534,"Ġastronoms":13535,"ĠZemgalÄĵ":13536,"ĠTurnÄ«ra":13537,"ĠRacing":13538,"ÄĻ":13539,"Ġ119":13540,"Ġsasp":13541,"Ġkongress":13542,"ĠmedÄ«bu":13543,"ĠBalodis":13544,"Ġkoord":13545,"Ġvirsma":13546,"Ġlikt":13547,"angÄģ":13548,"ĠaktÄ«vs":13549,"ĠmelnÄģ":13550,"Ġserver":13551,"Augu":13552,"Ã¢":13553,"ĠBag":13554,"ĠBut":13555,"ĠBlack":13556,"Ġgrauz":13557,"ĠSlam":13558,"ichael":13559,"Ġjebkuru":13560,"Ġpieejami":13561,"ĠSoltl":13562,"ĠapvidÅ«":13563,"ĠPremjerlÄ«gas":13564,"ĠArvÄ«ds":13565,"!''":13566,"Hel":13567,"auÅ¾as":13568,"ĠLÄ«d":13569,"ĠTerm":13570,"Ġdzemd":13571,"niekos":13572,"ĠpatÄ«k":13573,"Ġnesta":13574,"ĠpÄģrstÄģvot":13575,"ĠVairoÅ¡anÄģs":13576,"ĠbÄ«skapijas":13577,"Ġizcelsme":13578,"ĠdziÄ¼ums":13579,"ĠKatrÄ«na":13580,"Ġinstrumentu":13581,"ĠSoltleiks":13582,"AZ":13583,"Sab":13584,"alitÄģte":13585,"ÅĨikovs":13586,"akova":13587,"titu":13588,"Ġhorm":13589,"ilver":13590,"Ġpagriez":13591,"ĠvecÄģko":13592,"1948":13593,"ĠslimÄ«ba":13594,"Ġ1869":13595,"Ġredzama":13596,"ĠTeÄģtra":13597,"Atl":13598,"Ġintereses":13599,"ĠmaÅ¡Ä«nas":13600,"Ġkabineta":13601,"ĠmeiteÅĨu":13602,"ĠStokholma":13603,"ĠValstis":13604,"ĠVirzienÄģ":13605,"NHL":13606,"gailis":13607,"ĠVs":13608,"imul":13609,"omat":13610,"ĠBiju":13611,"Ġcolor":13612,"Ġkomtur":13613,"ĠAtÄĵnÄģs":13614,"ĠDÅ¾ona":13615,"Ġkokiem":13616,"ĠbijuÅ¡Äģ":13617,"entÄģla":13618,"ĠdÄĵvÄĵja":13619,"ĠnolaiÅ¾":13620,"ĠaugÅ¡up":13621,"ĠÅ¡elfa":13622,"Sol":13623,"aram":13624,"ĠLaz":13625,"agen":13626,"iedru":13627,"ÐµÑģ":13628,"ĠbiedrÄ«bu":13629,"ĠtÅ«kstoÅ¡us":13630,"Ġainavu":13631,"onÄ«ms":13632,"ostacion":13633,"Ð»ÐµÐºÑģÐ°Ð½Ð´":13634,"Oilers":13635,"meds":13636,"pos":13637,"Å¡os":13638,"ĠgaÄ¼as":13639,"ĠSark":13640,"ĠBM":13641,"ĠHES":13642,"ĠCim":13643,"igi":13644,"ĠattÄĵlota":13645,"Ġrokgrupas":13646,"ĠaprakstÄ«ja":13647,"ĠAlberta":13648,"Ġreakcijas":13649,"Ġfabrika":13650,"ĠMonreÄģlas":13651,"kaitot":13652,"ĠBosnijas":13653,"AP":13654,"Suns":13655,"UT":13656,"ajev":13657,"Ġjezu":13658,"oder":13659,"ĠGud":13660,"Ġ1795":13661,"Ġvirsk":13662,"Äģzi":13663,"Ġsatura":13664,"Ġputn":13665,"ĠPÄĵtersons":13666,"Ġmelna":13667,"ĠsaÅĨemt":13668,"ĠastoÅĨas":13669,"ĠPÄĵterburgÄģ":13670,"Ġklostera":13671,"Ġienaidnieka":13672,"Cavaliers":13673,"Ġnec":13674,"Äģrus":13675,"Ä«gÄģkie":13676,"Ġgen":13677,"ĠkrÄ«zes":13678,"ĠpirmajÄģs":13679,"glÄģb":13680,"ĠGrieÄ·u":13681,"ĠInt":13682,"ĠrakstÄ«t":13683,"ĠKlÄģr":13684,"skola":13685,"Ġlikumi":13686,"ĠÄģtruma":13687,"Ġpieteik":13688,"Ġkavalieri":13689,"Pel":13690,"kov":13691,"ĠgadÄ«jumu":13692,"ĠBebr":13693,"ĠDÄģnija":13694,"ĠkardinÄģl":13695,"ĠpilsÄĵti":13696,"ĠSkat":13697,"ĠFricis":13698,"ÄģtÄģju":13699,"ĠVolgas":13700,"ĠdistanÄįu":13701,"ĠOzols":13702,"ĠkonferencÄĵ":13703,"ĠBeÄ¼Ä£ijÄģ":13704,"Ġobjektiem":13705,"QL":13706,"Ġnul":13707,"enam":13708,"ĠSec":13709,"ĠatÅ¡Ä·":13710,"aulu":13711,"Ġakc":13712,"ĠTurcija":13713,"Ġsabiedrisko":13714,"ĠpastÄģvÄ«gi":13715,"ĠmÄģjÄģ":13716,"ĠMelnÄģs":13717,"ĠdiÅ¾cilt":13718,"Ġiii":13719,"Ġlyga":13720,"Mart":13721,"ĠRog":13722,"ĠHerm":13723,"Ġ128":13724,"Ġradot":13725,"ĠÅ¡Ä·iet":13726,"Ġkomponis":13727,"Ġizdevies":13728,"ĠEnerg":13729,"ĠrindÄģm":13730,"ĠmateriÄģla":13731,"ĠkursÄĵja":13732,"ĠfiniÅ¡Äĵja":13733,"mÄĵm":13734,"asu":13735,"tajiem":13736,"ĠSed":13737,"ĠGe":13738,"ĠEver":13739,"1912":13740,"ĠÅłim":13741,"Ġgals":13742,"Ġ111":13743,"ĠKlÄ«v":13744,"ĠBaltijÄģ":13745,"ĠMaskavu":13746,"ĠnoteiktÄģ":13747,"Ġsportistiem":13748,"Ġceltne":13749,"ĠMaija":13750,"ĠGlez":13751,"ĠSmoÄ¼":13752,"materiÄģl":13753,"ĠlaikmetÄģ":13754,"ĠapÅ¡aud":13755,"ĠsÄĵÅĨu":13756,"ĠpÄģrvar":13757,"ĠkrÄģÅ¡":13758,"aunu":13759,"ĠslÄģvu":13760,"Ġkomandiera":13761,"ĠaugstÄģkajÄģ":13762,"ĠnorobeÅ¾":13763,"ĠsenÄģs":13764,"inote":13765,"zemei":13766,"ĠsamazinÄģt":13767,"ĠpersonÄģm":13768,"Ġnoziedz":13769,"ĠinÅ¾enier":13770,"ĠtraucÄĵjumiem":13771,"ĠSakarÄģ":13772,"ĠbrÄ«vprÄģtÄ«go":13773,"ĠkanÄģdieÅ¡u":13774,"Ital":13775,"Ġvol":13776,"Ġ220":13777,"ĠPeru":13778,"tef":13779,"ĠdaÄ¼iÅĨu":13780,"ĠDzirn":13781,"Ġapgabaliem":13782,"Ġarmijai":13783,"ĠKonc":13784,"ĠbrÄ«vÄ«bu":13785,"ĠDaugava":13786,"Ġpilnveid":13787,"ĠzinÄģmi":13788,"Ind":13789,"Ġmaksimums":13790,"ĠakmeÅĨ":13791,"ĠFetels":13792,"Fil":13793,"Mir":13794,"kul":13795,"âĨ":13796,"umul":13797,"ikÄģcija":13798,"Äĵjami":13799,"ĠTÄĵrv":13800,"Äĵri":13801,"ĠparÄģda":13802,"unga":13803,"nieÅ¡u":13804,"Ä«gajÄģm":13805,"ĠraÅ¾otÄģjs":13806,"Ġsenkapi":13807,"ĠpriekÅ¡pilsÄĵtÄģ":13808,"ĠÎ¼":13809,"ĠlaureÄģts":13810,"ĠVankÅ«vera":13811,"ĠpriekÅ¡metu":13812,".âĻ":13813,")''.":13814,".âĢĿ":13815,"Im":13816,"Ġsekl":13817,"Ġline":13818,"Å«Å¡anu":13819,"urga":13820,"ĠiezÄ«mes":13821,"ĠRuc":13822,"âĢŀ":13823,"ĠJozefs":13824,"alns":13825,"Ġpagal":13826,"Ġpilis":13827,"ĠÅ¡Ä·Ä«st":13828,"ĠpavadoÅĨa":13829,"bilst":13830,"ĠCentrÄģlais":13831,"ĠizraisÄ«t":13832,"ĠgleznotÄģji":13833,"ĠzivÄ«m":13834,"ĠgÅ«stot":13835,"ĠRodÅ¾ers":13836,"ĠpagÄģtnÄĵ":13837,"ĠlÄ«bieÅ¡u":13838,"piebalgas":13839,"Div":13840,"kÄģju":13841,"ĠLut":13842,"ĠBank":13843,"Ġpresti":13844,"ĠFeld":13845,"epar":13846,"inÄģjusi":13847,"ĠAptuveni":13848,"Ġtelpa":13849,"Ġtenisa":13850,"Ġatviegl":13851,"ĠFerdinands":13852,"kova":13853,"eiÅ¡":13854,"ĠUSA":13855,"Ġnovembrim":13856,"ĠPirmoreiz":13857,"Ġkrustu":13858,"Ġatbalsts":13859,"Ġdiagn":13860,"anche":13861,"Ġmeistari":13862,"katoties":13863,"ĠVÄ«nÄĵ":13864,"hov":13865,"worth":13866,"ĠLN":13867,"Ġizvad":13868,"ĠTeks":13869,"Ġkrekl":13870,"spÄ«d":13871,"itucionÄģl":13872,"ĠLielupes":13873,"ĠKolor":13874,"Ġprocesa":13875,"ĠEmÄ«ls":13876,"ĠbirÅ¾Äģ":13877,"Ġrudens":13878,"ĠMaksims":13879,"ĠizmÄĵri":13880,"ĠrezultatÄ«vÄģkais":13881,"Bay":13882,"zijas":13883,"astÄģ":13884,"onists":13885,"ĠPik":13886,"ĠRop":13887,"Ġzud":13888,"ĠNad":13889,"ĠpieÅĨÄĵm":13890,"ĠÅ¡oreiz":13891,"Ä«zu":13892,"osmÄģ":13893,"Ġdecembrim":13894,"ĠpolitikÄģ":13895,"alasas":13896,"ĠAndrÄĵ":13897,"ĠKalp":13898,"ĠNacionÄģlo":13899,"ĠEirÄģzijas":13900,"ĠpacÄĵl":13901,"ĠmÄĵÄ£inÄģjums":13902,"ĠUrb":13903,"ĠpÄģrspÄĵja":13904,"pÄĵd":13905,"Ġmanu":13906,"ĠPC":13907,"ĠPiltenes":13908,"omus":13909,"Ġ350":13910,"Ġsavos":13911,"Ġbrem":13912,"Äĵnos":13913,"skata":13914,"Ġ360":13915,"Ġsasniedzis":13916,"Ġburt":13917,"Ġnemier":13918,"ĠmaksimÄģlÄģs":13919,"ĠtieÅ¡Äģ":13920,"ĠSuper":13921,"ĠLeonÄ«ds":13922,"ĠIndividuÄģlajÄģ":13923,"ĠPilnvaru":13924,"Mus":13925,"eu":13926,"ĠvarbÅ«t":13927,"Ġdurv":13928,"istons":13929,"Ġ1800":13930,"Ä«rÄģs":13931,"Ġinst":13932,"ĠveidoÅ¡anÄģ":13933,"ĠtikÄģs":13934,"ĠpretÄĵji":13935,"Å«ves":13936,"Ġanaliz":13937,"ĠKazaÅĨas":13938,"ĠBelgr":13939,"ĠfotogrÄģfijas":13940,"Ġhronikas":13941,"ĠMaÄ¼":13942,"ĠRoÅ¾":13943,"iskai":13944,"Äģdijs":13945,"1914":13946,"eria":13947,"Ġveco":13948,"ĠattÄ«stÄ«ta":13949,"jaÅĨ":13950,"Ġavotiem":13951,"ĠmÄĵnesi":13952,"ĠbruÅĨniecÄ«bas":13953,"Ġkameras":13954,"Blackhawks":13955,"mod":13956,"ĠizvÄĵrt":13957,"ĠTechn":13958,"ĠJana":13959,"ĠBrat":13960,"udo":13961,"ĠÄĮÄ«les":13962,"ĠVÄĵsturiski":13963,"entÄģlo":13964,"ĠpersonÄ«bas":13965,"Ġacs":13966,"ĠHoliv":13967,"ĠizstÄģde":13968,"ĠbasÄ£":13969,"ĠjebkurÄģ":13970,"Ġapgroz":13971,"ĠhorizontÄģl":13972,"ĠkriminÄģl":13973,"igan":13974,"atiem":13975,"icip":13976,"ezera":13977,"ĠieguvÄĵju":13978,"ĠMines":13979,"ÄģtÄģjs":13980,"ifikÄģciju":13981,"ĠatpazÄ«st":13982,"ĠAndersons":13983,"ĠreÅ¾Ä«ms":13984,"ĠdominÄĵ":13985,"ĠVirslÄ«gas":13986,"enbrÄģÄ¼u":13987,"Lokomot":13988,"TR":13989,"Vis":13990,"her":13991,"Ġed":13992,"inens":13993,"ĠAsar":13994,"Äįuks":13995,"Ġtroni":13996,"ĠvadÄ«jis":13997,"ĠpÄģrstÄģvju":13998,"Ġpavadoni":13999,"ĠizplatÄ«ba":14000,"ĠXII":14001,"ĠNorvÄĵÄ£ija":14002,"ĠvieglatlÄĵtikÄģ":14003,"Ġmetro":14004,"Ã¶l":14005,"ĠapstrÄģdes":14006,"ĠÄ·ieÄ£eÄ¼u":14007,"ĠStradiÅĨa":14008,"ĠnavigÄģcijas":14009,"HR":14010,"Zem":14011,"ijiem":14012,"Ġlatu":14013,"ilovs":14014,"akr":14015,"ĠTieÅ¡i":14016,"ĠapaÄ¼":14017,"Ġlielos":14018,"ibir":14019,"ĠolimpiskajÄģm":14020,"ĠvaldÄ«bai":14021,"laid":14022,"Ġnesa":14023,"ĠalbumÄģ":14024,"Ġiesniedza":14025,"ĠuniversitÄģt":14026,"ĠsituÄģcija":14027,"Team":14028,"ĠMuiÅ¾as":14029,"goÄ¼u":14030,"agar":14031,"ĠkaraÄ¼":14032,"aint":14033,"Ġizveidoti":14034,"Ġabos":14035,"ĠmÅ«zikÄģ":14036,"Ġmeta":14037,"ĠÅ½em":14038,"Ġpunkta":14039,"ĠAleksandru":14040,"ĠintereÅ¡u":14041,"ĠnogalinÄģts":14042,"Ġuzdevumus":14043,"ĠkÅĨaza":14044,"ĠrevolÅ«cija":14045,"ĠreÅ¾Ä«mÄģ":14046,"Ġmobilo":14047,"Ġizbeig":14048,"ĠPazÄ«stam":14049,"ĠbudÅ¾eta":14050,"ĠBraiens":14051,"ĠFrenks":14052,"\";":14053,"MT":14054,"esch":14055,"amiem":14056,"Å«tÄģ":14057,"brauca":14058,"ĠlabvÄĵl":14059,"ĠpiekÄ¼u":14060,"Ġkanc":14061,"ĠPilots":14062,"ĠDzelzceÄ¼a":14063,"ĠraÄ·eÅ¡u":14064,"Ġsintez":14065,"ĠCeturtdaÄ¼":14066,"Ġspalvas":14067,"ĠGlobusa":14068,"ĠdÄ«zeÄ¼":14069,"ĠJekater":14070,"%).":14071,"400":14072,"ilhel":14073,"olis":14074,"Ġiesk":14075,"avÄĵl":14076,"Ġreformu":14077,"Ġmutes":14078,"Ġdaudzuma":14079,"ĠdrÄ«kst":14080,"ĠEiropu":14081,"Ġpubliski":14082,"ĠsacensÄ«bÄģm":14083,"ĠoperÄģcija":14084,"ĠÄ£imnÄģziju":14085,"Ġkatrai":14086,"Ġaizliedza":14087,"ĠpÄĵkÅ¡":14088,"ĠPost":14089,"ĠKod":14090,"ĠMug":14091,"ĠNed":14092,"icisma":14093,"Ä«rija":14094,"kss":14095,"Ġpretinieku":14096,"Ġpatr":14097,"ĠstÄģsti":14098,"ĠKalniÅĨa":14099,"ĠÄĴÄ£iptÄĵ":14100,"skalo":14101,"ĠLSDSP":14102,"ĠJersikas":14103,"Flyers":14104,"Ben":14105,"MeÅ¾":14106,"Son":14107,"ĠMÄ«l":14108,"Ġpilsdr":14109,"vienÄ«ba":14110,"ĠiegÅ«ta":14111,"ĠKonrÄģds":14112,"Ġsaturu":14113,"1952":14114,"ĠtabulÄģ":14115,"ĠpÄģrraides":14116,"ĠÅ«deÅĨos":14117,"ĠuzrakstÄ«ja":14118,"ĠSentlu":14119,"ĠosmaÅĨu":14120,"ĠAnatolijs":14121,"lpp":14122,"nere":14123,"ĠÅ«n":14124,"aum":14125,"emini":14126,"ĠDj":14127,"Ġuzcelts":14128,"ahr":14129,"ansa":14130,"ĠÄ«paÅ¡Ä«bÄģm":14131,"Ġneleg":14132,"ĠpÄģrsniedza":14133,"ĠiestÄģjies":14134,"Ġteksta":14135,"ĠApvienoto":14136,"ĠseÅ¡i":14137,"Ġpiedzimst":14138,"ĠdisciplÄ«nÄģ":14139,"ĠdiplomÄģts":14140,"ĠIetilp":14141,"Ġvirkne":14142,"ĠDemokrÄģtiskÄģ":14143,"askaÅĨas":14144,"ĠErnsts":14145,"ĠpatvÄĵr":14146,"EE":14147,"mÄ«l":14148,"iets":14149,"Ġtakt":14150,"Ġskudr":14151,
[...]
